{
  "version": "1.0",
  "truncation": null,
  "padding": {
    "strategy": "BatchLongest",
    "direction": "Right",
    "pad_to_multiple_of": null,
    "pad_id": 0,
    "pad_type_id": 0,
    "pad_token": "[PAD]"
  },
  "added_tokens": [
    {
      "id": 0,
      "content": "[PAD]",
      "single_word": false,
      "lstrip": false,
      "rstrip": false,
      "normalized": false,
      "special": true
    },
    {
      "id": 1,
      "content": "[CLS]",
      "single_word": false,
      "lstrip": false,
      "rstrip": false,
      "normalized": false,
      "special": true
    },
    {
      "id": 2,
      "content": "[SEP]",
      "single_word": false,
      "lstrip": false,
      "rstrip": false,
      "normalized": false,
      "special": true
    },
    {
      "id": 3,
      "content": "[UNK]",
      "single_word": false,
      "lstrip": false,
      "rstrip": false,
      "normalized": false,
      "special": true
    },
    {
      "id": 4,
      "content": "[MASK]",
      "single_word": false,
      "lstrip": false,
      "rstrip": false,
      "normalized": false,
      "special": true
    }
  ],
  "normalizer": null,
  "pre_tokenizer": {
    "type": "Whitespace"
  },
  "post_processor": {
    "type": "TemplateProcessing",
    "single": [
      {
        "SpecialToken": {
          "id": "[CLS]",
          "type_id": 0
        }
      },
      {
        "Sequence": {
          "id": "A",
          "type_id": 0
        }
      },
      {
        "SpecialToken": {
          "id": "[SEP]",
          "type_id": 0
        }
      }
    ],
    "pair": [
      {
        "SpecialToken": {
          "id": "[CLS]",
          "type_id": 0
        }
      },
      {
        "Sequence": {
          "id": "A",
          "type_id": 0
        }
      },
      {
        "SpecialToken": {
          "id": "[SEP]",
          "type_id": 0
        }
      },
      {
        "Sequence": {
          "id": "B",
          "type_id": 1
        }
      },
      {
        "SpecialToken": {
          "id": "[SEP]",
          "type_id": 1
        }
      }
    ],
    "special_tokens": {
      "[CLS]": {
        "id": "[CLS]",
        "ids": [
          1
        ],
        "tokens": [
          "[CLS]"
        ]
      },
      "[SEP]": {
        "id": "[SEP]",
        "ids": [
          2
        ],
        "tokens": [
          "[SEP]"
        ]
      }
    }
  },
  "decoder": null,
  "model": {
    "type": "BPE",
    "dropout": null,
    "unk_token": "[UNK]",
    "continuing_subword_prefix": null,
    "end_of_word_suffix": null,
    "fuse_unk": false,
    "byte_fallback": false,
    "ignore_merges": false,
    "vocab": {
      "[PAD]": 0,
      "[CLS]": 1,
      "[SEP]": 2,
      "[UNK]": 3,
      "[MASK]": 4,
      "!": 5,
      "\"": 6,
      "#": 7,
      "$": 8,
      "%": 9,
      "&": 10,
      "'": 11,
      "(": 12,
      ")": 13,
      "*": 14,
      "+": 15,
      ",": 16,
      "-": 17,
      ".": 18,
      "/": 19,
      "0": 20,
      "1": 21,
      "2": 22,
      "3": 23,
      "4": 24,
      "5": 25,
      "6": 26,
      "7": 27,
      "8": 28,
      "9": 29,
      ":": 30,
      ";": 31,
      "<": 32,
      "=": 33,
      ">": 34,
      "?": 35,
      "@": 36,
      "[": 37,
      "]": 38,
      "a": 39,
      "b": 40,
      "c": 41,
      "d": 42,
      "e": 43,
      "f": 44,
      "g": 45,
      "h": 46,
      "i": 47,
      "j": 48,
      "k": 49,
      "l": 50,
      "m": 51,
      "n": 52,
      "o": 53,
      "p": 54,
      "q": 55,
      "r": 56,
      "s": 57,
      "t": 58,
      "u": 59,
      "v": 60,
      "w": 61,
      "x": 62,
      "y": 63,
      "z": 64,
      "€": 65,
      "th": 66,
      "in": 67,
      "the": 68,
      "an": 69,
      "on": 70,
      "re": 71,
      "er": 72,
      "at": 73,
      "en": 74,
      "\"\"": 75,
      "ou": 76,
      "or": 77,
      "of": 78,
      "st": 79,
      "al": 80,
      "and": 81,
      "ed": 82,
      "to": 83,
      "it": 84,
      "is": 85,
      "ar": 86,
      "ing": 87,
      "es": 88,
      "ion": 89,
      "as": 90,
      "le": 91,
      "ic": 92,
      "om": 93,
      "**": 94,
      "ent": 95,
      "il": 96,
      "se": 97,
      "he": 98,
      "ro": 99,
      "be": 100,
      "you": 101,
      "ac": 102,
      "ve": 103,
      "de": 104,
      "for": 105,
      "no": 106,
      "ch": 107,
      "am": 108,
      "ation": 109,
      "ad": 110,
      "ly": 111,
      "ay": 112,
      "im": 113,
      "lo": 114,
      "we": 115,
      "wh": 116,
      "\"\"\"\"": 117,
      "20": 118,
      "un": 119,
      "ct": 120,
      "id": 121,
      "ur": 122,
      "that": 123,
      "ig": 124,
      "ol": 125,
      "ut": 126,
      "us": 127,
      "ver": 128,
      "one": 129,
      "are": 130,
      "com": 131,
      "wi": 132,
      "ce": 133,
      "ir": 134,
      "con": 135,
      "et": 136,
      "pro": 137,
      "with": 138,
      "ag": 139,
      "\"\"\"": 140,
      "mo": 141,
      "te": 142,
      "ab": 143,
      "su": 144,
      "all": 145,
      "ak": 146,
      "ill": 147,
      "ne": 148,
      "ter": 149,
      "ph": 150,
      "res": 151,
      "tr": 152,
      "ment": 153,
      "li": 154,
      "pe": 155,
      "ht": 156,
      "fr": 157,
      "op": 158,
      "do": 159,
      "me": 160,
      "sh": 161,
      "was": 162,
      "201": 163,
      "ist": 164,
      "ha": 165,
      "so": 166,
      "ll": 167,
      "ex": 168,
      "fe": 169,
      "ld": 170,
      "not": 171,
      "go": 172,
      "po": 173,
      "oun": 174,
      "ain": 175,
      "****": 176,
      "our": 177,
      "art": 178,
      "ther": 179,
      "ate": 180,
      "ess": 181,
      "this": 182,
      "out": 183,
      "ile": 184,
      "ers": 185,
      "ap": 186,
      "pl": 187,
      "by": 188,
      "ul": 189,
      "if": 190,
      "wor": 191,
      "ity": 192,
      "phone": 193,
      "ant": 194,
      "your": 195,
      "ies": 196,
      "pr": 197,
      "qu": 198,
      "ia": 199,
      "will": 200,
      "from": 201,
      "man": 202,
      "have": 203,
      "ci": 204,
      "ast": 205,
      "ort": 206,
      "ge": 207,
      "act": 208,
      "ight": 209,
      "gr": 210,
      "but": 211,
      "ho": 212,
      "his": 213,
      "co": 214,
      "can": 215,
      "ust": 216,
      "ive": 217,
      "iv": 218,
      "per": 219,
      "ie": 220,
      "sa": 221,
      "now": 222,
      "..": 223,
      "fo": 224,
      "ren": 225,
      "ke": 226,
      "my": 227,
      "end": 228,
      "day": 229,
      "ould": 230,
      "up": 231,
      "um": 232,
      "port": 233,
      "od": 234,
      "em": 235,
      "ber": 236,
      "ev": 237,
      "min": 238,
      "her": 239,
      "they": 240,
      "ich": 241,
      "au": 242,
      "red": 243,
      "ard": 244,
      "pres": 245,
      "af": 246,
      ".\"\"\"": 247,
      "cl": 248,
      "az": 249,
      "si": 250,
      "bl": 251,
      "der": 252,
      "ions": 253,
      "comp": 254,
      "part": 255,
      "oug": 256,
      "ip": 257,
      "new": 258,
      "ans": 259,
      "10": 260,
      "she": 261,
      "iz": 262,
      "age": 263,
      "ary": 264,
      "ser": 265,
      "ye": 266,
      "ice": 267,
      "ated": 268,
      "him": 269,
      "ind": 270,
      "bo": 271,
      "ame": 272,
      "tim": 273,
      "file": 274,
      "which": 275,
      "ous": 276,
      "fore": 277,
      "wn": 278,
      "form": 279,
      "its": 280,
      "ome": 281,
      "who": 282,
      "other": 283,
      "work": 284,
      "12": 285,
      "ound": 286,
      "here": 287,
      "has": 288,
      "there": 289,
      "had": 290,
      "br": 291,
      "ok": 292,
      "reg": 293,
      "what": 294,
      "00": 295,
      "cre": 296,
      "ure": 297,
      "ake": 298,
      "ace": 299,
      "very": 300,
      "str": 301,
      "coun": 302,
      "ong": 303,
      "ally": 304,
      "any": 305,
      "ts": 306,
      "ish": 307,
      "low": 308,
      "av": 309,
      "ach": 310,
      "their": 311,
      "when": 312,
      "sy": 313,
      "way": 314,
      "je": 315,
      "200": 316,
      "ine": 317,
      "comm": 318,
      "ite": 319,
      "ud": 320,
      "them": 321,
      "sp": 322,
      "ord": 323,
      "ction": 324,
      "cr": 325,
      "ign": 326,
      "were": 327,
      "know": 328,
      "thing": 329,
      "ack": 330,
      "able": 331,
      "du": 332,
      "about": 333,
      "ations": 334,
      "ass": 335,
      "may": 336,
      "ough": 337,
      "ree": 338,
      "ian": 339,
      "el": 340,
      "inter": 341,
      "ens": 342,
      "off": 343,
      "said": 344,
      "time": 345,
      "more": 346,
      "ition": 347,
      "est": 348,
      "ma": 349,
      "19": 350,
      "ance": 351,
      "pre": 352,
      "ble": 353,
      "pu": 354,
      "kaz": 355,
      "dis": 356,
      "akh": 357,
      "ational": 358,
      "ical": 359,
      "ws": 360,
      "ry": 361,
      "tw": 362,
      "mar": 363,
      "ire": 364,
      "after": 365,
      "ase": 366,
      "old": 367,
      "mob": 368,
      "spe": 369,
      "11": 370,
      "ial": 371,
      "ted": 372,
      "get": 373,
      "cur": 374,
      "pos": 375,
      "ence": 376,
      "mobile": 377,
      "ple": 378,
      "some": 379,
      "cent": 380,
      "mon": 381,
      "stan": 382,
      "ck": 383,
      "kazakh": 384,
      "year": 385,
      "air": 386,
      "sel": 387,
      "cont": 388,
      "like": 389,
      "publ": 390,
      "ra": 391,
      "come": 392,
      "ject": 393,
      "2016": 394,
      "men": 395,
      "cess": 396,
      "national": 397,
      "la": 398,
      "ep": 399,
      "\"\"\"\"\"\"\"": 400,
      "gu": 401,
      "mber": 402,
      "fin": 403,
      "fir": 404,
      "tur": 405,
      "ty": 406,
      "ww": 407,
      "than": 408,
      "also": 409,
      "rus": 410,
      "15": 411,
      "been": 412,
      "open": 413,
      "over": 414,
      "vi": 415,
      "win": 416,
      "ities": 417,
      "log": 418,
      "kazakhstan": 419,
      "serv": 420,
      "//": 421,
      "peop": 422,
      "tp": 423,
      "would": 424,
      "ri": 425,
      "only": 426,
      "jo": 427,
      "ments": 428,
      "well": 429,
      "under": 430,
      "how": 431,
      "ors": 432,
      "med": 433,
      "just": 434,
      "http": 435,
      "...": 436,
      "cial": 437,
      "org": 438,
      "then": 439,
      "://": 440,
      "public": 441,
      "ick": 442,
      "16": 443,
      "people": 444,
      "13": 445,
      "minist": 446,
      "ail": 447,
      "let": 448,
      "ater": 449,
      "par": 450,
      "ild": 451,
      "rent": 452,
      "into": 453,
      "every": 454,
      "14": 455,
      "even": 456,
      "lop": 457,
      "dll": 458,
      "lect": 459,
      "see": 460,
      "18": 461,
      "ting": 462,
      "deve": 463,
      "vis": 464,
      "king": 465,
      "30": 466,
      "develop": 467,
      "17": 468,
      "read": 469,
      "des": 470,
      "countr": 471,
      "ue": 472,
      "first": 473,
      "ful": 474,
      "gre": 475,
      "need": 476,
      "ener": 477,
      "ning": 478,
      "say": 479,
      "pol": 480,
      "igh": 481,
      "bu": 482,
      "right": 483,
      "use": 484,
      "iss": 485,
      "ident": 486,
      "ory": 487,
      "most": 488,
      "did": 489,
      "25": 490,
      "fl": 491,
      "***": 492,
      "trans": 493,
      "add": 494,
      "world": 495,
      "room": 496,
      "vie": 497,
      "int": 498,
      "car": 499,
      "shall": 500,
      "inst": 501,
      "self": 502,
      "produ": 503,
      "land": 504,
      "down": 505,
      "god": 506,
      "again": 507,
      "cau": 508,
      "stem": 509,
      "cal": 510,
      "chan": 511,
      "dec": 512,
      "system": 513,
      "ating": 514,
      "inform": 515,
      "ink": 516,
      "sk": 517,
      "city": 518,
      "before": 519,
      "ces": 520,
      "project": 521,
      "ef": 522,
      "rel": 523,
      "present": 524,
      "ise": 525,
      "gram": 526,
      "bet": 527,
      "put": 528,
      "22": 529,
      "pt": 530,
      "these": 531,
      "col": 532,
      "state": 533,
      "sho": 534,
      "rest": 535,
      "found": 536,
      "windo": 537,
      "set": 538,
      "pm": 539,
      "cor": 540,
      "oper": 541,
      "ose": 542,
      "program": 543,
      "ten": 544,
      "ov": 545,
      "23": 546,
      "vers": 547,
      "dr": 548,
      "sup": 549,
      "row": 550,
      "real": 551,
      "ving": 552,
      "ather": 553,
      "ah": 554,
      "cause": 555,
      "24": 556,
      "head": 557,
      "ict": 558,
      "back": 559,
      "acc": 560,
      "stru": 561,
      "region": 562,
      "where": 563,
      "meet": 564,
      "cond": 565,
      "ates": 566,
      "take": 567,
      "want": 568,
      "should": 569,
      "could": 570,
      "ave": 571,
      "don": 572,
      "2017": 573,
      "26": 574,
      "ied": 575,
      "leg": 576,
      "05": 577,
      "press": 578,
      "ved": 579,
      "eu": 580,
      "stand": 581,
      "two": 582,
      "such": 583,
      "uring": 584,
      "ents": 585,
      "ban": 586,
      "che": 587,
      "att": 588,
      "cy": 589,
      "ot": 590,
      "good": 591,
      "make": 592,
      "pers": 593,
      "inte": 594,
      "thr": 595,
      "jan": 596,
      "08": 597,
      "cho": 598,
      "many": 599,
      "hel": 600,
      "ms": 601,
      "cer": 602,
      "main": 603,
      "09": 604,
      "look": 605,
      "requ": 606,
      "03": 607,
      "soci": 608,
      "sul": 609,
      "ced": 610,
      "fect": 611,
      "alth": 612,
      "04": 613,
      "06": 614,
      "nor": 615,
      "tain": 616,
      "ks": 617,
      "sun": 618,
      "high": 619,
      "hand": 620,
      "ress": 621,
      "issu": 622,
      "eng": 623,
      "2015": 624,
      "cour": 625,
      "ices": 626,
      "27": 627,
      "windows": 628,
      "ward": 629,
      "48": 630,
      "information": 631,
      "ath": 632,
      "ds": 633,
      "international": 634,
      "ided": 635,
      "free": 636,
      "ons": 637,
      "bas": 638,
      "gy": 639,
      "ide": 640,
      "arch": 641,
      "ought": 642,
      "vol": 643,
      "ual": 644,
      "28": 645,
      "ness": 646,
      "turn": 647,
      "07": 648,
      "long": 649,
      "organ": 650,
      "ext": 651,
      "ai": 652,
      "wer": 653,
      "play": 654,
      "because": 655,
      "ific": 656,
      "republic": 657,
      "through": 658,
      "armen": 659,
      "development": 660,
      "ult": 661,
      "sure": 662,
      "sin": 663,
      "ob": 664,
      "bus": 665,
      "side": 666,
      "io": 667,
      "sub": 668,
      "place": 669,
      "fol": 670,
      "partic": 671,
      "fact": 672,
      "sof": 673,
      "ious": 674,
      "cle": 675,
      "made": 676,
      "gover": 677,
      "sol": 678,
      "ship": 679,
      "ution": 680,
      "life": 681,
      "oc": 682,
      "accord": 683,
      "2009": 684,
      "came": 685,
      "les": 686,
      "lar": 687,
      "hu": 688,
      "call": 689,
      "tal": 690,
      "child": 691,
      "ger": 692,
      "years": 693,
      "wr": 694,
      "dire": 695,
      "tel": 696,
      "num": 697,
      "ative": 698,
      "hou": 699,
      "bur": 700,
      "21": 701,
      "ade": 702,
      "incl": 703,
      "ings": 704,
      "current": 705,
      "own": 706,
      "gener": 707,
      "country": 708,
      "ized": 709,
      "cap": 710,
      "russi": 711,
      "ys": 712,
      "www": 713,
      "02": 714,
      "vir": 715,
      "during": 716,
      "president": 717,
      "ear": 718,
      "conom": 719,
      "post": 720,
      "econom": 721,
      "mat": 722,
      "ann": 723,
      "uk": 724,
      "),": 725,
      "pp": 726,
      "01": 727,
      "mit": 728,
      "tech": 729,
      "fun": 730,
      "peri": 731,
      "russian": 732,
      "ves": 733,
      "miss": 734,
      "val": 735,
      "dif": 736,
      "ited": 737,
      "sia": 738,
      "lord": 739,
      "net": 740,
      "iness": 741,
      "sm": 742,
      "those": 743,
      "report": 744,
      "pect": 745,
      "vo": 746,
      "ib": 747,
      "29": 748,
      "plic": 749,
      "line": 750,
      "house": 751,
      "ash": 752,
      "\"\"\"\",": 753,
      "ween": 754,
      "aking": 755,
      "2014": 756,
      "euro": 757,
      "follow": 758,
      "between": 759,
      "direct": 760,
      "ily": 761,
      "ss": 762,
      "great": 763,
      "ru": 764,
      "last": 765,
      "though": 766,
      "foreign": 767,
      "ix": 768,
      "help": 769,
      "company": 770,
      "ants": 771,
      "according": 772,
      "health": 773,
      "ures": 774,
      "mark": 775,
      "mu": 776,
      "ner": 777,
      "ana": 778,
      "sit": 779,
      "beg": 780,
      "elect": 781,
      "aug": 782,
      "dist": 783,
      "tle": 784,
      "law": 785,
      "ility": 786,
      "50": 787,
      "view": 788,
      "must": 789,
      "led": 790,
      "ways": 791,
      "less": 792,
      "got": 793,
      "govern": 794,
      "oup": 795,
      "sur": 796,
      "russia": 797,
      "proble": 798,
      "against": 799,
      "night": 800,
      "service": 801,
      "ital": 802,
      "rain": 803,
      "vest": 804,
      "clo": 805,
      "associ": 806,
      "while": 807,
      "used": 808,
      "char": 809,
      "meeting": 810,
      "import": 811,
      ").": 812,
      "uary": 813,
      "support": 814,
      "war": 815,
      "ask": 816,
      "met": 817,
      "start": 818,
      "lit": 819,
      "name": 820,
      "does": 821,
      "bre": 822,
      "fil": 823,
      "uni": 824,
      "find": 825,
      "49": 826,
      "number": 827,
      "yes": 828,
      "person": 829,
      "same": 830,
      "di": 831,
      "ages": 832,
      "pho": 833,
      "hold": 834,
      "mb": 835,
      "lead": 836,
      "fri": 837,
      "sign": 838,
      "group": 839,
      "33": 840,
      "feren": 841,
      "applic": 842,
      "bar": 843,
      "mor": 844,
      "cons": 845,
      "als": 846,
      "2013": 847,
      "includ": 848,
      "bro": 849,
      "think": 850,
      "tware": 851,
      "load": 852,
      "software": 853,
      "home": 854,
      "ax": 855,
      "cu": 856,
      "hotel": 857,
      "extens": 858,
      "ina": 859,
      "order": 860,
      "xt": 861,
      "ven": 862,
      "being": 863,
      "give": 864,
      "ton": 865,
      "ety": 866,
      "son": 867,
      "2011": 868,
      "vil": 869,
      "wom": 870,
      "light": 871,
      "business": 872,
      "decided": 873,
      "bod": 874,
      "pass": 875,
      "face": 876,
      "bal": 877,
      "invest": 878,
      "web": 879,
      "fu": 880,
      "keep": 881,
      "rece": 882,
      "fam": 883,
      "ization": 884,
      "might": 885,
      "35": 886,
      "minister": 887,
      "children": 888,
      "nat": 889,
      "sto": 890,
      "lin": 891,
      "ready": 892,
      "water": 893,
      "lad": 894,
      "mos": 895,
      "without": 896,
      "sim": 897,
      "ism": 898,
      "sat": 899,
      "ik": 900,
      "ics": 901,
      "within": 902,
      "top": 903,
      "ared": 904,
      "particip": 905,
      "europe": 906,
      "ular": 907,
      "government": 908,
      "van": 909,
      "sou": 910,
      "aff": 911,
      "ives": 912,
      "vel": 913,
      "2010": 914,
      "why": 915,
      "uc": 916,
      "resul": 917,
      "sal": 918,
      "lish": 919,
      "ists": 920,
      "stud": 921,
      "fer": 922,
      "power": 923,
      "beli": 924,
      "change": 925,
      "currently": 926,
      "cus": 927,
      "human": 928,
      "chr": 929,
      "ield": 930,
      "photo": 931,
      "cast": 932,
      "2012": 933,
      "friend": 934,
      "much": 935,
      "product": 936,
      "loc": 937,
      "ats": 938,
      "member": 939,
      "ju": 940,
      "amp": 941,
      "incre": 942,
      "possi": 943,
      "plan": 944,
      "45": 945,
      "qual": 946,
      "second": 947,
      "list": 948,
      "father": 949,
      "commun": 950,
      "ran": 951,
      "36": 952,
      "care": 953,
      "prov": 954,
      "love": 955,
      "today": 956,
      "plo": 957,
      "vent": 958,
      "best": 959,
      "illion": 960,
      "mer": 961,
      "operation": 962,
      "na": 963,
      "oh": 964,
      "mal": 965,
      "still": 966,
      "case": 967,
      "inde": 968,
      "always": 969,
      "special": 970,
      "never": 971,
      "pon": 972,
      "tre": 973,
      "ually": 974,
      "regist": 975,
      "secur": 976,
      "search": 977,
      "eas": 978,
      "ying": 979,
      "bit": 980,
      "comple": 981,
      "prof": 982,
      "pet": 983,
      "happ": 984,
      "book": 985,
      "going": 986,
      "pur": 987,
      "things": 988,
      "appro": 989,
      "ca": 990,
      "three": 991,
      "lan": 992,
      "process": 993,
      "countries": 994,
      "astana": 995,
      "itions": 996,
      "feel": 997,
      "os": 998,
      "47": 999,
      "activ": 1000,
      "fic": 1001,
      "interest": 1002,
      "cut": 1003,
      "days": 1004,
      "ukrain": 1005,
      "contin": 1006,
      "upon": 1007,
      "var": 1008,
      "spir": 1009,
      "tell": 1010,
      "since": 1011,
      "too": 1012,
      "32": 1013,
      "prin": 1014,
      "37": 1015,
      "thought": 1016,
      "created": 1017,
      "another": 1018,
      "social": 1019,
      "ft": 1020,
      "wal": 1021,
      "bank": 1022,
      "une": 1023,
      "ster": 1024,
      "install": 1025,
      "little": 1026,
      "away": 1027,
      "each": 1028,
      "ministry": 1029,
      "wed": 1030,
      "general": 1031,
      "indust": 1032,
      "prom": 1033,
      "jes": 1034,
      "field": 1035,
      "mp": 1036,
      "38": 1037,
      "den": 1038,
      "held": 1039,
      "bed": 1040,
      "armenia": 1041,
      "aut": 1042,
      "mil": 1043,
      "ral": 1044,
      "dat": 1045,
      "40": 1046,
      "using": 1047,
      "aw": 1048,
      "ml": 1049,
      "economic": 1050,
      "ium": 1051,
      "important": 1052,
      "party": 1053,
      "market": 1054,
      "test": 1055,
      "won": 1056,
      "sc": 1057,
      "vide": 1058,
      "request": 1059,
      "ply": 1060,
      "pay": 1061,
      "err": 1062,
      "ency": 1063,
      "jesus": 1064,
      "build": 1065,
      "problem": 1066,
      "christ": 1067,
      "ze": 1068,
      "46": 1069,
      "ference": 1070,
      "mr": 1071,
      "allow": 1072,
      "went": 1073,
      "application": 1074,
      "polit": 1075,
      "fix": 1076,
      "took": 1077,
      "quest": 1078,
      "ides": 1079,
      "working": 1080,
      "fur": 1081,
      "cow": 1082,
      "please": 1083,
      "represent": 1084,
      "page": 1085,
      "ues": 1086,
      "heart": 1087,
      "cas": 1088,
      "url": 1089,
      ".\"\"\"\"\"\"\"": 1090,
      "ived": 1091,
      "39": 1092,
      "views": 1093,
      "security": 1094,
      "far": 1095,
      "nal": 1096,
      "sum": 1097,
      "terr": 1098,
      "ele": 1099,
      "contr": 1100,
      "both": 1101,
      "level": 1102,
      "fac": 1103,
      "oil": 1104,
      "thor": 1105,
      "ged": 1106,
      "#.": 1107,
      "aster": 1108,
      "tro": 1109,
      "mus": 1110,
      "57": 1111,
      "56": 1112,
      "giv": 1113,
      "pend": 1114,
      "31": 1115,
      "suc": 1116,
      "moscow": 1117,
      "def": 1118,
      "ric": 1119,
      "cept": 1120,
      "date": 1121,
      "ref": 1122,
      "44": 1123,
      "airs": 1124,
      "words": 1125,
      "fort": 1126,
      "constru": 1127,
      "pc": 1128,
      "mitted": 1129,
      "oney": 1130,
      "ek": 1131,
      "educ": 1132,
      "design": 1133,
      "equ": 1134,
      "news": 1135,
      "server": 1136,
      "ament": 1137,
      "lim": 1138,
      "hist": 1139,
      "rect": 1140,
      "body": 1141,
      "ped": 1142,
      "ters": 1143,
      "contro": 1144,
      "unt": 1145,
      "ute": 1146,
      "ark": 1147,
      "gether": 1148,
      "sci": 1149,
      "site": 1150,
      "together": 1151,
      "click": 1152,
      "around": 1153,
      "count": 1154,
      "addition": 1155,
      "wa": 1156,
      ",\"\"\"\"": 1157,
      "tak": 1158,
      "sil": 1159,
      "ferent": 1160,
      "center": 1161,
      "services": 1162,
      "commit": 1163,
      "hard": 1164,
      "lt": 1165,
      "train": 1166,
      "anal": 1167,
      "tion": 1168,
      "month": 1169,
      "visit": 1170,
      "large": 1171,
      "ko": 1172,
      "tour": 1173,
      "spirit": 1174,
      "que": 1175,
      "ls": 1176,
      "data": 1177,
      "sep": 1178,
      "plement": 1179,
      "::": 1180,
      "respon": 1181,
      "gl": 1182,
      "mid": 1183,
      "effect": 1184,
      "clear": 1185,
      "offic": 1186,
      "kind": 1187,
      "eve": 1188,
      "han": 1189,
      "techno": 1190,
      "word": 1191,
      "ased": 1192,
      "production": 1193,
      "atch": 1194,
      "thous": 1195,
      "sing": 1196,
      "begin": 1197,
      "55": 1198,
      "apart": 1199,
      "weather": 1200,
      "different": 1201,
      "mind": 1202,
      "ps": 1203,
      "technolog": 1204,
      "june": 1205,
      "situ": 1206,
      "become": 1207,
      "pen": 1208,
      "thousand": 1209,
      "experi": 1210,
      "apr": 1211,
      "extension": 1212,
      "lear": 1213,
      "comput": 1214,
      "download": 1215,
      "dece": 1216,
      "possible": 1217,
      "among": 1218,
      "avail": 1219,
      "ession": 1220,
      "34": 1221,
      "energy": 1222,
      "nia": 1223,
      "polic": 1224,
      "jud": 1225,
      "exam": 1226,
      "rights": 1227,
      "march": 1228,
      "tober": 1229,
      "course": 1230,
      "har": 1231,
      "lu": 1232,
      "implement": 1233,
      "step": 1234,
      "following": 1235,
      "medi": 1236,
      "nes": 1237,
      "author": 1238,
      "ize": 1239,
      "wrong": 1240,
      "run": 1241,
      "mess": 1242,
      "correct": 1243,
      "ever": 1244,
      "october": 1245,
      "96": 1246,
      "cali": 1247,
      "suite": 1248,
      "chool": 1249,
      "nove": 1250,
      "key": 1251,
      "agree": 1252,
      "unto": 1253,
      "everything": 1254,
      "\"\"\"\".\"\"\"": 1255,
      "dom": 1256,
      "turned": 1257,
      "58": 1258,
      "money": 1259,
      "ste": 1260,
      "beaut": 1261,
      "live": 1262,
      "prote": 1263,
      "ime": 1264,
      "ilities": 1265,
      "pa": 1266,
      "road": 1267,
      "left": 1268,
      "including": 1269,
      "appe": 1270,
      "discus": 1271,
      "cooperation": 1272,
      "school": 1273,
      "issues": 1274,
      "ished": 1275,
      "000": 1276,
      "tee": 1277,
      "show": 1278,
      "aim": 1279,
      "team": 1280,
      "november": 1281,
      "april": 1282,
      "amoun": 1283,
      "really": 1284,
      "html": 1285,
      "ges": 1286,
      "enter": 1287,
      "cover": 1288,
      "grow": 1289,
      "next": 1290,
      "finan": 1291,
      "dead": 1292,
      "iy": 1293,
      "commend": 1294,
      "himself": 1295,
      "type": 1296,
      "califor": 1297,
      "once": 1298,
      "california": 1299,
      "dou": 1300,
      "vice": 1301,
      "ky": 1302,
      "ben": 1303,
      "rooms": 1304,
      "mom": 1305,
      "issue": 1306,
      "something": 1307,
      "area": 1308,
      "files": 1309,
      "artic": 1310,
      "bor": 1311,
      "fed": 1312,
      "por": 1313,
      "move": 1314,
      "sen": 1315,
      "howe": 1316,
      "january": 1317,
      "done": 1318,
      "however": 1319,
      "nt": 1320,
      "hal": 1321,
      "access": 1322,
      "nov": 1323,
      "success": 1324,
      "cil": 1325,
      "iday": 1326,
      "recommend": 1327,
      "big": 1328,
      "--": 1329,
      "isra": 1330,
      "hour": 1331,
      "ablish": 1332,
      "local": 1333,
      "77": 1334,
      "expect": 1335,
      "ier": 1336,
      "hun": 1337,
      "central": 1338,
      "establish": 1339,
      "understand": 1340,
      "ago": 1341,
      "position": 1342,
      "already": 1343,
      "2008": 1344,
      "cust": 1345,
      "discuss": 1346,
      "ta": 1347,
      "peace": 1348,
      "political": 1349,
      "ned": 1350,
      "pot": 1351,
      "tember": 1352,
      "pris": 1353,
      "univers": 1354,
      "computer": 1355,
      "quality": 1356,
      "coming": 1357,
      "san": 1358,
      "september": 1359,
      "exe": 1360,
      "tru": 1361,
      "hol": 1362,
      "action": 1363,
      "states": 1364,
      "pat": 1365,
      "december": 1366,
      "sent": 1367,
      "dro": 1368,
      "construction": 1369,
      "full": 1370,
      "called": 1371,
      "ability": 1372,
      "59": 1373,
      "86": 1374,
      "offer": 1375,
      "hib": 1376,
      "decis": 1377,
      "ator": 1378,
      "finally": 1379,
      "ukraine": 1380,
      "given": 1381,
      "available": 1382,
      "necess": 1383,
      "july": 1384,
      "fast": 1385,
      "nothing": 1386,
      "ground": 1387,
      "mag": 1388,
      "mater": 1389,
      "contact": 1390,
      "point": 1391,
      "ross": 1392,
      "compet": 1393,
      "del": 1394,
      "office": 1395,
      "stat": 1396,
      "gas": 1397,
      "ient": 1398,
      "ames": 1399,
      "earth": 1400,
      "bai": 1401,
      "concer": 1402,
      "priv": 1403,
      "gen": 1404,
      "instit": 1405,
      "address": 1406,
      "pop": 1407,
      "seem": 1408,
      "small": 1409,
      "tail": 1410,
      "ration": 1411,
      "emplo": 1412,
      "virus": 1413,
      "blo": 1414,
      "custom": 1415,
      "fully": 1416,
      "board": 1417,
      "share": 1418,
      "techn": 1419,
      "woman": 1420,
      "ately": 1421,
      "pal": 1422,
      "youn": 1423,
      "wo": 1424,
      "armenian": 1425,
      "moder": 1426,
      "eyes": 1427,
      "works": 1428,
      "ified": 1429,
      "israel": 1430,
      "ines": 1431,
      "aph": 1432,
      "event": 1433,
      "ude": 1434,
      "whole": 1435,
      "products": 1436,
      "tex": 1437,
      "*****": 1438,
      "below": 1439,
      "comes": 1440,
      "trave": 1441,
      "proper": 1442,
      "south": 1443,
      "dan": 1444,
      "ars": 1445,
      "urs": 1446,
      "hor": 1447,
      "certain": 1448,
      "material": 1449,
      "lab": 1450,
      "better": 1451,
      "european": 1452,
      "conference": 1453,
      "bay": 1454,
      "fut": 1455,
      "pli": 1456,
      "depart": 1457,
      "ham": 1458,
      "ino": 1459,
      "period": 1460,
      "chair": 1461,
      "mic": 1462,
      "ired": 1463,
      "ural": 1464,
      "knew": 1465,
      "times": 1466,
      "break": 1467,
      "mass": 1468,
      "100": 1469,
      "itch": 1470,
      "opport": 1471,
      "cit": 1472,
      "yet": 1473,
      "based": 1474,
      "trade": 1475,
      "class": 1476,
      "family": 1477,
      "tar": 1478,
      "opportun": 1479,
      "conne": 1480,
      "told": 1481,
      "compan": 1482,
      "association": 1483,
      "spec": 1484,
      "flo": 1485,
      "ider": 1486,
      "feder": 1487,
      "believe": 1488,
      "forecast": 1489,
      "commiss": 1490,
      "four": 1491,
      "97": 1492,
      "legal": 1493,
      "ird": 1494,
      "cost": 1495,
      "64": 1496,
      "ason": 1497,
      "azer": 1498,
      "54": 1499,
      "sour": 1500,
      "docu": 1501,
      "sw": 1502,
      "saw": 1503,
      "future": 1504,
      "requested": 1505,
      "ones": 1506,
      "ctor": 1507,
      "stop": 1508,
      "equip": 1509,
      "ins": 1510,
      "affairs": 1511,
      "projects": 1512,
      "impro": 1513,
      "asse": 1514,
      "price": 1515,
      "amer": 1516,
      "job": 1517,
      "band": 1518,
      "stre": 1519,
      "total": 1520,
      "tem": 1521,
      "tan": 1522,
      "mean": 1523,
      "dra": 1524,
      "select": 1525,
      "plain": 1526,
      "manage": 1527,
      "week": 1528,
      "selves": 1529,
      "august": 1530,
      "research": 1531,
      "exact": 1532,
      "modern": 1533,
      "until": 1534,
      "98": 1535,
      "ork": 1536,
      "million": 1537,
      "analys": 1538,
      "remain": 1539,
      "council": 1540,
      "gress": 1541,
      "results": 1542,
      "plac": 1543,
      "struct": 1544,
      "wish": 1545,
      "ards": 1546,
      "rad": 1547,
      "va": 1548,
      "host": 1549,
      "organiz": 1550,
      "ended": 1551,
      "town": 1552,
      "having": 1553,
      "policy": 1554,
      "fig": 1555,
      "ians": 1556,
      "ulture": 1557,
      "west": 1558,
      "div": 1559,
      "thou": 1560,
      "education": 1561,
      "ched": 1562,
      "febr": 1563,
      "ither": 1564,
      "express": 1565,
      "wel": 1566,
      "february": 1567,
      "omet": 1568,
      "heav": 1569,
      "exhib": 1570,
      "baijan": 1571,
      "azerbaijan": 1572,
      "further": 1573,
      "pare": 1574,
      "trad": 1575,
      "article": 1576,
      "meas": 1577,
      "young": 1578,
      "realized": 1579,
      "ief": 1580,
      "north": 1581,
      "capital": 1582,
      "control": 1583,
      "ont": 1584,
      "stay": 1585,
      "round": 1586,
      "situation": 1587,
      "cul": 1588,
      "thy": 1589,
      "ened": 1590,
      "maj": 1591,
      "graph": 1592,
      "ised": 1593,
      "gg": 1594,
      "remember": 1595,
      "rele": 1596,
      "ua": 1597,
      "hig": 1598,
      "glo": 1599,
      "const": 1600,
      "hit": 1601,
      "secre": 1602,
      "analysis": 1603,
      "memb": 1604,
      "ange": 1605,
      "abo": 1606,
      "members": 1607,
      "therefore": 1608,
      "conditions": 1609,
      "bul": 1610,
      "speak": 1611,
      "ling": 1612,
      "lat": 1613,
      "question": 1614,
      "united": 1615,
      "near": 1616,
      "fund": 1617,
      "bab": 1618,
      "vill": 1619,
      "milit": 1620,
      "bring": 1621,
      "music": 1622,
      "******": 1623,
      "texas": 1624,
      "langu": 1625,
      "ior": 1626,
      "fall": 1627,
      "43": 1628,
      "dest": 1629,
      "atives": 1630,
      "distr": 1631,
      "dem": 1632,
      "bi": 1633,
      "tom": 1634,
      "non": 1635,
      "writ": 1636,
      "sea": 1637,
      "revol": 1638,
      "necessary": 1639,
      "door": 1640,
      "lady": 1641,
      "york": 1642,
      "mother": 1643,
      "cell": 1644,
      "itor": 1645,
      "ention": 1646,
      "ets": 1647,
      "taken": 1648,
      "located": 1649,
      "termin": 1650,
      "joy": 1651,
      "financial": 1652,
      "pract": 1653,
      "wait": 1654,
      "aged": 1655,
      "wards": 1656,
      "means": 1657,
      "experience": 1658,
      "jer": 1659,
      "reco": 1660,
      "chur": 1661,
      "thus": 1662,
      "river": 1663,
      "66": 1664,
      "industry": 1665,
      "oud": 1666,
      "lot": 1667,
      "commission": 1668,
      "atic": 1669,
      "camp": 1670,
      "99": 1671,
      "reach": 1672,
      "whe": 1673,
      "kill": 1674,
      "fire": 1675,
      "exper": 1676,
      "utions": 1677,
      "says": 1678,
      "kar": 1679,
      "official": 1680,
      "church": 1681,
      "georg": 1682,
      "building": 1683,
      "ried": 1684,
      "ris": 1685,
      "pose": 1686,
      "few": 1687,
      "error": 1688,
      "ica": 1689,
      "women": 1690,
      "walk": 1691,
      "along": 1692,
      "augh": 1693,
      "cannot": 1694,
      "isl": 1695,
      "42": 1696,
      "istan": 1697,
      "known": 1698,
      "amount": 1699,
      "gar": 1700,
      "akes": 1701,
      "ny": 1702,
      "death": 1703,
      "living": 1704,
      "half": 1705,
      "strate": 1706,
      "utes": 1707,
      "check": 1708,
      "exactly": 1709,
      "history": 1710,
      "union": 1711,
      "inal": 1712,
      "media": 1713,
      "transmitted": 1714,
      "court": 1715,
      "imes": 1716,
      "87": 1717,
      "bon": 1718,
      "acy": 1719,
      "phil": 1720,
      "felt": 1721,
      "lines": 1722,
      "account": 1723,
      "km": 1724,
      "spo": 1725,
      "district": 1726,
      "mol": 1727,
      "dre": 1728,
      "opened": 1729,
      "monday": 1730,
      "relations": 1731,
      "tural": 1732,
      "nut": 1733,
      "companies": 1734,
      "making": 1735,
      "particular": 1736,
      "personal": 1737,
      "complete": 1738,
      "example": 1739,
      "sound": 1740,
      "technical": 1741,
      "related": 1742,
      "41": 1743,
      "dont": 1744,
      "hear": 1745,
      "sky": 1746,
      "late": 1747,
      "ken": 1748,
      "management": 1749,
      "treat": 1750,
      "bes": 1751,
      "lon": 1752,
      "mist": 1753,
      "regard": 1754,
      "front": 1755,
      "2007": 1756,
      "deput": 1757,
      "60": 1758,
      "soon": 1759,
      "init": 1760,
      "travel": 1761,
      "military": 1762,
      "ush": 1763,
      "events": 1764,
      "arr": 1765,
      "moment": 1766,
      "forum": 1767,
      "ida": 1768,
      "ulation": 1769,
      "received": 1770,
      "revolution": 1771,
      "transport": 1772,
      "heard": 1773,
      "mm": 1774,
      "activities": 1775,
      "cing": 1776,
      "citiz": 1777,
      "respect": 1778,
      "bayev": 1779,
      "someone": 1780,
      "food": 1781,
      "pes": 1782,
      "bud": 1783,
      "ners": 1784,
      "gave": 1785,
      "exp": 1786,
      "naz": 1787,
      "ball": 1788,
      "regional": 1789,
      "rich": 1790,
      "committee": 1791,
      "sever": 1792,
      "tenge": 1793,
      "active": 1794,
      "iest": 1795,
      "fru": 1796,
      "others": 1797,
      "ery": 1798,
      "ables": 1799,
      "desp": 1800,
      "max": 1801,
      "ub": 1802,
      "poin": 1803,
      "ination": 1804,
      "shop": 1805,
      "moun": 1806,
      "ival": 1807,
      "bel": 1808,
      "gold": 1809,
      "cted": 1810,
      "programs": 1811,
      "training": 1812,
      "achie": 1813,
      "52": 1814,
      "tra": 1815,
      "learn": 1816,
      "inary": 1817,
      "past": 1818,
      "common": 1819,
      "perfect": 1820,
      "saying": 1821,
      "stren": 1822,
      "detail": 1823,
      "mach": 1824,
      "ga": 1825,
      "organization": 1826,
      "actually": 1827,
      "object": 1828,
      "send": 1829,
      "internet": 1830,
      "dam": 1831,
      "53": 1832,
      "conf": 1833,
      "ense": 1834,
      "gn": 1835,
      "pain": 1836,
      "decl": 1837,
      "message": 1838,
      "highly": 1839,
      "streng": 1840,
      "close": 1841,
      "zh": 1842,
      "ville": 1843,
      "cir": 1844,
      "above": 1845,
      "five": 1846,
      "burg": 1847,
      "link": 1848,
      "asked": 1849,
      "investment": 1850,
      "parli": 1851,
      "knowled": 1852,
      "brow": 1853,
      "consider": 1854,
      "sport": 1855,
      "force": 1856,
      "due": 1857,
      "taking": 1858,
      "increase": 1859,
      "secret": 1860,
      "short": 1861,
      "amb": 1862,
      "ilt": 1863,
      "itness": 1864,
      "ples": 1865,
      "noted": 1866,
      "command": 1867,
      "try": 1868,
      "mission": 1869,
      "idea": 1870,
      "ically": 1871,
      "master": 1872,
      "economy": 1873,
      "guest": 1874,
      "looking": 1875,
      "parliament": 1876,
      "rise": 1877,
      "result": 1878,
      "everyone": 1879,
      "cred": 1880,
      "ker": 1881,
      "civil": 1882,
      "nur": 1883,
      "various": 1884,
      "80": 1885,
      "agreement": 1886,
      "sam": 1887,
      "sty": 1888,
      "onment": 1889,
      "51": 1890,
      "true": 1891,
      "bir": 1892,
      "prem": 1893,
      "colle": 1894,
      "create": 1895,
      "strong": 1896,
      "via": 1897,
      "ming": 1898,
      "months": 1899,
      "gir": 1900,
      "resour": 1901,
      "ered": 1902,
      "knowing": 1903,
      "major": 1904,
      "holy": 1905,
      "china": 1906,
      "private": 1907,
      "ceed": 1908,
      "mir": 1909,
      "sunday": 1910,
      "seen": 1911,
      "several": 1912,
      "tax": 1913,
      "watch": 1914,
      "thurs": 1915,
      "trying": 1916,
      "fill": 1917,
      "brought": 1918,
      "administ": 1919,
      "game": 1920,
      "reed": 1921,
      "eur": 1922,
      "ctions": 1923,
      "ping": 1924,
      "subject": 1925,
      "decision": 1926,
      "thursday": 1927,
      "stor": 1928,
      "talk": 1929,
      "reported": 1930,
      "table": 1931,
      "mun": 1932,
      "ury": 1933,
      "hands": 1934,
      "pan": 1935,
      "additional": 1936,
      "ware": 1937,
      "idence": 1938,
      "profession": 1939,
      "exist": 1940,
      "exhibition": 1941,
      "ential": 1942,
      "sl": 1943,
      "teach": 1944,
      "2006": 1945,
      "ivid": 1946,
      "envir": 1947,
      "itive": 1948,
      "antly": 1949,
      "wash": 1950,
      "communic": 1951,
      "vious": 1952,
      "wonder": 1953,
      "text": 1954,
      "cli": 1955,
      "provide": 1956,
      "source": 1957,
      "quick": 1958,
      "88": 1959,
      "70": 1960,
      "vict": 1961,
      "ification": 1962,
      "third": 1963,
      "effic": 1964,
      "dark": 1965,
      "brother": 1966,
      "posed": 1967,
      "billion": 1968,
      "knowledge": 1969,
      "cele": 1970,
      "friends": 1971,
      "range": 1972,
      "obl": 1973,
      "relig": 1974,
      "contain": 1975,
      "chairman": 1976,
      "nam": 1977,
      "independ": 1978,
      "cially": 1979,
      "crip": 1980,
      "employ": 1981,
      "leave": 1982,
      "iding": 1983,
      "mod": 1984,
      "systems": 1985,
      "ined": 1986,
      "ii": 1987,
      "device": 1988,
      "started": 1989,
      "minutes": 1990,
      "ging": 1991,
      "industr": 1992,
      "saf": 1993,
      "posted": 1994,
      "bath": 1995,
      "became": 1996,
      "sle": 1997,
      "ibut": 1998,
      "society": 1999,
      "later": 2000,
      "adv": 2001,
      "centre": 2002,
      "anything": 2003,
      "implementation": 2004,
      "arm": 2005,
      "ns": 2006,
      "began": 2007,
      "department": 2008,
      "added": 2009,
      "viol": 2010,
      "reports": 2011,
      "cide": 2012,
      "feat": 2013,
      "global": 2014,
      "environment": 2015,
      "ka": 2016,
      "wood": 2017,
      "somet": 2018,
      "least": 2019,
      "hope": 2020,
      "growth": 2021,
      "tor": 2022,
      "individ": 2023,
      "scient": 2024,
      "equipment": 2025,
      "mult": 2026,
      "vision": 2027,
      "ague": 2028,
      "image": 2029,
      "friday": 2030,
      "ba": 2031,
      "actions": 2032,
      "wide": 2033,
      "tues": 2034,
      "ang": 2035,
      "ences": 2036,
      "counter": 2037,
      "ron": 2038,
      "partner": 2039,
      "95": 2040,
      "attr": 2041,
      "(****": 2042,
      "cup": 2043,
      "ug": 2044,
      "90": 2045,
      "76": 2046,
      "thank": 2047,
      "grad": 2048,
      "space": 2049,
      "property": 2050,
      "rom": 2051,
      "didn": 2052,
      "video": 2053,
      "elections": 2054,
      "demo": 2055,
      "setting": 2056,
      "beauty": 2057,
      "(****)": 2058,
      "sor": 2059,
      "safety": 2060,
      "intro": 2061,
      "vert": 2062,
      "east": 2063,
      "continu": 2064,
      "suf": 2065,
      "federation": 2066,
      "pict": 2067,
      "double": 2068,
      "language": 2069,
      "flor": 2070,
      "choose": 2071,
      "despite": 2072,
      "problems": 2073,
      "integr": 2074,
      "maybe": 2075,
      "sometimes": 2076,
      "aid": 2077,
      "hn": 2078,
      "almost": 2079,
      "attention": 2080,
      "introdu": 2081,
      "thee": 2082,
      "clean": 2083,
      "2005": 2084,
      "deputy": 2085,
      "formats": 2086,
      "responsi": 2087,
      "university": 2088,
      "directly": 2089,
      "php": 2090,
      "gest": 2091,
      "feeling": 2092,
      "wall": 2093,
      "myself": 2094,
      "fight": 2095,
      "tuesday": 2096,
      "fai": 2097,
      "cand": 2098,
      "themselves": 2099,
      "frame": 2100,
      "resol": 2101,
      "station": 2102,
      "stone": 2103,
      "faith": 2104,
      "enough": 2105,
      "reason": 2106,
      "director": 2107,
      "rench": 2108,
      "ista": 2109,
      "opportunity": 2110,
      "tele": 2111,
      "truth": 2112,
      "ley": 2113,
      "representatives": 2114,
      "protection": 2115,
      "gent": 2116,
      "hy": 2117,
      "scre": 2118,
      "georgia": 2119,
      "ening": 2120,
      "individual": 2121,
      "park": 2122,
      "eye": 2123,
      "black": 2124,
      "culture": 2125,
      "ible": 2126,
      "operating": 2127,
      "require": 2128,
      "card": 2129,
      "rate": 2130,
      "organizations": 2131,
      "improve": 2132,
      "buy": 2133,
      "muse": 2134,
      "beach": 2135,
      "determin": 2136,
      "vit": 2137,
      "initi": 2138,
      "dar": 2139,
      "squ": 2140,
      "whom": 2141,
      "six": 2142,
      "box": 2143,
      "window": 2144,
      "display": 2145,
      "looked": 2146,
      "plans": 2147,
      "participants": 2148,
      "condu": 2149,
      "doesn": 2150,
      "jsc": 2151,
      "cat": 2152,
      "hous": 2153,
      "vari": 2154,
      "green": 2155,
      "return": 2156,
      "online": 2157,
      "labor": 2158,
      "spr": 2159,
      "aware": 2160,
      "princi": 2161,
      "manu": 2162,
      "usa": 2163,
      "....": 2164,
      "standing": 2165,
      "dream": 2166,
      "announ": 2167,
      "leader": 2168,
      "museum": 2169,
      "cop": 2170,
      "quite": 2171,
      "types": 2172,
      "iyev": 2173,
      "ff": 2174,
      "simply": 2175,
      "bt": 2176,
      "afr": 2177,
      "quar": 2178,
      "condition": 2179,
      "explain": 2180,
      "allows": 2181,
      "technology": 2182,
      "status": 2183,
      "hon": 2184,
      "orig": 2185,
      "espe": 2186,
      "bad": 2187,
      "satur": 2188,
      "iful": 2189,
      "apartment": 2190,
      "natural": 2191,
      "recogn": 2192,
      "doing": 2193,
      "higher": 2194,
      "ators": 2195,
      "resources": 2196,
      "persons": 2197,
      "draw": 2198,
      "comb": 2199,
      "78": 2200,
      "vista": 2201,
      "unch": 2202,
      "provided": 2203,
      "easy": 2204,
      "voice": 2205,
      "rup": 2206,
      "ria": 2207,
      "ank": 2208,
      "feed": 2209,
      "redu": 2210,
      "rul": 2211,
      "rock": 2212,
      "role": 2213,
      "extensions": 2214,
      "ler": 2215,
      "lay": 2216,
      "flow": 2217,
      "assist": 2218,
      "format": 2219,
      "mad": 2220,
      "cord": 2221,
      "especially": 2222,
      "english": 2223,
      "built": 2224,
      "inside": 2225,
      "trojan": 2226,
      "inois": 2227,
      "illinois": 2228,
      "hours": 2229,
      "matter": 2230,
      "activity": 2231,
      "hab": 2232,
      "florida": 2233,
      "expected": 2234,
      "fected": 2235,
      "moldo": 2236,
      "island": 2237,
      "jour": 2238,
      "cases": 2239,
      "blood": 2240,
      "invol": 2241,
      "joint": 2242,
      "==": 2243,
      "john": 2244,
      "bility": 2245,
      ".\"\"\"\"": 2246,
      "early": 2247,
      "demand": 2248,
      "tool": 2249,
      "offers": 2250,
      "yeah": 2251,
      "errors": 2252,
      "changes": 2253,
      "prop": 2254,
      "blue": 2255,
      "wanted": 2256,
      "dy": 2257,
      "often": 2258,
      "ify": 2259,
      "wednes": 2260,
      "constit": 2261,
      "bour": 2262,
      "tit": 2263,
      "arbayev": 2264,
      "parties": 2265,
      "manufact": 2266,
      "ded": 2267,
      "attack": 2268,
      "registry": 2269,
      "wednesday": 2270,
      "democr": 2271,
      "benef": 2272,
      "lled": 2273,
      "bite": 2274,
      "remo": 2275,
      "collect": 2276,
      "increased": 2277,
      "amax": 2278,
      "areas": 2279,
      "hey": 2280,
      "ama": 2281,
      "ni": 2282,
      "ote": 2283,
      "diffic": 2284,
      "french": 2285,
      "grand": 2286,
      "ington": 2287,
      "mediamax": 2288,
      "ican": 2289,
      "beginning": 2290,
      "stood": 2291,
      "code": 2292,
      "floor": 2293,
      "pray": 2294,
      "infl": 2295,
      "associated": 2296,
      "citizens": 2297,
      "terms": 2298,
      "innov": 2299,
      "agric": 2300,
      "da": 2301,
      "thre": 2302,
      "thin": 2303,
      "ills": 2304,
      "edition": 2305,
      "plant": 2306,
      "meth": 2307,
      "figure": 2308,
      "single": 2309,
      "white": 2310,
      "nature": 2311,
      "reser": 2312,
      "temp": 2313,
      "og": 2314,
      "super": 2315,
      "okay": 2316,
      "lying": 2317,
      "forward": 2318,
      "chall": 2319,
      "industrial": 2320,
      "color": 2321,
      "hind": 2322,
      "burning": 2323,
      "saturday": 2324,
      "cities": 2325,
      "workers": 2326,
      "version": 2327,
      "nu": 2328,
      "aliyev": 2329,
      "acts": 2330,
      "sovi": 2331,
      "gon": 2332,
      "accom": 2333,
      "corpor": 2334,
      "deli": 2335,
      "aust": 2336,
      "students": 2337,
      "dred": 2338,
      "gin": 2339,
      "election": 2340,
      "ado": 2341,
      "fest": 2342,
      "silver": 2343,
      "deal": 2344,
      "hundred": 2345,
      "answer": 2346,
      "dav": 2347,
      "acqu": 2348,
      "value": 2349,
      "nazarbayev": 2350,
      "website": 2351,
      "avo": 2352,
      "network": 2353,
      "die": 2354,
      "signed": 2355,
      "roy": 2356,
      "signific": 2357,
      "medical": 2358,
      "factor": 2359,
      "nations": 2360,
      "syl": 2361,
      "mou": 2362,
      "presented": 2363,
      "continue": 2364,
      "premium": 2365,
      "etc": 2366,
      "aur": 2367,
      "heaven": 2368,
      "recent": 2369,
      "lling": 2370,
      "assemb": 2371,
      "xp": 2372,
      "ladyhealth": 2373,
      "germany": 2374,
      "cross": 2375,
      "oral": 2376,
      "vention": 2377,
      "although": 2378,
      "drop": 2379,
      "smo": 2380,
      "firm": 2381,
      "basis": 2382,
      "poor": 2383,
      "hov": 2384,
      "ensure": 2385,
      "forms": 2386,
      "fail": 2387,
      "receive": 2388,
      "missing": 2389,
      "index": 2390,
      "pack": 2391,
      "enjoy": 2392,
      "hot": 2393,
      "developed": 2394,
      "logy": 2395,
      "beautiful": 2396,
      "foot": 2397,
      "morning": 2398,
      "fish": 2399,
      "mur": 2400,
      "itself": 2401,
      "whether": 2402,
      "penn": 2403,
      "soft": 2404,
      "complex": 2405,
      "note": 2406,
      "professional": 2407,
      "entire": 2408,
      "cultural": 2409,
      "belar": 2410,
      "needs": 2411,
      "gor": 2412,
      "happy": 2413,
      "final": 2414,
      "asing": 2415,
      "belarus": 2416,
      "german": 2417,
      "email": 2418,
      "vania": 2419,
      "veget": 2420,
      "tou": 2421,
      "anti": 2422,
      "fav": 2423,
      "charac": 2424,
      "wife": 2425,
      "term": 2426,
      "approach": 2427,
      "established": 2428,
      "fear": 2429,
      "discussed": 2430,
      "thanks": 2431,
      "feet": 2432,
      "sylvania": 2433,
      "claim": 2434,
      "materials": 2435,
      "sold": 2436,
      "logical": 2437,
      "fruits": 2438,
      "mountain": 2439,
      "boy": 2440,
      "aft": 2441,
      "community": 2442,
      "youre": 2443,
      "llig": 2444,
      "67": 2445,
      "pennsylvania": 2446,
      "achieve": 2447,
      "likely": 2448,
      "forces": 2449,
      "tons": 2450,
      "phys": 2451,
      "kr": 2452,
      "cis": 2453,
      "defend": 2454,
      "offe": 2455,
      "chief": 2456,
      "mail": 2457,
      "histor": 2458,
      "seven": 2459,
      "towards": 2460,
      "wered": 2461,
      "assembly": 2462,
      "technologies": 2463,
      "thu": 2464,
      "tu": 2465,
      "ption": 2466,
      "size": 2467,
      "mary": 2468,
      "separ": 2469,
      "dle": 2470,
      "alone": 2471,
      "izing": 2472,
      "plied": 2473,
      "wind": 2474,
      "intellig": 2475,
      "dol": 2476,
      "participation": 2477,
      "measures": 2478,
      "iency": 2479,
      "else": 2480,
      "science": 2481,
      "pie": 2482,
      "crash": 2483,
      "army": 2484,
      "fair": 2485,
      "budget": 2486,
      "session": 2487,
      "consci": 2488,
      "inc": 2489,
      "consul": 2490,
      "lost": 2491,
      "engine": 2492,
      "outside": 2493,
      "dog": 2494,
      "auto": 2495,
      "ene": 2496,
      "contribut": 2497,
      "sector": 2498,
      "update": 2499,
      "authorities": 2500,
      "din": 2501,
      "celebr": 2502,
      "difficult": 2503,
      "prior": 2504,
      "seemed": 2505,
      "cro": 2506,
      "stock": 2507,
      "documents": 2508,
      "tv": 2509,
      "fi": 2510,
      "wise": 2511,
      "mis": 2512,
      "photos": 2513,
      "prepar": 2514,
      "aud": 2515,
      "yourself": 2516,
      "cture": 2517,
      "demon": 2518,
      "record": 2519,
      "sequ": 2520,
      "anim": 2521,
      "creation": 2522,
      "ising": 2523,
      "ently": 2524,
      "purpose": 2525,
      "immedi": 2526,
      "kingdom": 2527,
      "groups": 2528,
      "drag": 2529,
      "aring": 2530,
      "iana": 2531,
      "transfer": 2532,
      "speaking": 2533,
      "verse": 2534,
      "except": 2535,
      "besides": 2536,
      "behind": 2537,
      "restaur": 2538,
      "sphere": 2539,
      "getting": 2540,
      "leav": 2541,
      "apartments": 2542,
      "yere": 2543,
      "capac": 2544,
      "aste": 2545,
      "midnight": 2546,
      "foundation": 2547,
      "geo": 2548,
      "famil": 2549,
      "ukrainian": 2550,
      "document": 2551,
      "ering": 2552,
      "carol": 2553,
      "gard": 2554,
      "deep": 2555,
      "specific": 2556,
      "aran": 2557,
      "sed": 2558,
      "adop": 2559,
      "terror": 2560,
      "questions": 2561,
      "games": 2562,
      "yerevan": 2563,
      "pap": 2564,
      "ador": 2565,
      "gain": 2566,
      "rather": 2567,
      "washington": 2568,
      "rating": 2569,
      "extra": 2570,
      "method": 2571,
      "plann": 2572,
      "crit": 2573,
      "credit": 2574,
      "legisl": 2575,
      "stage": 2576,
      "content": 2577,
      "aint": 2578,
      "ably": 2579,
      "france": 2580,
      "vin": 2581,
      "carried": 2582,
      "square": 2583,
      "makes": 2584,
      "depend": 2585,
      "installed": 2586,
      "informed": 2587,
      "execut": 2588,
      "moldova": 2589,
      "asia": 2590,
      "leading": 2591,
      "hop": 2592,
      "tried": 2593,
      "safe": 2594,
      "payment": 2595,
      "location": 2596,
      "micro": 2597,
      "sort": 2598,
      "bullet": 2599,
      "eat": 2600,
      "ems": 2601,
      "mention": 2602,
      "comfort": 2603,
      "gree": 2604,
      "sports": 2605,
      "presentation": 2606,
      "holiday": 2607,
      "itory": 2608,
      "settings": 2609,
      "needed": 2610,
      "ension": 2611,
      "soviet": 2612,
      "previous": 2613,
      "efficiency": 2614,
      "ney": 2615,
      "places": 2616,
      "memor": 2617,
      "mn": 2618,
      "clus": 2619,
      ".'": 2620,
      "fa": 2621,
      "planned": 2622,
      "prices": 2623,
      "useful": 2624,
      "eter": 2625,
      "confl": 2626,
      "born": 2627,
      "save": 2628,
      "65": 2629,
      "ding": 2630,
      "ki": 2631,
      "almat": 2632,
      "reli": 2633,
      "ada": 2634,
      "ends": 2635,
      "hes": 2636,
      "deadline": 2637,
      "variety": 2638,
      "ram": 2639,
      "club": 2640,
      "facilities": 2641,
      "ses": 2642,
      "sec": 2643,
      "ret": 2644,
      "strengthen": 2645,
      "mem": 2646,
      "94": 2647,
      "!!": 2648,
      "gal": 2649,
      "framework": 2650,
      "ona": 2651,
      "worth": 2652,
      "perfor": 2653,
      "unique": 2654,
      "tradition": 2655,
      "character": 2656,
      "bek": 2657,
      "uz": 2658,
      "itude": 2659,
      "electoral": 2660,
      "discover": 2661,
      "indic": 2662,
      "carry": 2663,
      "sar": 2664,
      "believ": 2665,
      "ohio": 2666,
      "gro": 2667,
      "sey": 2668,
      "compon": 2669,
      "hotels": 2670,
      "decide": 2671,
      "cloud": 2672,
      "population": 2673,
      "ature": 2674,
      "bodies": 2675,
      "ape": 2676,
      "crim": 2677,
      "stic": 2678,
      "stad": 2679,
      "performan": 2680,
      "spect": 2681,
      "longer": 2682,
      "ead": 2683,
      "expo": 2684,
      "vegetables": 2685,
      "ensive": 2686,
      "study": 2687,
      "eks": 2688,
      "exchange": 2689,
      "driver": 2690,
      "scientific": 2691,
      ".:": 2692,
      "eth": 2693,
      "swe": 2694,
      "ending": 2695,
      "evil": 2696,
      "carolina": 2697,
      "girl": 2698,
      "extre": 2699,
      "edit": 2700,
      "bag": 2701,
      "gone": 2702,
      "prim": 2703,
      "changed": 2704,
      "usal": 2705,
      "vered": 2706,
      "tip": 2707,
      "idge": 2708,
      "village": 2709,
      "defin": 2710,
      "85": 2711,
      "series": 2712,
      "cert": 2713,
      "dum": 2714,
      "sight": 2715,
      "bol": 2716,
      "nel": 2717,
      "effective": 2718,
      "hah": 2719,
      "airport": 2720,
      "paid": 2721,
      "youth": 2722,
      "fitness": 2723,
      "\"\"\"\";": 2724,
      "cry": 2725,
      "sleep": 2726,
      "david": 2727,
      "map": 2728,
      "vic": 2729,
      "hi": 2730,
      "details": 2731,
      "suit": 2732,
      "instead": 2733,
      "apan": 2734,
      "nation": 2735,
      "trust": 2736,
      "mouth": 2737,
      "atory": 2738,
      "included": 2739,
      "opin": 2740,
      "manag": 2741,
      "function": 2742,
      "virgin": 2743,
      "territory": 2744,
      "bak": 2745,
      "almaty": 2746,
      "fine": 2747,
      "ech": 2748,
      "leaders": 2749,
      "staff": 2750,
      "cate": 2751,
      "pool": 2752,
      "asian": 2753,
      ".,": 2754,
      "relation": 2755,
      "75": 2756,
      "mac": 2757,
      "candid": 2758,
      "model": 2759,
      "prise": 2760,
      "ambass": 2761,
      "sultan": 2762,
      "capacity": 2763,
      "len": 2764,
      "freed": 2765,
      "llow": 2766,
      "pleas": 2767,
      "regions": 2768,
      "attle": 2769,
      "screen": 2770,
      "89": 2771,
      "chance": 2772,
      "imate": 2773,
      "guests": 2774,
      "rep": 2775,
      "dig": 2776,
      "formed": 2777,
      "iving": 2778,
      "forts": 2779,
      "running": 2780,
      "gall": 2781,
      "agency": 2782,
      "quickly": 2783,
      "heads": 2784,
      "appear": 2785,
      "solution": 2786,
      "accept": 2787,
      "easily": 2788,
      "*******": 2789,
      "forth": 2790,
      "ume": 2791,
      "83": 2792,
      "ota": 2793,
      "baby": 2794,
      "written": 2795,
      "sud": 2796,
      "pret": 2797,
      "guaran": 2798,
      "either": 2799,
      "wis": 2800,
      "steps": 2801,
      "ung": 2802,
      "sys": 2803,
      "progress": 2804,
      "fell": 2805,
      "dele": 2806,
      "ith": 2807,
      "ania": 2808,
      "daugh": 2809,
      "saving": 2810,
      "base": 2811,
      "hom": 2812,
      "bil": 2813,
      "esh": 2814,
      "mrs": 2815,
      "sunset": 2816,
      "governor": 2817,
      "hill": 2818,
      "pi": 2819,
      "rose": 2820,
      "ya": 2821,
      "serious": 2822,
      "avoid": 2823,
      "competition": 2824,
      "enc": 2825,
      "ond": 2826,
      "prison": 2827,
      "soul": 2828,
      "potential": 2829,
      "path": 2830,
      "umes": 2831,
      "ara": 2832,
      "aries": 2833,
      "aign": 2834,
      "500": 2835,
      "whose": 2836,
      "poker": 2837,
      "commer": 2838,
      "proced": 2839,
      "imp": 2840,
      "info": 2841,
      "hur": 2842,
      "lov": 2843,
      "infected": 2844,
      "imum": 2845,
      "bn": 2846,
      "liber": 2847,
      "treatment": 2848,
      "neither": 2849,
      "behold": 2850,
      "summer": 2851,
      "birth": 2852,
      "inv": 2853,
      "fixer": 2854,
      "middle": 2855,
      "69": 2856,
      "defense": 2857,
      "campaign": 2858,
      "bot": 2859,
      "throw": 2860,
      "dear": 2861,
      "browser": 2862,
      "export": 2863,
      "serve": 2864,
      "dim": 2865,
      "priest": 2866,
      "fle": 2867,
      "sudden": 2868,
      "partners": 2869,
      "secretary": 2870,
      "mi": 2871,
      "passed": 2872,
      "gue": 2873,
      ".-": 2874,
      "alt": 2875,
      "paren": 2876,
      "institutions": 2877,
      "user": 2878,
      "cum": 2879,
      "mich": 2880,
      "anch": 2881,
      "efforts": 2882,
      "opening": 2883,
      "istic": 2884,
      "nic": 2885,
      "freedom": 2886,
      "seconds": 2887,
      "prime": 2888,
      "73": 2889,
      "requirements": 2890,
      "lake": 2891,
      "turk": 2892,
      "street": 2893,
      "visa": 2894,
      "igan": 2895,
      "malware": 2896,
      "symp": 2897,
      "intelligence": 2898,
      "bs": 2899,
      "police": 2900,
      "challeng": 2901,
      "kitch": 2902,
      "happened": 2903,
      "speed": 2904,
      "diet": 2905,
      "popular": 2906,
      "constitution": 2907,
      "prince": 2908,
      "pages": 2909,
      "conside": 2910,
      "purch": 2911,
      "depos": 2912,
      "cold": 2913,
      "yo": 2914,
      "ases": 2915,
      "kept": 2916,
      "considered": 2917,
      "iran": 2918,
      "infr": 2919,
      "egy": 2920,
      "users": 2921,
      "sac": 2922,
      "target": 2923,
      "za": 2924,
      "bless": 2925,
      "machine": 2926,
      "egypt": 2927,
      "star": 2928,
      "strategy": 2929,
      "sunrise": 2930,
      "nik": 2931,
      "plat": 2932,
      "experts": 2933,
      "religious": 2934,
      "regul": 2935,
      "dete": 2936,
      "anni": 2937,
      "sale": 2938,
      "normal": 2939,
      "required": 2940,
      "loss": 2941,
      "aver": 2942,
      "latvia": 2943,
      "lv": 2944,
      "japan": 2945,
      "vation": 2946,
      "monitor": 2947,
      "performance": 2948,
      "iat": 2949,
      "lou": 2950,
      "volume": 2951,
      "former": 2952,
      "ring": 2953,
      "acce": 2954,
      "sons": 2955,
      "stain": 2956,
      "sco": 2957,
      "register": 2958,
      "rov": 2959,
      "provides": 2960,
      "takes": 2961,
      "rid": 2962,
      "bey": 2963,
      "acade": 2964,
      "hall": 2965,
      "vlad": 2966,
      "ilar": 2967,
      "cereal": 2968,
      "mony": 2969,
      "focus": 2970,
      "isher": 2971,
      "institute": 2972,
      "las": 2973,
      "mut": 2974,
      "jehov": 2975,
      "tea": 2976,
      "jehovah": 2977,
      "wers": 2978,
      "holding": 2979,
      "employment": 2980,
      "american": 2981,
      "emer": 2982,
      "opens": 2983,
      "charge": 2984,
      "settle": 2985,
      "answered": 2986,
      "positive": 2987,
      "iet": 2988,
      "horse": 2989,
      "usalem": 2990,
      "sir": 2991,
      "cks": 2992,
      "sch": 2993,
      "lie": 2994,
      "preci": 2995,
      "haps": 2996,
      "sug": 2997,
      "shot": 2998,
      "dev": 2999,
      ").\"\"\"": 3000,
      "rail": 3001,
      "michigan": 3002,
      "kitchen": 3003,
      "drink": 3004,
      "installation": 3005,
      "alex": 3006,
      "till": 3007,
      "shared": 3008,
      "cereals": 3009,
      "letter": 3010,
      "statement": 3011,
      "iah": 3012,
      "cris": 3013,
      "include": 3014,
      "mill": 3015,
      "jerusalem": 3016,
      "ja": 3017,
      "resh": 3018,
      "dollar": 3019,
      "perhaps": 3020,
      "ambassador": 3021,
      "covered": 3022,
      "conscious": 3023,
      "prophe": 3024,
      "nice": 3025,
      "resident": 3026,
      "helped": 3027,
      "influ": 3028,
      "lower": 3029,
      "decre": 3030,
      "mot": 3031,
      "finish": 3032,
      "contract": 3033,
      "thats": 3034,
      "cz": 3035,
      "standard": 3036,
      "photograph": 3037,
      "nursultan": 3038,
      "includes": 3039,
      "jum": 3040,
      "sorry": 3041,
      "worst": 3042,
      "disci": 3043,
      "74": 3044,
      "join": 3045,
      "designed": 3046,
      "movement": 3047,
      "herself": 3048,
      "indeed": 3049,
      "anta": 3050,
      "dered": 3051,
      "84": 3052,
      "remind": 3053,
      "93": 3054,
      "grat": 3055,
      "importance": 3056,
      "style": 3057,
      "versary": 3058,
      "announced": 3059,
      "scr": 3060,
      "sn": 3061,
      "2004": 3062,
      "books": 3063,
      "century": 3064,
      "solve": 3065,
      "reached": 3066,
      "ribut": 3067,
      "pil": 3068,
      "negot": 3069,
      "\"\"\"\";\"\"\"\"": 3070,
      "negoti": 3071,
      "administration": 3072,
      "hath": 3073,
      "kyr": 3074,
      "arian": 3075,
      "submitted": 3076,
      "lives": 3077,
      "ese": 3078,
      "ston": 3079,
      "enty": 3080,
      "rac": 3081,
      "gonna": 3082,
      "hus": 3083,
      "istics": 3084,
      "ova": 3085,
      "task": 3086,
      "displayed": 3087,
      "dry": 3088,
      "houses": 3089,
      "incorrect": 3090,
      "g20": 3091,
      "laugh": 3092,
      "percent": 3093,
      "mine": 3094,
      "minute": 3095,
      "deleg": 3096,
      "m2": 3097,
      "itation": 3098,
      "dial": 3099,
      "rig": 3100,
      "breakfast": 3101,
      "similar": 3102,
      "accommod": 3103,
      "boat": 3104,
      "gyz": 3105,
      "points": 3106,
      "plom": 3107,
      "brit": 3108,
      "scan": 3109,
      "protect": 3110,
      "satis": 3111,
      "dome": 3112,
      "supply": 3113,
      "prep": 3114,
      "anyone": 3115,
      "diplom": 3116,
      ",'": 3117,
      "speech": 3118,
      "cription": 3119,
      "kyrgyz": 3120,
      "ford": 3121,
      "basic": 3122,
      "tic": 3123,
      "placed": 3124,
      "finance": 3125,
      "lands": 3126,
      "congress": 3127,
      "parts": 3128,
      "enced": 3129,
      "prepared": 3130,
      "moon": 3131,
      "stern": 3132,
      "uses": 3133,
      "iev": 3134,
      "published": 3135,
      "peters": 3136,
      "trou": 3137,
      "registration": 3138,
      "immediately": 3139,
      "story": 3140,
      "topic": 3141,
      "ale": 3142,
      "garden": 3143,
      "prevent": 3144,
      "simple": 3145,
      "asc": 3146,
      "explo": 3147,
      "semin": 3148,
      "solid": 3149,
      "strateg": 3150,
      "standards": 3151,
      "accordance": 3152,
      "anniversary": 3153,
      "champ": 3154,
      "ties": 3155,
      "zer": 3156,
      "92": 3157,
      "maintain": 3158,
      "mode": 3159,
      "fif": 3160,
      "pointed": 3161,
      "68": 3162,
      "yan": 3163,
      "63": 3164,
      "distribut": 3165,
      "promot": 3166,
      "conflict": 3167,
      "anda": 3168,
      "turkey": 3169,
      "organis": 3170,
      "sex": 3171,
      "accordingly": 3172,
      "evening": 3173,
      "virginia": 3174,
      "gif": 3175,
      "reve": 3176,
      "across": 3177,
      "components": 3178,
      "rat": 3179,
      "leng": 3180,
      "opportunities": 3181,
      "cd": 3182,
      "players": 3183,
      "ideas": 3184,
      "playing": 3185,
      "dot": 3186,
      "approved": 3187,
      "entre": 3188,
      "pri": 3189,
      "touch": 3190,
      "keeping": 3191,
      "%,": 3192,
      "ured": 3193,
      "lies": 3194,
      "waiting": 3195,
      "spiritual": 3196,
      "orders": 3197,
      "original": 3198,
      "interests": 3199,
      "cham": 3200,
      "kin": 3201,
      "opinion": 3202,
      "lic": 3203,
      "ids": 3204,
      "astru": 3205,
      "rules": 3206,
      "continued": 3207,
      "infrastru": 3208,
      "ships": 3209,
      "weight": 3210,
      "advant": 3211,
      "wondering": 3212,
      "dut": 3213,
      "mechan": 3214,
      "sus": 3215,
      "deleted": 3216,
      "petersburg": 3217,
      "picture": 3218,
      "instru": 3219,
      "laws": 3220,
      "trip": 3221,
      "rs": 3222,
      "regular": 3223,
      "suggest": 3224,
      "award": 3225,
      "track": 3226,
      "roll": 3227,
      "rap": 3228,
      "organized": 3229,
      "ira": 3230,
      "conduct": 3231,
      "pick": 3232,
      "peas": 3233,
      "largest": 3234,
      "couldn": 3235,
      "oblig": 3236,
      "spring": 3237,
      "kal": 3238,
      "yah": 3239,
      "hood": 3240,
      "interested": 3241,
      "push": 3242,
      "goods": 3243,
      "barce": 3244,
      "instantly": 3245,
      "ahead": 3246,
      "nights": 3247,
      "uck": 3248,
      "neigh": 3249,
      "hair": 3250,
      "refers": 3251,
      "lif": 3252,
      "victory": 3253,
      "apply": 3254,
      "educational": 3255,
      "kh": 3256,
      "walking": 3257,
      "stadt": 3258,
      "advan": 3259,
      "functions": 3260,
      "ively": 3261,
      "spoke": 3262,
      "connect": 3263,
      "%.": 3264,
      "paul": 3265,
      "300": 3266,
      "electric": 3267,
      "employe": 3268,
      "vladim": 3269,
      "perfectly": 3270,
      "ises": 3271,
      "customers": 3272,
      "jersey": 3273,
      "assistance": 3274,
      "armed": 3275,
      "lock": 3276,
      "bles": 3277,
      "limited": 3278,
      "domestic": 3279,
      "stra": 3280,
      "shown": 3281,
      "filled": 3282,
      "oly": 3283,
      "aken": 3284,
      "thinking": 3285,
      "aled": 3286,
      "lets": 3287,
      "cise": 3288,
      "fats": 3289,
      "weh": 3290,
      "win32": 3291,
      "regarding": 3292,
      "gi": 3293,
      "destroy": 3294,
      "oblast": 3295,
      "administr": 3296,
      "cab": 3297,
      "corrup": 3298,
      "concept": 3299,
      "arab": 3300,
      "expert": 3301,
      "independent": 3302,
      "danger": 3303,
      "cs": 3304,
      "understanding": 3305,
      "winter": 3306,
      "weap": 3307,
      "nalband": 3308,
      "funds": 3309,
      "encounter": 3310,
      "killed": 3311,
      "chem": 3312,
      "hell": 3313,
      "served": 3314,
      "bell": 3315,
      "loved": 3316,
      "andre": 3317,
      "vladimir": 3318,
      "resolution": 3319,
      "representative": 3320,
      "libr": 3321,
      "asks": 3322,
      "leaving": 3323,
      "completely": 3324,
      "practice": 3325,
      "infrastructure": 3326,
      "stress": 3327,
      "edward": 3328,
      "lona": 3329,
      "electron": 3330,
      "prolet": 3331,
      "propos": 3332,
      "accommodation": 3333,
      ".)": 3334,
      "concerning": 3335,
      "lux": 3336,
      "yahweh": 3337,
      "justice": 3338,
      "length": 3339,
      "hest": 3340,
      "strugg": 3341,
      "archive": 3342,
      "western": 3343,
      "furn": 3344,
      "managed": 3345,
      "famous": 3346,
      "banks": 3347,
      "arily": 3348,
      "song": 3349,
      "mentioned": 3350,
      "starting": 3351,
      "branch": 3352,
      "challenges": 3353,
      "cou": 3354,
      "repe": 3355,
      "chap": 3356,
      "syria": 3357,
      "aya": 3358,
      "nuclear": 3359,
      "ano": 3360,
      "eness": 3361,
      "arms": 3362,
      "dedic": 3363,
      "tered": 3364,
      "crisis": 3365,
      "anov": 3366,
      "solutions": 3367,
      "barcelona": 3368,
      "connection": 3369,
      "prises": 3370,
      "fax": 3371,
      "cant": 3372,
      "physical": 3373,
      "imag": 3374,
      "skills": 3375,
      "</": 3376,
      "easter": 3377,
      "ket": 3378,
      "bb": 3379,
      "laun": 3380,
      "sitting": 3381,
      "features": 3382,
      "units": 3383,
      "judge": 3384,
      "72": 3385,
      "processing": 3386,
      "glad": 3387,
      "costs": 3388,
      "browse": 3389,
      "presence": 3390,
      "stated": 3391,
      "dv": 3392,
      "goal": 3393,
      "fing": 3394,
      "kb": 3395,
      "aily": 3396,
      "boss": 3397,
      "doctor": 3398,
      "ane": 3399,
      "blog": 3400,
      "adjust": 3401,
      "involved": 3402,
      "bull": 3403,
      "cook": 3404,
      "microsoft": 3405,
      "applications": 3406,
      "bridge": 3407,
      "giving": 3408,
      "islam": 3409,
      "mig": 3410,
      "quiet": 3411,
      "listen": 3412,
      "impress": 3413,
      "atech": 3414,
      "jews": 3415,
      "hum": 3416,
      "ore": 3417,
      "nuts": 3418,
      "significant": 3419,
      "increasing": 3420,
      "choice": 3421,
      "mas": 3422,
      "pav": 3423,
      "generally": 3424,
      "prene": 3425,
      "average": 3426,
      "successful": 3427,
      "doubt": 3428,
      "expressed": 3429,
      "talking": 3430,
      "circum": 3431,
      "internal": 3432,
      "occup": 3433,
      "nalbandian": 3434,
      "iers": 3435,
      "binary": 3436,
      "participate": 3437,
      "collection": 3438,
      "entreprene": 3439,
      "legumes": 3440,
      "daughter": 3441,
      "ateral": 3442,
      "miratech": 3443,
      "iles": 3444,
      "commercial": 3445,
      "miner": 3446,
      "executive": 3447,
      "exer": 3448,
      "weeks": 3449,
      "exc": 3450,
      "independence": 3451,
      "fastest": 3452,
      "accoun": 3453,
      "obtain": 3454,
      "section": 3455,
      "lining": 3456,
      "grace": 3457,
      "compare": 3458,
      "sist": 3459,
      "border": 3460,
      "cher": 3461,
      "pun": 3462,
      "los": 3463,
      "paris": 3464,
      "federal": 3465,
      "instruct": 3466,
      "broad": 3467,
      "convention": 3468,
      "drive": 3469,
      "ighte": 3470,
      "occas": 3471,
      "favor": 3472,
      "cere": 3473,
      "none": 3474,
      "parking": 3475,
      "scal": 3476,
      "profit": 3477,
      "direction": 3478,
      "publisher": 3479,
      "schools": 3480,
      "eurasian": 3481,
      "pd": 3482,
      "option": 3483,
      "suddenly": 3484,
      "daily": 3485,
      "iron": 3486,
      "crime": 3487,
      "easiest": 3488,
      "knows": 3489,
      "throughout": 3490,
      "planning": 3491,
      "witness": 3492,
      "sides": 3493,
      "forget": 3494,
      "archite": 3495,
      "gstadt": 3496,
      "interesting": 3497,
      "alexand": 3498,
      "welcome": 3499,
      "contest": 3500,
      "ously": 3501,
      "husband": 3502,
      "dress": 3503,
      "herit": 3504,
      "excell": 3505,
      "promotion": 3506,
      "bio": 3507,
      "ites": 3508,
      "hosp": 3509,
      "peter": 3510,
      "analy": 3511,
      "bread": 3512,
      "jack": 3513,
      "truly": 3514,
      "gun": 3515,
      "strength": 3516,
      "appeared": 3517,
      "restaurant": 3518,
      "historical": 3519,
      "ops": 3520,
      "rates": 3521,
      "investig": 3522,
      "customer": 3523,
      "outstanding": 3524,
      "meetings": 3525,
      "offered": 3526,
      "ti": 3527,
      "allowed": 3528,
      "gives": 3529,
      "sense": 3530,
      "sites": 3531,
      "afraid": 3532,
      "moses": 3533,
      "transl": 3534,
      "cru": 3535,
      "zy": 3536,
      "unsure": 3537,
      "kent": 3538,
      "beat": 3539,
      "dollars": 3540,
      "journal": 3541,
      "consequ": 3542,
      "decisions": 3543,
      "bear": 3544,
      "brief": 3545,
      "fit": 3546,
      "investments": 3547,
      "tree": 3548,
      "hat": 3549,
      "wine": 3550,
      "zone": 3551,
      "threat": 3552,
      "medic": 3553,
      "slow": 3554,
      "egg": 3555,
      "secut": 3556,
      "meters": 3557,
      "seems": 3558,
      "italy": 3559,
      "lax": 3560,
      "worked": 3561,
      "inese": 3562,
      "tts": 3563,
      "]]": 3564,
      "died": 3565,
      "developing": 3566,
      "flight": 3567,
      "chamber": 3568,
      "registered": 3569,
      "philip": 3570,
      "partnership": 3571,
      "curren": 3572,
      "offering": 3573,
      "belong": 3574,
      "91": 3575,
      "sched": 3576,
      "underlying": 3577,
      "legislation": 3578,
      "sales": 3579,
      "bled": 3580,
      "sens": 3581,
      "annual": 3582,
      "kg": 3583,
      "glass": 3584,
      "tue": 3585,
      "ali": 3586,
      "parents": 3587,
      "button": 3588,
      "associating": 3589,
      "showing": 3590,
      "expand": 3591,
      "encies": 3592,
      "guard": 3593,
      "nav": 3594,
      "closed": 3595,
      "absol": 3596,
      "spread": 3597,
      "distance": 3598,
      "agriculture": 3599,
      "review": 3600,
      "chinese": 3601,
      "aimed": 3602,
      "rian": 3603,
      "criminal": 3604,
      "cried": 3605,
      "solved": 3606,
      "weak": 3607,
      "dotted": 3608,
      "tick": 3609,
      "rou": 3610,
      "resist": 3611,
      "integration": 3612,
      "store": 3613,
      "sess": 3614,
      "crete": 3615,
      "kz": 3616,
      "operations": 3617,
      "quarter": 3618,
      "formation": 3619,
      "optim": 3620,
      "particularly": 3621,
      "reh": 3622,
      "returned": 3623,
      "toward": 3624,
      "determined": 3625,
      "cool": 3626,
      "christian": 3627,
      "resort": 3628,
      "goes": 3629,
      "taj": 3630,
      "riage": 3631,
      "vere": 3632,
      "ultural": 3633,
      "swim": 3634,
      "referen": 3635,
      "cape": 3636,
      "visited": 3637,
      "ordin": 3638,
      "mont": 3639,
      "risk": 3640,
      "hospital": 3641,
      "otes": 3642,
      "highest": 3643,
      "policies": 3644,
      "cash": 3645,
      "compreh": 3646,
      "gallery": 3647,
      "??": 3648,
      "festival": 3649,
      "mort": 3650,
      "eli": 3651,
      "bathroom": 3652,
      "authority": 3653,
      "saint": 3654,
      "pictures": 3655,
      "traditional": 3656,
      "els": 3657,
      "lithu": 3658,
      "conver": 3659,
      "comment": 3660,
      "appropri": 3661,
      "ansas": 3662,
      "lav": 3663,
      "advanced": 3664,
      "tempor": 3665,
      "vant": 3666,
      "silent": 3667,
      "markets": 3668,
      "tempt": 3669,
      "scar": 3670,
      "burn": 3671,
      "fuck": 3672,
      "proceed": 3673,
      "massach": 3674,
      "india": 3675,
      "attended": 3676,
      "massachuse": 3677,
      "bat": 3678,
      "completed": 3679,
      "massachusetts": 3680,
      "possibility": 3681,
      "communication": 3682,
      "responsible": 3683,
      "draft": 3684,
      "brand": 3685,
      "player": 3686,
      "happen": 3687,
      "apt": 3688,
      "convert": 3689,
      "principles": 3690,
      "morrow": 3691,
      "assu": 3692,
      "olf": 3693,
      "emp": 3694,
      "release": 3695,
      "suffer": 3696,
      "tough": 3697,
      "ctors": 3698,
      "sustain": 3699,
      "communications": 3700,
      "democratic": 3701,
      "symptom": 3702,
      "):": 3703,
      "insur": 3704,
      "probab": 3705,
      ".......": 3706,
      "ee": 3707,
      "tajik": 3708,
      "kes": 3709,
      "ministers": 3710,
      "revolutionary": 3711,
      "tourism": 3712,
      "reality": 3713,
      "battle": 3714,
      "chip": 3715,
      "ski": 3716,
      "nato": 3717,
      "absolute": 3718,
      "wing": 3719,
      "ality": 3720,
      "automat": 3721,
      "equipped": 3722,
      "shar": 3723,
      "62": 3724,
      "jewish": 3725,
      "restr": 3726,
      "advis": 3727,
      "wil": 3728,
      "followed": 3729,
      "match": 3730,
      "eastern": 3731,
      "manufacture": 3732,
      "measure": 3733,
      "ensions": 3734,
      "pressure": 3735,
      "dedicated": 3736,
      "dated": 3737,
      "opposition": 3738,
      "intel": 3739,
      "opt": 3740,
      "advert": 3741,
      "acher": 3742,
      "jac": 3743,
      "adopted": 3744,
      "seeing": 3745,
      "fs": 3746,
      "usually": 3747,
      "entered": 3748,
      "thern": 3749,
      "tern": 3750,
      "]]>": 3751,
      "victor": 3752,
      "consist": 3753,
      "iment": 3754,
      "fat": 3755,
      "twenty": 3756,
      "nas": 3757,
      "bound": 3758,
      "shut": 3759,
      "fresh": 3760,
      "ining": 3761,
      "rule": 3762,
      "neg": 3763,
      ")(": 3764,
      "guide": 3765,
      "iced": 3766,
      "probably": 3767,
      "tren": 3768,
      "bill": 3769,
      "structure": 3770,
      "feedback": 3771,
      "ordinary": 3772,
      "employees": 3773,
      "income": 3774,
      "thes": 3775,
      "corporate": 3776,
      "ially": 3777,
      "levels": 3778,
      "monitoring": 3779,
      "quote": 3780,
      "amaz": 3781,
      "strategic": 3782,
      "79": 3783,
      "reflect": 3784,
      "nine": 3785,
      "parliamentary": 3786,
      "accep": 3787,
      "dict": 3788,
      "hast": 3789,
      "servants": 3790,
      "usd": 3791,
      "fran": 3792,
      "parent": 3793,
      "implemented": 3794,
      "mix": 3795,
      "ils": 3796,
      "ries": 3797,
      "stances": 3798,
      "serge": 3799,
      "crib": 3800,
      "spices": 3801,
      "initiative": 3802,
      "yer": 3803,
      "oration": 3804,
      "responsibility": 3805,
      "agricultural": 3806,
      "fal": 3807,
      ")\"\"\"": 3808,
      "zing": 3809,
      "write": 3810,
      "href": 3811,
      "friendly": 3812,
      "honor": 3813,
      "hague": 3814,
      "universe": 3815,
      "sme": 3816,
      "chic": 3817,
      "clients": 3818,
      "lenin": 3819,
      "tat": 3820,
      "abilities": 3821,
      "grant": 3822,
      "copy": 3823,
      "nail": 3824,
      "desire": 3825,
      "anci": 3826,
      "wid": 3827,
      "perman": 3828,
      "struggle": 3829,
      "py": 3830,
      "lack": 3831,
      "thro": 3832,
      "clud": 3833,
      "latest": 3834,
      "icip": 3835,
      "71": 3836,
      "louis": 3837,
      "engineering": 3838,
      "ogue": 3839,
      "season": 3840,
      "dp": 3841,
      "frequ": 3842,
      "race": 3843,
      "consum": 3844,
      "compared": 3845,
      "mers": 3846,
      ");": 3847,
      "sq": 3848,
      "fellow": 3849,
      "deliver": 3850,
      "limit": 3851,
      "righte": 3852,
      "proving": 3853,
      "ires": 3854,
      "paper": 3855,
      "piece": 3856,
      "seek": 3857,
      "practical": 3858,
      "ivity": 3859,
      "soph": 3860,
      "surround": 3861,
      "lier": 3862,
      "launch": 3863,
      "odo": 3864,
      "snow": 3865,
      "assess": 3866,
      "meant": 3867,
      "tov": 3868,
      "chapter": 3869,
      "america": 3870,
      "laid": 3871,
      "bourgeo": 3872,
      "existing": 3873,
      "hid": 3874,
      "bourgeois": 3875,
      "preparation": 3876,
      "sole": 3877,
      "righteous": 3878,
      "ogle": 3879,
      "procedure": 3880,
      "hic": 3881,
      "relevant": 3882,
      "0x": 3883,
      "removed": 3884,
      "manner": 3885,
      "film": 3886,
      "library": 3887,
      "imper": 3888,
      "elements": 3889,
      "glory": 3890,
      "enterprises": 3891,
      "cript": 3892,
      "cards": 3893,
      "iling": 3894,
      "writing": 3895,
      "devil": 3896,
      "vitam": 3897,
      "traff": 3898,
      "description": 3899,
      "ios": 3900,
      "gentle": 3901,
      "moved": 3902,
      "61": 3903,
      "ony": 3904,
      "anna": 3905,
      "agreed": 3906,
      "ea": 3907,
      "liter": 3908,
      "champion": 3909,
      "demonstr": 3910,
      "tight": 3911,
      "xic": 3912,
      "liqu": 3913,
      ">>": 3914,
      "turning": 3915,
      "extreme": 3916,
      "tajikistan": 3917,
      "preser": 3918,
      "wants": 3919,
      "google": 3920,
      "greater": 3921,
      "discussion": 3922,
      "nar": 3923,
      "82": 3924,
      "certific": 3925,
      "relax": 3926,
      "families": 3927,
      "lived": 3928,
      "london": 3929,
      "atl": 3930,
      "sell": 3931,
      "jose": 3932,
      "bright": 3933,
      "attract": 3934,
      "utilities": 3935,
      "memory": 3936,
      "wro": 3937,
      "beyond": 3938,
      "luck": 3939,
      "pit": 3940,
      "thir": 3941,
      "client": 3942,
      "asons": 3943,
      "occur": 3944,
      "thoughts": 3945,
      "growing": 3946,
      "teen": 3947,
      "issuer": 3948,
      "certainly": 3949,
      "sand": 3950,
      "separate": 3951,
      "tag": 3952,
      "fields": 3953,
      "81": 3954,
      "putin": 3955,
      "symb": 3956,
      "tasks": 3957,
      "valu": 3958,
      "osce": 3959,
      "iation": 3960,
      "summit": 3961,
      "surface": 3962,
      "gory": 3963,
      "cze": 3964,
      "appropriate": 3965,
      "unit": 3966,
      "correspon": 3967,
      "raw": 3968,
      "proto": 3969,
      "remained": 3970,
      "occasion": 3971,
      "stu": 3972,
      "finished": 3973,
      "detection": 3974,
      "enko": 3975,
      "innovative": 3976,
      "zhan": 3977,
      "poems": 3978,
      "forest": 3979,
      "apost": 3980,
      "whate": 3981,
      "straight": 3982,
      "prospect": 3983,
      "goals": 3984,
      "balance": 3985,
      "issued": 3986,
      "buildings": 3987,
      "customs": 3988,
      "pull": 3989,
      "whatever": 3990,
      "votes": 3991,
      "creating": 3992,
      "steel": 3993,
      "ours": 3994,
      "tenance": 3995,
      "servant": 3996,
      "providing": 3997,
      "storage": 3998,
      "arts": 3999,
      "moving": 4000,
      "milk": 4001,
      "methods": 4002,
      "valid": 4003,
      "cm": 4004,
      "oting": 4005,
      "deser": 4006,
      "scale": 4007,
      "agreements": 4008,
      "maximum": 4009,
      "ox": 4010,
      "lection": 4011,
      "bers": 4012,
      "evol": 4013,
      "indiana": 4014,
      "flat": 4015,
      "nom": 4016,
      "vehic": 4017,
      "benefit": 4018,
      "aces": 4019,
      "flesh": 4020,
      "delive": 4021,
      "category": 4022,
      "ceremony": 4023,
      "lis": 4024,
      "shows": 4025,
      "confir": 4026,
      "arrived": 4027,
      "names": 4028,
      "proletar": 4029,
      "spl": 4030,
      "impossible": 4031,
      "named": 4032,
      "syn": 4033,
      "establishment": 4034,
      "objects": 4035,
      "symbol": 4036,
      "wrote": 4037,
      "oth": 4038,
      "mere": 4039,
      "holders": 4040,
      "olymp": 4041,
      "seat": 4042,
      "electronic": 4043,
      "ouri": 4044,
      "mayor": 4045,
      "arrest": 4046,
      "conce": 4047,
      "ami": 4048,
      "jur": 4049,
      "matters": 4050,
      "raised": 4051,
      "psy": 4052,
      "appreci": 4053,
      "metro": 4054,
      "aliyeva": 4055,
      "rivers": 4056,
      "produced": 4057,
      "fruit": 4058,
      "ked": 4059,
      "images": 4060,
      "soldiers": 4061,
      "digital": 4062,
      "fly": 4063,
      "vac": 4064,
      "influence": 4065,
      "bedroom": 4066,
      "tools": 4067,
      "looks": 4068,
      "drawing": 4069,
      "conven": 4070,
      "plies": 4071,
      "broken": 4072,
      "perform": 4073,
      "exter": 4074,
      "kore": 4075,
      "v2": 4076,
      "worship": 4077,
      "pra": 4078,
      "visitors": 4079,
      "missouri": 4080,
      "clearly": 4081,
      "appointed": 4082,
      "wasn": 4083,
      "2003": 4084,
      "akvis": 4085,
      "2000": 4086,
      "height": 4087,
      "amounted": 4088,
      "gate": 4089,
      "processes": 4090,
      "convers": 4091,
      "deposit": 4092,
      "remains": 4093,
      "weapons": 4094,
      "habit": 4095,
      "settlement": 4096,
      "gradu": 4097,
      "150": 4098,
      "chemical": 4099,
      "fash": 4100,
      "sid": 4101,
      "minnes": 4102,
      "equal": 4103,
      "generation": 4104,
      "minnesota": 4105,
      "courage": 4106,
      "tend": 4107,
      "majority": 4108,
      "karab": 4109,
      "loaded": 4110,
      "trial": 4111,
      "supported": 4112,
      "tt": 4113,
      "print": 4114,
      "ison": 4115,
      "chin": 4116,
      "heat": 4117,
      "block": 4118,
      "dur": 4119,
      "spain": 4120,
      "numer": 4121,
      "approx": 4122,
      "kiev": 4123,
      "renew": 4124,
      "stick": 4125,
      "czech": 4126,
      "ferences": 4127,
      "=\"\"\"\"": 4128,
      "earlier": 4129,
      "wild": 4130,
      "mak": 4131,
      "exclus": 4132,
      "ku": 4133,
      "310": 4134,
      "supre": 4135,
      "phas": 4136,
      "mes": 4137,
      "ultim": 4138,
      "/.": 4139,
      "administrative": 4140,
      "planet": 4141,
      "iled": 4142,
      "amend": 4143,
      "fashion": 4144,
      "supreme": 4145,
      "eight": 4146,
      "investors": 4147,
      "delivered": 4148,
      "housing": 4149,
      "reven": 4150,
      "ena": 4151,
      "learned": 4152,
      "ots": 4153,
      "arrival": 4154,
      "permission": 4155,
      "finland": 4156,
      "saved": 4157,
      "ancient": 4158,
      "gets": 4159,
      "subst": 4160,
      "victim": 4161,
      "interview": 4162,
      "mart": 4163,
      "refer": 4164,
      "environmental": 4165,
      "thered": 4166,
      "surprise": 4167,
      "strange": 4168,
      "warm": 4169,
      "conducted": 4170,
      "grain": 4171,
      "realizing": 4172,
      "delegation": 4173,
      "provision": 4174,
      "ght": 4175,
      "eco": 4176,
      "gment": 4177,
      "captain": 4178,
      "recently": 4179,
      "studies": 4180,
      "transportation": 4181,
      "peoples": 4182,
      "mmk": 4183,
      "frank": 4184,
      "abroad": 4185,
      "thousands": 4186,
      "taste": 4187,
      "dinner": 4188,
      "applied": 4189,
      "comfortable": 4190,
      "temporary": 4191,
      "launched": 4192,
      "ij": 4193,
      "proof": 4194,
      "unity": 4195,
      "citizen": 4196,
      "skin": 4197,
      "enda": 4198,
      "voting": 4199,
      "iar": 4200,
      "platform": 4201,
      "languages": 4202,
      "caught": 4203,
      "basket": 4204,
      "pped": 4205,
      "cam": 4206,
      "succeed": 4207,
      "plants": 4208,
      "mistaken": 4209,
      "willing": 4210,
      "estate": 4211,
      "prepare": 4212,
      "kom": 4213,
      "495": 4214,
      "excellent": 4215,
      "crashed": 4216,
      "bia": 4217,
      "labour": 4218,
      "divis": 4219,
      "colum": 4220,
      "unes": 4221,
      "400": 4222,
      "pati": 4223,
      "broke": 4224,
      "grew": 4225,
      "====": 4226,
      "consult": 4227,
      "proletariat": 4228,
      "2020": 4229,
      "pursu": 4230,
      "stal": 4231,
      "fool": 4232,
      "dvd": 4233,
      "md": 4234,
      "messages": 4235,
      "storm": 4236,
      "blind": 4237,
      "zo": 4238,
      "values": 4239,
      "impact": 4240,
      "iance": 4241,
      "fixed": 4242,
      "corruption": 4243,
      "palace": 4244,
      "reduce": 4245,
      "bilateral": 4246,
      "rif": 4247,
      "und": 4248,
      "catch": 4249,
      "promise": 4250,
      "concerned": 4251,
      "blow": 4252,
      "owner": 4253,
      "ariz": 4254,
      "devices": 4255,
      "negotiations": 4256,
      "candidates": 4257,
      "poses": 4258,
      "confidence": 4259,
      "ulated": 4260,
      "astic": 4261,
      "connected": 4262,
      "item": 4263,
      "dreams": 4264,
      "tomorrow": 4265,
      "entr": 4266,
      "temper": 4267,
      "radio": 4268,
      "scanning": 4269,
      "conclus": 4270,
      "comments": 4271,
      "disciples": 4272,
      "karabakh": 4273,
      "forced": 4274,
      "iture": 4275,
      "mt": 4276,
      "profess": 4277,
      "leadership": 4278,
      "nd": 4279,
      "spap": 4280,
      "reading": 4281,
      "nutri": 4282,
      "isa": 4283,
      "kno": 4284,
      "span": 4285,
      "religion": 4286,
      "wat": 4287,
      "newspap": 4288,
      "specialists": 4289,
      "riga": 4290,
      "insurance": 4291,
      "democracy": 4292,
      "aspect": 4293,
      "showed": 4294,
      "purchase": 4295,
      "academy": 4296,
      "sli": 4297,
      "agenda": 4298,
      "meh": 4299,
      "peaceful": 4300,
      "courses": 4301,
      "ease": 4302,
      "climate": 4303,
      "teachers": 4304,
      "reasons": 4305,
      "flash": 4306,
      "arizona": 4307,
      "shares": 4308,
      "guarante": 4309,
      "nament": 4310,
      "printing": 4311,
      "referendum": 4312,
      "introduced": 4313,
      "booking": 4314,
      "crow": 4315,
      "iny": 4316,
      "ayev": 4317,
      "existence": 4318,
      "stri": 4319,
      "chester": 4320,
      "obvious": 4321,
      "geno": 4322,
      "bow": 4323,
      "kra": 4324,
      "prize": 4325,
      "iraq": 4326,
      "param": 4327,
      "fathers": 4328,
      "aves": 4329,
      "cn": 4330,
      "believed": 4331,
      "(+": 4332,
      "dish": 4333,
      "manager": 4334,
      "horns": 4335,
      "emphas": 4336,
      "iel": 4337,
      "dialogue": 4338,
      "judah": 4339,
      "centers": 4340,
      "spent": 4341,
      "permanent": 4342,
      "pier": 4343,
      "residence": 4344,
      "fold": 4345,
      "rome": 4346,
      "anger": 4347,
      "advantage": 4348,
      "assets": 4349,
      "title": 4350,
      "v1": 4351,
      "advance": 4352,
      "guess": 4353,
      "coast": 4354,
      "sr": 4355,
      "temple": 4356,
      "heating": 4357,
      "maintenance": 4358,
      "fuel": 4359,
      "expression": 4360,
      "waste": 4361,
      "rost": 4362,
      "trees": 4363,
      "released": 4364,
      "v4": 4365,
      "ala": 4366,
      "smile": 4367,
      "inct": 4368,
      "external": 4369,
      "programme": 4370,
      "origin": 4371,
      "gaz": 4372,
      "consu": 4373,
      "visions": 4374,
      "institution": 4375,
      "girls": 4376,
      "inqu": 4377,
      "meaning": 4378,
      "pic": 4379,
      "controlled": 4380,
      "teaching": 4381,
      "reception": 4382,
      "efficient": 4383,
      "gift": 4384,
      "sick": 4385,
      "era": 4386,
      "fee": 4387,
      "berg": 4388,
      "didnt": 4389,
      "yester": 4390,
      "protocol": 4391,
      "exceed": 4392,
      "africa": 4393,
      "vote": 4394,
      "career": 4395,
      "manufacturing": 4396,
      "aging": 4397,
      "calls": 4398,
      "izes": 4399,
      "edge": 4400,
      "strengthening": 4401,
      "introduction": 4402,
      "prosecut": 4403,
      "gry": 4404,
      "salt": 4405,
      "sink": 4406,
      "ads": 4407,
      "currency": 4408,
      "innovation": 4409,
      "spel": 4410,
      "bedrooms": 4411,
      "regime": 4412,
      "onia": 4413,
      "sister": 4414,
      "kov": 4415,
      "liquid": 4416,
      "ancy": 4417,
      "enses": 4418,
      "fre": 4419,
      "yesterday": 4420,
      "?-": 4421,
      "evidence": 4422,
      "----": 4423,
      "maryland": 4424,
      "usion": 4425,
      "bush": 4426,
      "mile": 4427,
      "numbers": 4428,
      "kon": 4429,
      "fection": 4430,
      "learning": 4431,
      "nag": 4432,
      "zen": 4433,
      "surv": 4434,
      "ficient": 4435,
      "articles": 4436,
      "asp": 4437,
      "trouble": 4438,
      "ays": 4439,
      "consciousness": 4440,
      "poland": 4441,
      "spot": 4442,
      "lose": 4443,
      "camer": 4444,
      "dwell": 4445,
      "bonds": 4446,
      "coal": 4447,
      "cles": 4448,
      "defenders": 4449,
      "ibe": 4450,
      "universal": 4451,
      "fundament": 4452,
      "swimming": 4453,
      "core": 4454,
      "rection": 4455,
      "fortun": 4456,
      "minerals": 4457,
      "huge": 4458,
      "usual": 4459,
      "venture": 4460,
      "smart": 4461,
      "genocide": 4462,
      "notice": 4463,
      "calling": 4464,
      "experienced": 4465,
      "pretty": 4466,
      "enge": 4467,
      "italian": 4468,
      "relationship": 4469,
      "teacher": 4470,
      "amen": 4471,
      "villa": 4472,
      "mel": 4473,
      "output": 4474,
      "powerful": 4475,
      "xx": 4476,
      "walked": 4477,
      "situated": 4478,
      "uh": 4479,
      "leaf": 4480,
      "baku": 4481,
      "guarantee": 4482,
      "icial": 4483,
      "hearts": 4484,
      "journey": 4485,
      "selected": 4486,
      "emerg": 4487,
      "dllsuite": 4488,
      "diag": 4489,
      "corner": 4490,
      "violence": 4491,
      "railway": 4492,
      "ghan": 4493,
      "ost": 4494,
      "modernization": 4495,
      "lap": 4496,
      "calm": 4497,
      "effort": 4498,
      "pcmag": 4499,
      "congrat": 4500,
      "cel": 4501,
      "consin": 4502,
      "heavy": 4503,
      "mand": 4504,
      "aught": 4505,
      "wisconsin": 4506,
      "hoping": 4507,
      "ula": 4508,
      "troops": 4509,
      "patri": 4510,
      "possib": 4511,
      "satisf": 4512,
      "debt": 4513,
      "freezing": 4514,
      "bum": 4515,
      "cancell": 4516,
      "coffe": 4517,
      "una": 4518,
      "seminar": 4519,
      "iter": 4520,
      "medium": 4521,
      "accepted": 4522,
      "prayer": 4523,
      "abled": 4524,
      "proposed": 4525,
      "bassy": 4526,
      "securities": 4527,
      "powers": 4528,
      "alu": 4529,
      "shalt": 4530,
      "maxutilities": 4531,
      "hitmalware": 4532,
      "patient": 4533,
      "containing": 4534,
      "kiss": 4535,
      "2050": 4536,
      "marriage": 4537,
      "improvement": 4538,
      "pred": 4539,
      "stopped": 4540,
      "guys": 4541,
      "angel": 4542,
      "medicine": 4543,
      "embassy": 4544,
      "tournament": 4545,
      "constitutional": 4546,
      "bid": 4547,
      "divine": 4548,
      "dimensions": 4549,
      "inn": 4550,
      "secure": 4551,
      "options": 4552,
      "mehri": 4553,
      "rapid": 4554,
      "contains": 4555,
      "mehriban": 4556,
      "sources": 4557,
      "comprehensive": 4558,
      "guy": 4559,
      "?\"\"\"\"": 4560,
      "prophet": 4561,
      "terrace": 4562,
      "multip": 4563,
      "voted": 4564,
      "territor": 4565,
      "forgot": 4566,
      "eva": 4567,
      "thick": 4568,
      "amed": 4569,
      "diplomatic": 4570,
      "agues": 4571,
      "icked": 4572,
      "produce": 4573,
      "dynam": 4574,
      "afghan": 4575,
      "shops": 4576,
      "brothers": 4577,
      "difference": 4578,
      "otherwise": 4579,
      "caused": 4580,
      "principle": 4581,
      "dogs": 4582,
      "bert": 4583,
      "committed": 4584,
      "haz": 4585,
      "moreover": 4586,
      "items": 4587,
      "doors": 4588,
      "played": 4589,
      "loy": 4590,
      "rub": 4591,
      "breath": 4592,
      "fourth": 4593,
      "benefits": 4594,
      "tab": 4595,
      "motion": 4596,
      "trading": 4597,
      "iveness": 4598,
      "joined": 4599,
      "turkish": 4600,
      "possess": 4601,
      "fighting": 4602,
      "response": 4603,
      "wouldn": 4604,
      "kras": 4605,
      "british": 4606,
      "pieces": 4607,
      "coffee": 4608,
      "married": 4609,
      "ideal": 4610,
      "corporation": 4611,
      "enemy": 4612,
      "imperial": 4613,
      "chosen": 4614,
      "petro": 4615,
      "mountains": 4616,
      "uninstall": 4617,
      "affect": 4618,
      "streets": 4619,
      "catal": 4620,
      "kil": 4621,
      "sweet": 4622,
      "alexander": 4623,
      "complet": 4624,
      "crashing": 4625,
      "pdf": 4626,
      "worse": 4627,
      "realize": 4628,
      "adel": 4629,
      "recovery": 4630,
      "abnormal": 4631,
      "entry": 4632,
      "finding": 4633,
      "directors": 4634,
      "familiar": 4635,
      "eternal": 4636,
      "deb": 4637,
      "lithuania": 4638,
      "eld": 4639,
      "enem": 4640,
      "aganda": 4641,
      "putting": 4642,
      "600": 4643,
      "apple": 4644,
      "domain": 4645,
      "circumstances": 4646,
      "bibel": 4647,
      "estim": 4648,
      "machines": 4649,
      "alab": 4650,
      "chain": 4651,
      "ini": 4652,
      "ilis": 4653,
      "gospel": 4654,
      "allah": 4655,
      "spoken": 4656,
      "seed": 4657,
      "sufficient": 4658,
      "120": 4659,
      "residents": 4660,
      "complain": 4661,
      "sword": 4662,
      "describ": 4663,
      "ato": 4664,
      "specified": 4665,
      "ibility": 4666,
      "faces": 4667,
      "furniture": 4668,
      "telephone": 4669,
      "entrepreneurs": 4670,
      "iary": 4671,
      "agencies": 4672,
      "250": 4673,
      "nutr": 4674,
      "rd": 4675,
      "poly": 4676,
      "mani": 4677,
      "jobs": 4678,
      "invited": 4679,
      "metres": 4680,
      "cluded": 4681,
      "spend": 4682,
      "element": 4683,
      "positions": 4684,
      "kings": 4685,
      "shevi": 4686,
      "participated": 4687,
      "agent": 4688,
      "pleasure": 4689,
      "collabor": 4690,
      "cc": 4691,
      "selection": 4692,
      "statements": 4693,
      "financing": 4694,
      "phase": 4695,
      "pure": 4696,
      "leon": 4697,
      "numerous": 4698,
      "yoy": 4699,
      "ishing": 4700,
      "eggs": 4701,
      "raise": 4702,
      "recognized": 4703,
      "convin": 4704,
      "philo": 4705,
      "hay": 4706,
      "wonderful": 4707,
      "assign": 4708,
      "aa": 4709,
      "isn": 4710,
      "kor": 4711,
      "ishment": 4712,
      "becomes": 4713,
      "advice": 4714,
      "chew": 4715,
      "roman": 4716,
      "plug": 4717,
      "student": 4718,
      "ita": 4719,
      "municip": 4720,
      "ucky": 4721,
      "sels": 4722,
      "nutrition": 4723,
      "pleased": 4724,
      "calcul": 4725,
      "islands": 4726,
      "dor": 4727,
      "conversation": 4728,
      "offices": 4729,
      "volt": 4730,
      "traffic": 4731,
      "kid": 4732,
      "chicago": 4733,
      "bling": 4734,
      "audi": 4735,
      "twel": 4736,
      "ius": 4737,
      "shell": 4738,
      "accounts": 4739,
      "bird": 4740,
      "sab": 4741,
      "accur": 4742,
      "pension": 4743,
      "negative": 4744,
      "kentucky": 4745,
      "aren": 4746,
      "volta": 4747,
      "sate": 4748,
      "orth": 4749,
      "amster": 4750,
      "orda": 4751,
      "amsterdam": 4752,
      "clock": 4753,
      "false": 4754,
      "unless": 4755,
      "saith": 4756,
      "pleasant": 4757,
      "sad": 4758,
      "presidential": 4759,
      "mov": 4760,
      "enemies": 4761,
      "bac": 4762,
      "reads": 4763,
      "amendments": 4764,
      "talks": 4765,
      "bered": 4766,
      "spa": 4767,
      "concent": 4768,
      "agra": 4769,
      "cket": 4770,
      "attemp": 4771,
      "stability": 4772,
      "protest": 4773,
      "male": 4774,
      "continues": 4775,
      "decor": 4776,
      "gather": 4777,
      "walls": 4778,
      "cake": 4779,
      "alabama": 4780,
      "/?": 4781,
      "nis": 4782,
      "promised": 4783,
      "intellect": 4784,
      "stressed": 4785,
      "acle": 4786,
      "creative": 4787,
      "animals": 4788,
      "mam": 4789,
      "priority": 4790,
      "steam": 4791,
      "colleagues": 4792,
      "mutual": 4793,
      "accident": 4794,
      "clothes": 4795,
      "(*****": 4796,
      "mistakenly": 4797,
      "(*****)": 4798,
      "uninstallation": 4799,
      "alive": 4800,
      "wealth": 4801,
      "ourselves": 4802,
      "zed": 4803,
      "boys": 4804,
      "austral": 4805,
      "alliance": 4806,
      "sins": 4807,
      "prefer": 4808,
      "understood": 4809,
      "enterprise": 4810,
      "atmo": 4811,
      "invit": 4812,
      "replied": 4813,
      "allocated": 4814,
      "critic": 4815,
      "restaurants": 4816,
      "ares": 4817,
      "muslim": 4818,
      "vey": 4819,
      "ams": 4820,
      "craft": 4821,
      "monu": 4822,
      "gathered": 4823,
      "nc": 4824,
      "updated": 4825,
      "promote": 4826,
      "illed": 4827,
      "treaty": 4828,
      "sake": 4829,
      "hp": 4830,
      "passeng": 4831,
      "georgian": 4832,
      "softwares": 4833,
      "candidate": 4834,
      "briefing": 4835,
      "degree": 4836,
      "clin": 4837,
      "twin": 4838,
      "feature": 4839,
      "satell": 4840,
      "emergency": 4841,
      "sustainable": 4842,
      "metal": 4843,
      "regulation": 4844,
      "essential": 4845,
      "ades": 4846,
      "hearing": 4847,
      "hung": 4848,
      "aling": 4849,
      "domin": 4850,
      "drivers": 4851,
      "rant": 4852,
      "charter": 4853,
      "bible": 4854,
      "declared": 4855,
      "declar": 4856,
      "terrorism": 4857,
      "atmosphere": 4858,
      "?\"\"\"": 4859,
      "appearance": 4860,
      "itarian": 4861,
      "pas": 4862,
      "antic": 4863,
      "lots": 4864,
      "clim": 4865,
      "operate": 4866,
      "claimed": 4867,
      "wear": 4868,
      "officials": 4869,
      "loans": 4870,
      "roads": 4871,
      "pipe": 4872,
      "colorado": 4873,
      "bottom": 4874,
      "heritage": 4875,
      "stable": 4876,
      "constant": 4877,
      "reviews": 4878,
      "appoint": 4879,
      "desk": 4880,
      "attacks": 4881,
      "jacob": 4882,
      "ifying": 4883,
      "lia": 4884,
      "subsid": 4885,
      "phia": 4886,
      "extr": 4887,
      "delivery": 4888,
      "elim": 4889,
      "hate": 4890,
      "heydar": 4891,
      "everybody": 4892,
      "azerbaijani": 4893,
      "flex": 4894,
      "judgment": 4895,
      "bond": 4896,
      "theres": 4897,
      "cars": 4898,
      "capt": 4899,
      "gos": 4900,
      "republican": 4901,
      "cha": 4902,
      "photography": 4903,
      "entertain": 4904,
      "instructions": 4905,
      "drug": 4906,
      "purposes": 4907,
      "announce": 4908,
      "legislative": 4909,
      "certificate": 4910,
      "james": 4911,
      "ulate": 4912,
      "meat": 4913,
      "pod": 4914,
      "minor": 4915,
      "twice": 4916,
      "adelphia": 4917,
      "voltaire": 4918,
      "successfully": 4919,
      "individuals": 4920,
      "gam": 4921,
      "virt": 4922,
      "salvation": 4923,
      "orient": 4924,
      "adul": 4925,
      "concrete": 4926,
      "tennes": 4927,
      "supposed": 4928,
      "reduced": 4929,
      "chen": 4930,
      "tennessee": 4931,
      "ored": 4932,
      "239": 4933,
      "officers": 4934,
      "arise": 4935,
      "psycho": 4936,
      "duty": 4937,
      "jump": 4938,
      "nearly": 4939,
      "reminded": 4940,
      "talked": 4941,
      "orno": 4942,
      "coordin": 4943,
      "treas": 4944,
      "altern": 4945,
      "magaz": 4946,
      "drew": 4947,
      "grav": 4948,
      "iff": 4949,
      "philadelphia": 4950,
      "explained": 4951,
      "krai": 4952,
      "affected": 4953,
      "105": 4954,
      "gb": 4955,
      "governmental": 4956,
      "zz": 4957,
      "yr": 4958,
      "theat": 4959,
      "spanish": 4960,
      "tall": 4961,
      "castle": 4962,
      "atures": 4963,
      "som": 4964,
      "noon": 4965,
      "suitable": 4966,
      "approxim": 4967,
      "iowa": 4968,
      "officer": 4969,
      "ached": 4970,
      "valley": 4971,
      "failed": 4972,
      "priests": 4973,
      "resistance": 4974,
      "observ": 4975,
      "stations": 4976,
      "stro": 4977,
      "contribution": 4978,
      "darkness": 4979,
      "recover": 4980,
      "surpris": 4981,
      "remem": 4982,
      "proud": 4983,
      "directions": 4984,
      "lest": 4985,
      "beds": 4986,
      "titan": 4987,
      "ow": 4988,
      "associations": 4989,
      "philosoph": 4990,
      "painting": 4991,
      "distribution": 4992,
      "repeated": 4993,
      "argu": 4994,
      "factory": 4995,
      "kmg": 4996,
      "finn": 4997,
      "coven": 4998,
      "changing": 4999,
      "faction": 5000,
      "modif": 5001,
      "sett": 5002,
      "poem": 5003,
      "couple": 5004,
      "twelve": 5005,
      "kur": 5006,
      "bing": 5007,
      "beha": 5008,
      "concert": 5009,
      "akorda": 5010,
      "personnel": 5011,
      "repair": 5012,
      "scientists": 5013,
      "marks": 5014,
      "posts": 5015,
      "provisions": 5016,
      "?\"\"\"\"\"\"\"": 5017,
      "compar": 5018,
      "flu": 5019,
      "transition": 5020,
      "plen": 5021,
      "wisdom": 5022,
      "arrange": 5023,
      "nobody": 5024,
      "evalu": 5025,
      "rible": 5026,
      "regulations": 5027,
      "acious": 5028,
      "stars": 5029,
      "croat": 5030,
      "worry": 5031,
      "mighty": 5032,
      "charged": 5033,
      "audio": 5034,
      "entrance": 5035,
      "editor": 5036,
      "prospects": 5037,
      "lett": 5038,
      "afghanistan": 5039,
      "gs": 5040,
      "syrian": 5041,
      "schedul": 5042,
      "actual": 5043,
      "nagorno": 5044,
      "sms": 5045,
      "2001": 5046,
      "ensuring": 5047,
      "intended": 5048,
      "minimum": 5049,
      "effects": 5050,
      "achieved": 5051,
      "profile": 5052,
      "waters": 5053,
      "hors": 5054,
      "revel": 5055,
      "extremely": 5056,
      "cad": 5057,
      "fro": 5058,
      "crying": 5059,
      "islamic": 5060,
      "pressed": 5061,
      "birds": 5062,
      "approximately": 5063,
      "beth": 5064,
      "attend": 5065,
      "iphone": 5066,
      "atest": 5067,
      "context": 5068,
      "foc": 5069,
      "clar": 5070,
      "ances": 5071,
      "canada": 5072,
      "greet": 5073,
      "minsk": 5074,
      "unexpected": 5075,
      "founded": 5076,
      "hidden": 5077,
      "struction": 5078,
      "hostel": 5079,
      "xico": 5080,
      "unk": 5081,
      "favour": 5082,
      "reforms": 5083,
      "performed": 5084,
      "\"\"\"\".": 5085,
      "portion": 5086,
      "ae": 5087,
      "grade": 5088,
      "submit": 5089,
      "akto": 5090,
      "easier": 5091,
      "rout": 5092,
      "wolf": 5093,
      "teeth": 5094,
      "greg": 5095,
      "ratings": 5096,
      "atlanta": 5097,
      "tery": 5098,
      "det": 5099,
      "consists": 5100,
      "joseph": 5101,
      "%)": 5102,
      "theless": 5103,
      "greatest": 5104,
      "drawn": 5105,
      "yellow": 5106,
      "apo": 5107,
      "friendship": 5108,
      "rush": 5109,
      "golden": 5110,
      "shoulder": 5111,
      "exercise": 5112,
      "reform": 5113,
      "agon": 5114,
      "okla": 5115,
      "mercy": 5116,
      "homa": 5117,
      "attempt": 5118,
      "facil": 5119,
      "magic": 5120,
      "buttons": 5121,
      "multi": 5122,
      "reject": 5123,
      "auth": 5124,
      "improving": 5125,
      "odox": 5126,
      "alty": 5127,
      "acting": 5128,
      "syan": 5129,
      "organisation": 5130,
      "nach": 5131,
      "covenant": 5132,
      "urban": 5133,
      "farm": 5134,
      "mc": 5135,
      "reference": 5136,
      "oklahoma": 5137,
      "silence": 5138,
      "quarters": 5139,
      "'.": 5140,
      "ulty": 5141,
      "orthodox": 5142,
      "loan": 5143,
      "sheep": 5144,
      "hone": 5145,
      "uel": 5146,
      "vy": 5147,
      "lift": 5148,
      "belief": 5149,
      "chips": 5150,
      "louisiana": 5151,
      "tourist": 5152,
      "absolutely": 5153,
      "celeb": 5154,
      "troj": 5155,
      "victims": 5156,
      "classes": 5157,
      "capable": 5158,
      "politics": 5159,
      "delight": 5160,
      "faced": 5161,
      "mount": 5162,
      "marked": 5163,
      "fx": 5164,
      "3d": 5165,
      "turkmen": 5166,
      "1000": 5167,
      "receiving": 5168,
      "horses": 5169,
      "swed": 5170,
      "attitude": 5171,
      "actively": 5172,
      "carefully": 5173,
      "structures": 5174,
      "gab": 5175,
      "hiv": 5176,
      "rev": 5177,
      "electricity": 5178,
      "pierre": 5179,
      "prosecutor": 5180,
      "inhabit": 5181,
      "phoen": 5182,
      "automatically": 5183,
      "heres": 5184,
      "expans": 5185,
      "confirmed": 5186,
      "2002": 5187,
      "!\"\"\"\"": 5188,
      "destruction": 5189,
      "shoot": 5190,
      "socialist": 5191,
      "mexico": 5192,
      "elected": 5193,
      "notes": 5194,
      "hen": 5195,
      "900": 5196,
      "ras": 5197,
      "movie": 5198,
      "grass": 5199,
      "shopping": 5200,
      "whats": 5201,
      "marketing": 5202,
      "110": 5203,
      "kyrgyzstan": 5204,
      "neighbor": 5205,
      "cers": 5206,
      "servers": 5207,
      "sergey": 5208,
      "facts": 5209,
      "ule": 5210,
      "rum": 5211,
      "remote": 5212,
      "becoming": 5213,
      "rab": 5214,
      "hev": 5215,
      "roof": 5216,
      "brain": 5217,
      "instant": 5218,
      "japanese": 5219,
      "pros": 5220,
      "vine": 5221,
      "inations": 5222,
      "midst": 5223,
      "definite": 5224,
      "unfortun": 5225,
      "wave": 5226,
      "background": 5227,
      "plus": 5228,
      "mainly": 5229,
      "remove": 5230,
      "professor": 5231,
      "800": 5232,
      "package": 5233,
      "kne": 5234,
      "tack": 5235,
      "kansas": 5236,
      "divided": 5237,
      "aktobe": 5238,
      "thereof": 5239,
      "icious": 5240,
      "stret": 5241,
      "intellectual": 5242,
      "sacrif": 5243,
      "irt": 5244,
      "sion": 5245,
      "vul": 5246,
      "empty": 5247,
      "shore": 5248,
      "carrying": 5249,
      "wound": 5250,
      "focused": 5251,
      "approval": 5252,
      "bringing": 5253,
      "amazing": 5254,
      "shout": 5255,
      "uzbek": 5256,
      "dad": 5257,
      "moral": 5258,
      "humanitarian": 5259,
      "korea": 5260,
      "prove": 5261,
      "apest": 5262,
      "bish": 5263,
      "peg": 5264,
      "otic": 5265,
      "fare": 5266,
      "isation": 5267,
      "ojsc": 5268,
      "iya": 5269,
      "inspe": 5270,
      "hero": 5271,
      "asking": 5272,
      "bapt": 5273,
      "worthy": 5274,
      "mg": 5275,
      "architecture": 5276,
      "techni": 5277,
      "dc": 5278,
      "overall": 5279,
      "lessons": 5280,
      "rural": 5281,
      "confirm": 5282,
      "phoenix": 5283,
      "enable": 5284,
      "fulfill": 5285,
      "engaged": 5286,
      "akov": 5287,
      "viewtopic": 5288,
      "translation": 5289,
      "defence": 5290,
      "challenge": 5291,
      "ethnic": 5292,
      "icing": 5293,
      "detailed": 5294,
      "extraordinary": 5295,
      "myster": 5296,
      "houston": 5297,
      "imagine": 5298,
      "sovere": 5299,
      "mln": 5300,
      "sovereign": 5301,
      "oured": 5302,
      "->": 5303,
      "sarg": 5304,
      "banking": 5305,
      "initial": 5306,
      "rem": 5307,
      "consolid": 5308,
      "straw": 5309,
      "achievements": 5310,
      "script": 5311,
      "104": 5312,
      "reless": 5313,
      "taught": 5314,
      "yu": 5315,
      "videos": 5316,
      "contrary": 5317,
      "olympic": 5318,
      "division": 5319,
      "animal": 5320,
      "declaration": 5321,
      "atom": 5322,
      "consequences": 5323,
      "revealed": 5324,
      "letters": 5325,
      "flag": 5326,
      "ava": 5327,
      "stuff": 5328,
      "nachte": 5329,
      "gul": 5330,
      "collective": 5331,
      "wireless": 5332,
      "smoking": 5333,
      "blessed": 5334,
      "enforce": 5335,
      "phen": 5336,
      "motor": 5337,
      "helps": 5338,
      "finnish": 5339,
      "bic": 5340,
      "deputies": 5341,
      "exception": 5342,
      "greece": 5343,
      "lunch": 5344,
      "dance": 5345,
      "kas": 5346,
      "soil": 5347,
      "hole": 5348,
      "destroyed": 5349,
      "awarded": 5350,
      "ec": 5351,
      "whis": 5352,
      "primarily": 5353,
      "theme": 5354,
      "previously": 5355,
      "cheap": 5356,
      "kit": 5357,
      "properties": 5358,
      "realization": 5359,
      "pin": 5360,
      "itate": 5361,
      "stairs": 5362,
      "aids": 5363,
      "bure": 5364,
      "arest": 5365,
      "depending": 5366,
      "fingers": 5367,
      "kids": 5368,
      "iction": 5369,
      "consumption": 5370,
      "strike": 5371,
      "loud": 5372,
      "chi": 5373,
      "appeal": 5374,
      "confident": 5375,
      "concern": 5376,
      "queen": 5377,
      "compli": 5378,
      "ictions": 5379,
      "expansion": 5380,
      "grave": 5381,
      "commanded": 5382,
      "terrorist": 5383,
      "vas": 5384,
      "ppi": 5385,
      "damage": 5386,
      "ray": 5387,
      "incident": 5388,
      "ump": 5389,
      "consideration": 5390,
      "precise": 5391,
      "menu": 5392,
      "defender": 5393,
      "devoted": 5394,
      "vary": 5395,
      "gods": 5396,
      "souls": 5397,
      "eper": 5398,
      "sag": 5399,
      "aps": 5400,
      "tube": 5401,
      "ented": 5402,
      "braz": 5403,
      "surely": 5404,
      "provin": 5405,
      "sciences": 5406,
      "<<": 5407,
      "dust": 5408,
      "investigation": 5409,
      "abra": 5410,
      "maxim": 5411,
      "behavi": 5412,
      "nose": 5413,
      "hardly": 5414,
      "stead": 5415,
      "fundamental": 5416,
      "pair": 5417,
      "requires": 5418,
      "sounds": 5419,
      "alternative": 5420,
      "beings": 5421,
      "upper": 5422,
      "cancellation": 5423,
      "iso": 5424,
      "dangerous": 5425,
      "1st": 5426,
      "santa": 5427,
      "orsk": 5428,
      "harm": 5429,
      "senate": 5430,
      "condem": 5431,
      "shy": 5432,
      "testing": 5433,
      "lips": 5434,
      "trem": 5435,
      "proposals": 5436,
      "latter": 5437,
      "employed": 5438,
      "dmit": 5439,
      "altar": 5440,
      "architect": 5441,
      "links": 5442,
      "gh": 5443,
      "munich": 5444,
      "onom": 5445,
      "mola": 5446,
      "ias": 5447,
      "hosts": 5448,
      "ola": 5449,
      "conclusion": 5450,
      "concluded": 5451,
      "ears": 5452,
      "scheduled": 5453,
      "missed": 5454,
      "nevertheless": 5455,
      "oce": 5456,
      "issi": 5457,
      "uran": 5458,
      "',": 5459,
      "falls": 5460,
      "haven": 5461,
      "ager": 5462,
      "cutting": 5463,
      "mast": 5464,
      "saul": 5465,
      "vitamins": 5466,
      "satellite": 5467,
      "evident": 5468,
      "icks": 5469,
      "solar": 5470,
      "bulgar": 5471,
      "ez": 5472,
      "datab": 5473,
      "onto": 5474,
      "holds": 5475,
      "cleaning": 5476,
      "gorod": 5477,
      "akmola": 5478,
      "shower": 5479,
      "objective": 5480,
      "shit": 5481,
      "slight": 5482,
      "shado": 5483,
      "scen": 5484,
      "palest": 5485,
      "integrated": 5486,
      "beast": 5487,
      "jail": 5488,
      "exclusive": 5489,
      "noise": 5490,
      "parad": 5491,
      "righteousness": 5492,
      "specialized": 5493,
      "unesco": 5494,
      "interior": 5495,
      "graphic": 5496,
      "mining": 5497,
      "aspects": 5498,
      "inated": 5499,
      "behalf": 5500,
      "veter": 5501,
      "cycle": 5502,
      "reconstruction": 5503,
      "stream": 5504,
      "sectors": 5505,
      "ep0": 5506,
      "governments": 5507,
      "coach": 5508,
      "feelings": 5509,
      "hydro": 5510,
      "ata": 5511,
      "awa": 5512,
      "reserves": 5513,
      "primary": 5514,
      "observed": 5515,
      "abraham": 5516,
      "krasno": 5517,
      "ili": 5518,
      "contribute": 5519,
      "conditioning": 5520,
      "cult": 5521,
      "jun": 5522,
      "rot": 5523,
      "tek": 5524,
      "balcon": 5525,
      "statistics": 5526,
      "lists": 5527,
      "happiness": 5528,
      "memorand": 5529,
      "aar": 5530,
      "chairs": 5531,
      "(\"\"\"\"": 5532,
      "respond": 5533,
      "academic": 5534,
      "evolution": 5535,
      "consumer": 5536,
      "eters": 5537,
      "relative": 5538,
      "lights": 5539,
      "accompl": 5540,
      "memorandum": 5541,
      "recognition": 5542,
      "vast": 5543,
      "foun": 5544,
      "entities": 5545,
      "cycl": 5546,
      "availability": 5547,
      "yard": 5548,
      "touched": 5549,
      "reliable": 5550,
      "filter": 5551,
      "shareholders": 5552,
      "quant": 5553,
      "peasants": 5554,
      "stones": 5555,
      "worldwide": 5556,
      "glor": 5557,
      "itzer": 5558,
      "entit": 5559,
      "matthe": 5560,
      "presid": 5561,
      "universities": 5562,
      "wheel": 5563,
      "honey": 5564,
      "chat": 5565,
      "australia": 5566,
      "breth": 5567,
      "football": 5568,
      "journalists": 5569,
      "brethren": 5570,
      "signs": 5571,
      "license": 5572,
      "ological": 5573,
      "api": 5574,
      "vegas": 5575,
      "tower": 5576,
      "vehicles": 5577,
      "revelation": 5578,
      "northern": 5579,
      "passion": 5580,
      "studio": 5581,
      "funding": 5582,
      "bury": 5583,
      "refu": 5584,
      "ette": 5585,
      "payments": 5586,
      "utter": 5587,
      "technological": 5588,
      "nev": 5589,
      "theory": 5590,
      "ology": 5591,
      "apostles": 5592,
      "expl": 5593,
      "perspect": 5594,
      "happens": 5595,
      "bin": 5596,
      "ivir": 5597,
      "forever": 5598,
      "healthy": 5599,
      "magn": 5600,
      "authors": 5601,
      "beating": 5602,
      "sets": 5603,
      "voters": 5604,
      "categor": 5605,
      "bom": 5606,
      "vor": 5607,
      "factors": 5608,
      "watching": 5609,
      "hurt": 5610,
      "scarlett": 5611,
      "entirely": 5612,
      "kilomet": 5613,
      "masses": 5614,
      "overcome": 5615,
      "turkmenistan": 5616,
      "trib": 5617,
      "figures": 5618,
      "beside": 5619,
      "subsequ": 5620,
      "passing": 5621,
      "headed": 5622,
      "mississi": 5623,
      "believes": 5624,
      "gdp": 5625,
      "tables": 5626,
      "ches": 5627,
      "mississippi": 5628,
      "zes": 5629,
      "croatia": 5630,
      "jam": 5631,
      "luxury": 5632,
      "refuge": 5633,
      "oppos": 5634,
      "marry": 5635,
      "yar": 5636,
      "apparent": 5637,
      "reduction": 5638,
      "wicked": 5639,
      "gained": 5640,
      "thirty": 5641,
      "matthew": 5642,
      "follows": 5643,
      "risks": 5644,
      "crm": 5645,
      "answers": 5646,
      "toler": 5647,
      "password": 5648,
      "involve": 5649,
      "managing": 5650,
      "gan": 5651,
      "iders": 5652,
      "123": 5653,
      "channel": 5654,
      "antivir": 5655,
      "shel": 5656,
      "dates": 5657,
      "hai": 5658,
      "telling": 5659,
      "improved": 5660,
      "championship": 5661,
      "chis": 5662,
      "humanity": 5663,
      "818": 5664,
      "advertising": 5665,
      "artist": 5666,
      "failure": 5667,
      "proved": 5668,
      "switzer": 5669,
      "inhabitants": 5670,
      "kir": 5671,
      "beij": 5672,
      "yield": 5673,
      "switzerland": 5674,
      "cart": 5675,
      "smooth": 5676,
      "athe": 5677,
      "tong": 5678,
      "insul": 5679,
      "aside": 5680,
      "abs": 5681,
      "majilis": 5682,
      "fan": 5683,
      "shes": 5684,
      "shape": 5685,
      "anton": 5686,
      "disease": 5687,
      "starts": 5688,
      "shif": 5689,
      "db": 5690,
      "jord": 5691,
      "facing": 5692,
      "constantly": 5693,
      "forgive": 5694,
      "represented": 5695,
      "procedures": 5696,
      "beijing": 5697,
      "suppose": 5698,
      "courts": 5699,
      "celebrities": 5700,
      "magazine": 5701,
      "grown": 5702,
      "bolshevi": 5703,
      "lev": 5704,
      "pher": 5705,
      "tags": 5706,
      "cin": 5707,
      "ivan": 5708,
      "winning": 5709,
      "helsink": 5710,
      "bureau": 5711,
      "mik": 5712,
      "tears": 5713,
      "handle": 5714,
      "antivirus": 5715,
      "biggest": 5716,
      "106": 5717,
      "appears": 5718,
      "recommendations": 5719,
      "ito": 5720,
      "elev": 5721,
      "ories": 5722,
      "interaction": 5723,
      "christmas": 5724,
      "upcoming": 5725,
      "disput": 5726,
      "fant": 5727,
      "inner": 5728,
      "igno": 5729,
      "shoes": 5730,
      "diagno": 5731,
      "igor": 5732,
      "suffering": 5733,
      "viewing": 5734,
      "situations": 5735,
      "austria": 5736,
      "navig": 5737,
      "aked": 5738,
      "developments": 5739,
      "competitive": 5740,
      "critical": 5741,
      "helsinki": 5742,
      "lod": 5743,
      "princess": 5744,
      "reserve": 5745,
      "songs": 5746,
      "doub": 5747,
      "immediate": 5748,
      "knight": 5749,
      "supporting": 5750,
      "<!": 5751,
      "cked": 5752,
      "finger": 5753,
      "forums": 5754,
      "towel": 5755,
      "colors": 5756,
      "bourgeoisie": 5757,
      "fab": 5758,
      "oreg": 5759,
      "oli": 5760,
      "directed": 5761,
      "charges": 5762,
      "orange": 5763,
      "vibr": 5764,
      "route": 5765,
      "pac": 5766,
      "diseas": 5767,
      "losing": 5768,
      "azy": 5769,
      "temperature": 5770,
      "rated": 5771,
      "autom": 5772,
      "anyway": 5773,
      "sargsyan": 5774,
      "diam": 5775,
      "demands": 5776,
      "hr": 5777,
      "branches": 5778,
      "**(*****)": 5779,
      "prosper": 5780,
      "tun": 5781,
      "candle": 5782,
      "ticket": 5783,
      "album": 5784,
      "defined": 5785,
      "tatar": 5786,
      "senior": 5787,
      "switch": 5788,
      "convenient": 5789,
      "miratechgroup": 5790,
      "kyzy": 5791,
      "mistakes": 5792,
      "slowly": 5793,
      "reci": 5794,
      "networks": 5795,
      "107": 5796,
      "protected": 5797,
      "authorized": 5798,
      "gart": 5799,
      "enforcement": 5800,
      "oregon": 5801,
      "bought": 5802,
      "sleeping": 5803,
      "dep": 5804,
      "yourselves": 5805,
      "tonight": 5806,
      "judicial": 5807,
      "reign": 5808,
      "prev": 5809,
      "prophets": 5810,
      "anx": 5811,
      "proposal": 5812,
      "uzbekistan": 5813,
      "ause": 5814,
      "southern": 5815,
      "oring": 5816,
      "prohib": 5817,
      "yours": 5818,
      "ride": 5819,
      "crimes": 5820,
      "split": 5821,
      "newly": 5822,
      "pian": 5823,
      "archived": 5824,
      "attribut": 5825,
      "acht": 5826,
      "college": 5827,
      "multiple": 5828,
      "honest": 5829,
      "unfortunately": 5830,
      "hin": 5831,
      "determine": 5832,
      "delay": 5833,
      "pcrm": 5834,
      "sending": 5835,
      "afternoon": 5836,
      "dropped": 5837,
      "gratitude": 5838,
      "::::": 5839,
      "respective": 5840,
      "hide": 5841,
      "apped": 5842,
      "newspaper": 5843,
      "falling": 5844,
      "lor": 5845,
      "stup": 5846,
      "visual": 5847,
      "fright": 5848,
      "engage": 5849,
      "recognize": 5850,
      "ender": 5851,
      "pression": 5852,
      "aska": 5853,
      "bare": 5854,
      "spite": 5855,
      "caucas": 5856,
      "completion": 5857,
      "inau": 5858,
      "neck": 5859,
      "eventually": 5860,
      "flowers": 5861,
      "panel": 5862,
      "minds": 5863,
      "artists": 5864,
      "teams": 5865,
      "tot": 5866,
      "driving": 5867,
      "communist": 5868,
      "experiences": 5869,
      "escape": 5870,
      "312": 5871,
      "warning": 5872,
      "decline": 5873,
      "invent": 5874,
      "threats": 5875,
      "models": 5876,
      "wedding": 5877,
      "preparing": 5878,
      "chase": 5879,
      "rental": 5880,
      "icts": 5881,
      "noticed": 5882,
      "umin": 5883,
      "prevention": 5884,
      "christians": 5885,
      "chisinau": 5886,
      "diseases": 5887,
      "embr": 5888,
      "helping": 5889,
      "closer": 5890,
      "iry": 5891,
      "ques": 5892,
      "consent": 5893,
      "fortune": 5894,
      "historic": 5895,
      "itable": 5896,
      "asy": 5897,
      "introduce": 5898,
      "pg": 5899,
      "described": 5900,
      "competit": 5901,
      "nutrient": 5902,
      "lex": 5903,
      "neighbour": 5904,
      "homes": 5905,
      "micha": 5906,
      "eria": 5907,
      "oma": 5908,
      "assessment": 5909,
      "compliance": 5910,
      "terrible": 5911,
      "businesses": 5912,
      "tort": 5913,
      "hundreds": 5914,
      "215": 5915,
      "ordered": 5916,
      "addressed": 5917,
      "patients": 5918,
      "solom": 5919,
      "leaves": 5920,
      "ovo": 5921,
      "careful": 5922,
      "placement": 5923,
      "royal": 5924,
      "dating": 5925,
      "compat": 5926,
      "inflation": 5927,
      "smell": 5928,
      "mood": 5929,
      "combat": 5930,
      "entitled": 5931,
      "producers": 5932,
      "mistake": 5933,
      "depth": 5934,
      "ror": 5935,
      "identity": 5936,
      "mous": 5937,
      "afford": 5938,
      "stands": 5939,
      "bitten": 5940,
      "angry": 5941,
      "polish": 5942,
      "construct": 5943,
      "andrew": 5944,
      "sis": 5945,
      "nether": 5946,
      "potent": 5947,
      "chick": 5948,
      "coat": 5949,
      "eaeu": 5950,
      "unable": 5951,
      "graphy": 5952,
      "priorities": 5953,
      "instruments": 5954,
      "granted": 5955,
      "agraph": 5956,
      "orge": 5957,
      "arkansas": 5958,
      "paradise": 5959,
      "illa": 5960,
      "iii": 5961,
      "faithful": 5962,
      "operational": 5963,
      "forgotten": 5964,
      "plate": 5965,
      "regn": 5966,
      "fifty": 5967,
      "cabin": 5968,
      "tickets": 5969,
      "machin": 5970,
      "supports": 5971,
      "theatre": 5972,
      "render": 5973,
      "paragraph": 5974,
      "cease": 5975,
      "ained": 5976,
      "discount": 5977,
      "inity": 5978,
      "migration": 5979,
      "obligations": 5980,
      "audience": 5981,
      "cure": 5982,
      "dining": 5983,
      "britain": 5984,
      "stages": 5985,
      "brazil": 5986,
      "inking": 5987,
      "tray": 5988,
      "threw": 5989,
      "initiatives": 5990,
      "lau": 5991,
      "schedule": 5992,
      "pup": 5993,
      "813": 5994,
      "remembered": 5995,
      "kt": 5996,
      "recommended": 5997,
      "expenses": 5998,
      "sacred": 5999,
      "20th": 6000,
      "legit": 6001,
      "reservation": 6002,
      "satisfied": 6003,
      "kak": 6004,
      "frag": 6005,
      "england": 6006,
      "jordan": 6007,
      "ccs": 6008,
      "struck": 6009,
      "refused": 6010,
      "aus": 6011,
      "mone": 6012,
      "determination": 6013,
      "lamb": 6014,
      "pir": 6015,
      "grounds": 6016,
      "municipal": 6017,
      "fate": 6018,
      "rare": 6019,
      "fered": 6020,
      "acks": 6021,
      "desc": 6022,
      "miles": 6023,
      "citing": 6024,
      "liberal": 6025,
      "330": 6026,
      "rer": 6027,
      "satisfaction": 6028,
      "bold": 6029,
      "gers": 6030,
      "judges": 6031,
      "inherit": 6032,
      "honour": 6033,
      "entertainment": 6034,
      "bc": 6035,
      "spirits": 6036,
      "dd": 6037,
      "publication": 6038,
      "parameters": 6039,
      "eds": 6040,
      "violations": 6041,
      "virtual": 6042,
      "nie": 6043,
      "aggress": 6044,
      "tsky": 6045,
      "preced": 6046,
      "privacy": 6047,
      "acquain": 6048,
      "adults": 6049,
      "pride": 6050,
      "https": 6051,
      "merely": 6052,
      "icians": 6053,
      "contracts": 6054,
      "blessing": 6055,
      "crowd": 6056,
      "lorda": 6057,
      "unions": 6058,
      "shine": 6059,
      "significantly": 6060,
      "instrument": 6061,
      "iam": 6062,
      "contemporary": 6063,
      "lifted": 6064,
      "dent": 6065,
      "prisoners": 6066,
      "arbit": 6067,
      "width": 6068,
      "kyzylorda": 6069,
      "machinery": 6070,
      "instance": 6071,
      "utah": 6072,
      "contacts": 6073,
      "rostov": 6074,
      "camera": 6075,
      "territorial": 6076,
      "decree": 6077,
      "315": 6078,
      "812": 6079,
      "oe": 6080,
      "retail": 6081,
      "sche": 6082,
      "shame": 6083,
      "compens": 6084,
      "depends": 6085,
      "700": 6086,
      "maid": 6087,
      "extent": 6088,
      "ltd": 6089,
      "hardware": 6090,
      "confess": 6091,
      "akim": 6092,
      "worlds": 6093,
      "obtained": 6094,
      "resource": 6095,
      "yt": 6096,
      "necessity": 6097,
      "organisations": 6098,
      "valuable": 6099,
      "copper": 6100,
      "infotek": 6101,
      "millions": 6102,
      "pul": 6103,
      "stake": 6104,
      "deposits": 6105,
      "bah": 6106,
      "icut": 6107,
      "discovered": 6108,
      "passport": 6109,
      "uli": 6110,
      "kinds": 6111,
      "signing": 6112,
      "praise": 6113,
      "disabled": 6114,
      "owners": 6115,
      "ika": 6116,
      "chron": 6117,
      "kol": 6118,
      "advantages": 6119,
      "concerns": 6120,
      "finite": 6121,
      "qualified": 6122,
      "fasc": 6123,
      "keys": 6124,
      "brid": 6125,
      "paral": 6126,
      "connecticut": 6127,
      "extended": 6128,
      "hang": 6129,
      "industries": 6130,
      "kbd": 6131,
      "revenue": 6132,
      "kul": 6133,
      "brus": 6134,
      "harmony": 6135,
      "eries": 6136,
      "alexe": 6137,
      "rod": 6138,
      "imov": 6139,
      "happening": 6140,
      "gel": 6141,
      "gran": 6142,
      "hello": 6143,
      "phy": 6144,
      "folk": 6145,
      "bars": 6146,
      "sha": 6147,
      "trend": 6148,
      "renewable": 6149,
      "george": 6150,
      "punch": 6151,
      "yon": 6152,
      "hub": 6153,
      "scene": 6154,
      "sacrifice": 6155,
      "ault": 6156,
      "rolling": 6157,
      "sanct": 6158,
      "jection": 6159,
      "rupt": 6160,
      "sher": 6161,
      "exec": 6162,
      "entrepreneur": 6163,
      "acted": 6164,
      "fifth": 6165,
      "balcony": 6166,
      "rey": 6167,
      "agro": 6168,
      "winner": 6169,
      "trends": 6170,
      "ey": 6171,
      "feast": 6172,
      "whoever": 6173,
      "udi": 6174,
      "corresponding": 6175,
      "lla": 6176,
      "assured": 6177,
      "visible": 6178,
      "cos": 6179,
      "greatly": 6180,
      "wished": 6181,
      "spheres": 6182,
      "oak": 6183,
      "claims": 6184,
      "categories": 6185,
      "ji": 6186,
      "insk": 6187,
      "201608": 6188,
      "discipl": 6189,
      "tam": 6190,
      "older": 6191,
      "pharm": 6192,
      "aza": 6193,
      "divers": 6194,
      "motiv": 6195,
      "/>": 6196,
      "aired": 6197,
      "app": 6198,
      "winners": 6199,
      "seeking": 6200,
      "begun": 6201,
      "portal": 6202,
      "autonom": 6203,
      "springs": 6204,
      "bigger": 6205,
      "kinder": 6206,
      "ingly": 6207,
      "deplo": 6208,
      "superi": 6209,
      "itz": 6210,
      "rising": 6211,
      "stim": 6212,
      "michael": 6213,
      "residential": 6214,
      "guaranteed": 6215,
      "appointment": 6216,
      "paint": 6217,
      "aaron": 6218,
      "plot": 6219,
      "arran": 6220,
      "dos": 6221,
      "combined": 6222,
      "acles": 6223,
      "rical": 6224,
      "pregn": 6225,
      "illegal": 6226,
      "converter": 6227,
      "reply": 6228,
      "tent": 6229,
      "holder": 6230,
      "acceler": 6231,
      "oted": 6232,
      "somebody": 6233,
      "headquarters": 6234,
      "murder": 6235,
      "keeps": 6236,
      "personality": 6237,
      "ocean": 6238,
      "''": 6239,
      "liked": 6240,
      "tsk": 6241,
      "restore": 6242,
      "computers": 6243,
      "yk": 6244,
      "refr": 6245,
      "complic": 6246,
      "participating": 6247,
      "practices": 6248,
      "perce": 6249,
      "objectives": 6250,
      "exhibitions": 6251,
      "league": 6252,
      "spacious": 6253,
      "opposite": 6254,
      "berlin": 6255,
      "facebook": 6256,
      "intention": 6257,
      "contrad": 6258,
      "wishes": 6259,
      "distric": 6260,
      "novgorod": 6261,
      "netherlands": 6262,
      "traditions": 6263,
      "legs": 6264,
      "rejo": 6265,
      "ensu": 6266,
      "fucking": 6267,
      "rip": 6268,
      "assa": 6269,
      "vulner": 6270,
      "nan": 6271,
      "punishment": 6272,
      "districts": 6273,
      "suppli": 6274,
      "execution": 6275,
      "eleg": 6276,
      "cot": 6277,
      "typ": 6278,
      "discussions": 6279,
      "!\"\"\"\"\"\"\"": 6280,
      "stupid": 6281,
      "tatarstan": 6282,
      "voc": 6283,
      "mini": 6284,
      "ux": 6285,
      "asha": 6286,
      "centur": 6287,
      "larger": 6288,
      "considering": 6289,
      "manifest": 6290,
      "815": 6291,
      "isms": 6292,
      "versions": 6293,
      "modified": 6294,
      "gmt": 6295,
      "unknown": 6296,
      "explan": 6297,
      "westchester": 6298,
      "kick": 6299,
      "chant": 6300,
      "js": 6301,
      "renov": 6302,
      "rence": 6303,
      "498": 6304,
      "fers": 6305,
      "lip": 6306,
      "surprised": 6307,
      "seats": 6308,
      "1999": 6309,
      "holidays": 6310,
      "tired": 6311,
      "burned": 6312,
      "faster": 6313,
      "wan": 6314,
      "refin": 6315,
      "aven": 6316,
      "intens": 6317,
      "shouldn": 6318,
      "leads": 6319,
      "oo": 6320,
      "bulgaria": 6321,
      "continent": 6322,
      "marx": 6323,
      "professionals": 6324,
      "transferred": 6325,
      "throne": 6326,
      "ivanov": 6327,
      "constructed": 6328,
      "repent": 6329,
      "hungary": 6330,
      "oned": 6331,
      "lined": 6332,
      "releases": 6333,
      "icted": 6334,
      "ros": 6335,
      "ifies": 6336,
      "colour": 6337,
      "sought": 6338,
      "encour": 6339,
      "ora": 6340,
      "speaker": 6341,
      "jury": 6342,
      "leban": 6343,
      "aband": 6344,
      "cargo": 6345,
      "817": 6346,
      "anne": 6347,
      "reward": 6348,
      "forty": 6349,
      "theyre": 6350,
      "strip": 6351,
      "poll": 6352,
      "encourage": 6353,
      "organize": 6354,
      "daughters": 6355,
      "settled": 6356,
      "definitely": 6357,
      "oul": 6358,
      "stig": 6359,
      "facility": 6360,
      "perm": 6361,
      "101": 6362,
      "operator": 6363,
      "iously": 6364,
      "churches": 6365,
      "kat": 6366,
      "sts": 6367,
      "conscience": 6368,
      "abil": 6369,
      "mond": 6370,
      "athlet": 6371,
      "selecting": 6372,
      "latin": 6373,
      "plane": 6374,
      "crown": 6375,
      "kn": 6376,
      "inate": 6377,
      "breaking": 6378,
      "moroc": 6379,
      "fence": 6380,
      "ero": 6381,
      "rath": 6382,
      "remaining": 6383,
      "pill": 6384,
      "underground": 6385,
      "expectations": 6386,
      "audit": 6387,
      "wiki": 6388,
      "adequ": 6389,
      "messeng": 6390,
      "stories": 6391,
      "automatic": 6392,
      "presidency": 6393,
      "arez": 6394,
      "interpret": 6395,
      "bitter": 6396,
      "towns": 6397,
      "supervis": 6398,
      "onel": 6399,
      "2018": 6400,
      "hail": 6401,
      "ladies": 6402,
      "lya": 6403,
      "pel": 6404,
      "norm": 6405,
      "ulations": 6406,
      "equity": 6407,
      "commitment": 6408,
      "leap": 6409,
      "kazmun": 6410,
      "narrow": 6411,
      "recall": 6412,
      "reaction": 6413,
      "util": 6414,
      "liar": 6415,
      "opol": 6416,
      "brings": 6417,
      "seriously": 6418,
      "nevada": 6419,
      "tap": 6420,
      "201405": 6421,
      "217": 6422,
      "usb": 6423,
      "manual": 6424,
      "combination": 6425,
      "sv": 6426,
      "enn": 6427,
      "gling": 6428,
      "superior": 6429,
      "luc": 6430,
      "permit": 6431,
      "brush": 6432,
      "tennis": 6433,
      "broadcast": 6434,
      "database": 6435,
      "fy": 6436,
      "extensive": 6437,
      "subjects": 6438,
      "intim": 6439,
      "smoke": 6440,
      "youtube": 6441,
      "toile": 6442,
      "rob": 6443,
      "bun": 6444,
      "kan": 6445,
      "forgiven": 6446,
      "ache": 6447,
      "carbon": 6448,
      "characteristics": 6449,
      "excuse": 6450,
      "vet": 6451,
      "trotsky": 6452,
      "entering": 6453,
      "acquis": 6454,
      "plastic": 6455,
      "attempts": 6456,
      "flies": 6457,
      "maria": 6458,
      "www1": 6459,
      "sharp": 6460,
      "inth": 6461,
      "allies": 6462,
      "creator": 6463,
      "luke": 6464,
      "347": 6465,
      "hills": 6466,
      "dak": 6467,
      "listening": 6468,
      "214": 6469,
      "nels": 6470,
      "vitamin": 6471,
      "310239": 6472,
      "collaboration": 6473,
      "216": 6474,
      "brown": 6475,
      "fallen": 6476,
      "201405310239": 6477,
      "20140531023911": 6478,
      "loader": 6479,
      "occupied": 6480,
      "possibilities": 6481,
      "!\"\"\"": 6482,
      "aircraft": 6483,
      "arrested": 6484,
      "solomon": 6485,
      "2nd": 6486,
      "ima": 6487,
      "treated": 6488,
      "ert": 6489,
      "secondary": 6490,
      "iring": 6491,
      "trail": 6492,
      "busy": 6493,
      "kindergart": 6494,
      "cia": 6495,
      "slo": 6496,
      "kzt": 6497,
      "ole": 6498,
      "default": 6499,
      "tackle": 6500,
      "oct": 6501,
      "gag": 6502,
      "pak": 6503,
      "slov": 6504,
      "strict": 6505,
      "zham": 6506,
      "feels": 6507,
      "endar": 6508,
      "penny": 6509,
      "mechanism": 6510,
      "alleg": 6511,
      "hence": 6512,
      "severe": 6513,
      "bec": 6514,
      "taxes": 6515,
      "significance": 6516,
      "cig": 6517,
      "clothing": 6518,
      "principal": 6519,
      "stalin": 6520,
      "fc": 6521,
      "wc": 6522,
      "collected": 6523,
      "evers": 6524,
      "peasant": 6525,
      "225": 6526,
      "oppon": 6527,
      "membership": 6528,
      "appreciate": 6529,
      "arov": 6530,
      "buff": 6531,
      "mostly": 6532,
      "absence": 6533,
      "advertise": 6534,
      "yev": 6535,
      "mortal": 6536,
      "iven": 6537,
      "string": 6538,
      "operators": 6539,
      "nap": 6540,
      "hem": 6541,
      "agu": 6542,
      "hip": 6543,
      "chal": 6544,
      "records": 6545,
      "borders": 6546,
      "niz": 6547,
      "minim": 6548,
      "assem": 6549,
      "acquired": 6550,
      "rio": 6551,
      "hitting": 6552,
      "argent": 6553,
      "adventure": 6554,
      "afterwards": 6555,
      "thinks": 6556,
      "smith": 6557,
      "respectively": 6558,
      "yards": 6559,
      "ald": 6560,
      "patch": 6561,
      "reck": 6562,
      "grind": 6563,
      "pulling": 6564,
      "natur": 6565,
      "listed": 6566,
      "greek": 6567,
      "wake": 6568,
      "conserv": 6569,
      "sem": 6570,
      "actor": 6571,
      "prelim": 6572,
      "declined": 6573,
      "diction": 6574,
      "shap": 6575,
      "papers": 6576,
      "provider": 6577,
      "angels": 6578,
      "jar": 6579,
      "haw": 6580,
      "stronger": 6581,
      "sexual": 6582,
      "renet": 6583,
      "kazakhstani": 6584,
      "runs": 6585,
      "budapest": 6586,
      "totally": 6587,
      "tone": 6588,
      "inev": 6589,
      "deciding": 6590,
      "suffered": 6591,
      "manufacturers": 6592,
      "organizing": 6593,
      "preach": 6594,
      "kia": 6595,
      "chose": 6596,
      "essence": 6597,
      "commander": 6598,
      "attractive": 6599,
      "romania": 6600,
      "difficulties": 6601,
      "crimea": 6602,
      "847": 6603,
      "rass": 6604,
      "vian": 6605,
      "adap": 6606,
      "kel": 6607,
      "lasting": 6608,
      "aco": 6609,
      "afts": 6610,
      "visits": 6611,
      "enh": 6612,
      "departure": 6613,
      "circle": 6614,
      "bis": 6615,
      "enna": 6616,
      "unte": 6617,
      "gis": 6618,
      "tran": 6619,
      "causes": 6620,
      "witnesses": 6621,
      "tourists": 6622,
      "furthermore": 6623,
      "occurred": 6624,
      "philosophy": 6625,
      "config": 6626,
      "believers": 6627,
      "trained": 6628,
      "accum": 6629,
      "fishing": 6630,
      "francis": 6631,
      "220": 6632,
      "zion": 6633,
      "emper": 6634,
      "313": 6635,
      "ctr": 6636,
      "balan": 6637,
      "sentence": 6638,
      "native": 6639,
      "pocket": 6640,
      "desired": 6641,
      "nb": 6642,
      "eno": 6643,
      "ende": 6644,
      "bye": 6645,
      "porters": 6646,
      "belg": 6647,
      "nick": 6648,
      "sauna": 6649,
      "clam": 6650,
      "television": 6651,
      "lean": 6652,
      "literature": 6653,
      "convinced": 6654,
      "voltai": 6655,
      "handed": 6656,
      "surrounded": 6657,
      "voltairenet": 6658,
      "unavoid": 6659,
      "prus": 6660,
      "108": 6661,
      "fulfilled": 6662,
      "invitation": 6663,
      "asset": 6664,
      "istc": 6665,
      "ipod": 6666,
      "vital": 6667,
      "ireland": 6668,
      "arrive": 6669,
      "birthday": 6670,
      "caucasus": 6671,
      "anywhere": 6672,
      "pmwiki": 6673,
      "naments": 6674,
      "slovak": 6675,
      "tact": 6676,
      "zi": 6677,
      "inno": 6678,
      "visiting": 6679,
      "ience": 6680,
      "kut": 6681,
      "dule": 6682,
      "lawyer": 6683,
      "cies": 6684,
      "tig": 6685,
      "everywhere": 6686,
      "golf": 6687,
      "competitions": 6688,
      "vehicle": 6689,
      "acquainted": 6690,
      "insist": 6691,
      "villages": 6692,
      "begins": 6693,
      "duties": 6694,
      "crazy": 6695,
      "wilder": 6696,
      "invite": 6697,
      "agr": 6698,
      "whol": 6699,
      "personally": 6700,
      "lam": 6701,
      "admitted": 6702,
      "princes": 6703,
      "testim": 6704,
      "guarantees": 6705,
      "batt": 6706,
      "enhan": 6707,
      "accompan": 6708,
      "umn": 6709,
      "preliminary": 6710,
      "ingu": 6711,
      "adoption": 6712,
      "],": 6713,
      "wet": 6714,
      "indian": 6715,
      "drinking": 6716,
      "pavlo": 6717,
      "columbia": 6718,
      "deploy": 6719,
      "turns": 6720,
      "nover": 6721,
      "clust": 6722,
      "spare": 6723,
      "babylon": 6724,
      "gradually": 6725,
      "314": 6726,
      "emotion": 6727,
      "pig": 6728,
      "shake": 6729,
      "itement": 6730,
      "driven": 6731,
      "increases": 6732,
      "admit": 6733,
      "compass": 6734,
      "obama": 6735,
      "closely": 6736,
      "ruk": 6737,
      "207": 6738,
      "observe": 6739,
      "dale": 6740,
      "maje": 6741,
      "cdata": 6742,
      "rhe": 6743,
      "ordination": 6744,
      "implementing": 6745,
      "damn": 6746,
      "stir": 6747,
      "rades": 6748,
      "419": 6749,
      "bits": 6750,
      "module": 6751,
      "sov": 6752,
      "ila": 6753,
      "regardless": 6754,
      "integrity": 6755,
      "<![": 6756,
      "exploration": 6757,
      "ern": 6758,
      "referred": 6759,
      "coalition": 6760,
      "holoc": 6761,
      "illo": 6762,
      "soever": 6763,
      "isi": 6764,
      "shr": 6765,
      "disk": 6766,
      "closure": 6767,
      "wont": 6768,
      "favorite": 6769,
      "cec": 6770,
      "sharing": 6771,
      "spilled": 6772,
      "fled": 6773,
      "elevator": 6774,
      "flights": 6775,
      "obviously": 6776,
      "alco": 6777,
      "logistics": 6778,
      "component": 6779,
      "phenom": 6780,
      "intent": 6781,
      "reporting": 6782,
      "centuries": 6783,
      "holocaust": 6784,
      "emiss": 6785,
      "267": 6786,
      "sav": 6787,
      "classic": 6788,
      "meanwhile": 6789,
      "903": 6790,
      "guid": 6791,
      "commissions": 6792,
      "dakota": 6793,
      "sheet": 6794,
      "heavens": 6795,
      "enhance": 6796,
      "614": 6797,
      "doctors": 6798,
      "directory": 6799,
      "urgent": 6800,
      "burst": 6801,
      "pavil": 6802,
      "vr": 6803,
      "azar": 6804,
      "backdoor": 6805,
      "deem": 6806,
      "comrades": 6807,
      "130": 6808,
      "isol": 6809,
      "103": 6810,
      "bonus": 6811,
      "memorial": 6812,
      "recon": 6813,
      "serzh": 6814,
      "empire": 6815,
      "trojand": 6816,
      "dynamic": 6817,
      "awards": 6818,
      "drill": 6819,
      "theo": 6820,
      "selling": 6821,
      "actors": 6822,
      "propaganda": 6823,
      "cycling": 6824,
      "reput": 6825,
      "aims": 6826,
      "aqu": 6827,
      "opera": 6828,
      "circles": 6829,
      "pover": 6830,
      "interface": 6831,
      "communities": 6832,
      "ucing": 6833,
      "productive": 6834,
      "weekend": 6835,
      "pace": 6836,
      "sten": 6837,
      "codes": 6838,
      "socialism": 6839,
      "wooden": 6840,
      "liability": 6841,
      "mankind": 6842,
      "somewhere": 6843,
      "transactions": 6844,
      "extremist": 6845,
      "gentlemen": 6846,
      "gross": 6847,
      "warrant": 6848,
      "pushing": 6849,
      "lening": 6850,
      "anian": 6851,
      "palestin": 6852,
      "suggested": 6853,
      "630": 6854,
      "ui": 6855,
      "lessly": 6856,
      "charles": 6857,
      "kyiv": 6858,
      "secution": 6859,
      "transit": 6860,
      "lesson": 6861,
      "colleague": 6862,
      "naturally": 6863,
      "iot": 6864,
      "wrath": 6865,
      "zhe": 6866,
      "adam": 6867,
      "workshop": 6868,
      "125": 6869,
      "studying": 6870,
      "cable": 6871,
      "phop": 6872,
      "dante": 6873,
      "creature": 6874,
      "baltic": 6875,
      "shadow": 6876,
      "?'": 6877,
      "transaction": 6878,
      "destination": 6879,
      "slightly": 6880,
      "applicable": 6881,
      "patience": 6882,
      "eph": 6883,
      "youve": 6884,
      "\"\"\"(": 6885,
      "worm": 6886,
      "carri": 6887,
      "guil": 6888,
      "watched": 6889,
      "hiphop": 6890,
      "andrey": 6891,
      "cathe": 6892,
      "stayed": 6893,
      "coup": 6894,
      "spending": 6895,
      "latvian": 6896,
      "obey": 6897,
      "hect": 6898,
      "solving": 6899,
      "moldovan": 6900,
      "recorded": 6901,
      "icon": 6902,
      "funny": 6903,
      "350": 6904,
      "iant": 6905,
      "pour": 6906,
      "malicious": 6907,
      "cnb": 6908,
      "ean": 6909,
      "wanna": 6910,
      "eda": 6911,
      "phara": 6912,
      "saudi": 6913,
      "simon": 6914,
      "celebration": 6915,
      "acceptable": 6916,
      "haust": 6917,
      "fees": 6918,
      "osset": 6919,
      "angeles": 6920,
      "bathrooms": 6921,
      "informs": 6922,
      "autumn": 6923,
      "commerce": 6924,
      "ura": 6925,
      "distingu": 6926,
      "vish": 6927,
      "advoc": 6928,
      "rapidly": 6929,
      "rough": 6930,
      "exhaust": 6931,
      "translate": 6932,
      "celebrate": 6933,
      "signal": 6934,
      "covering": 6935,
      "smaller": 6936,
      "violation": 6937,
      "monument": 6938,
      "arer": 6939,
      "prague": 6940,
      "obst": 6941,
      "missions": 6942,
      "sweden": 6943,
      "mms": 6944,
      "monte": 6945,
      "etch": 6946,
      "laboratory": 6947,
      "rade": 6948,
      "========": 6949,
      "oy": 6950,
      "pest": 6951,
      "cuis": 6952,
      "approaches": 6953,
      "mechanisms": 6954,
      "masters": 6955,
      "presents": 6956,
      "indicators": 6957,
      "pavlodar": 6958,
      "restoration": 6959,
      "harvest": 6960,
      "schol": 6961,
      "tongue": 6962,
      "713": 6963,
      "sible": 6964,
      "precious": 6965,
      "criticism": 6966,
      "slog": 6967,
      "hanging": 6968,
      "nearby": 6969,
      "prestig": 6970,
      "portfol": 6971,
      "connections": 6972,
      "abol": 6973,
      "essa": 6974,
      "establishing": 6975,
      "impression": 6976,
      "hatred": 6977,
      "equival": 6978,
      "leningrad": 6979,
      "volunte": 6980,
      "jin": 6981,
      "texts": 6982,
      "edia": 6983,
      "hosted": 6984,
      "sie": 6985,
      "arose": 6986,
      "represents": 6987,
      "refuse": 6988,
      "floors": 6989,
      "layer": 6990,
      "promoting": 6991,
      "sincere": 6992,
      "715": 6993,
      "wearing": 6994,
      "--------": 6995,
      "796": 6996,
      "owned": 6997,
      "bearing": 6998,
      "gentleman": 6999,
      "gery": 7000,
      "pense": 7001,
      "lugg": 7002,
      "citizenship": 7003,
      "\"\"\"-": 7004,
      "household": 7005,
      "accompanied": 7006,
      "nest": 7007,
      "differences": 7008,
      "addresses": 7009,
      "affil": 7010,
      "fao": 7011,
      "404": 7012,
      "uncle": 7013,
      "olas": 7014,
      "ulous": 7015,
      "choos": 7016,
      "805": 7017,
      "ropes": 7018,
      "1998": 7019,
      "calendar": 7020,
      "tender": 7021,
      "examples": 7022,
      "703": 7023,
      "experiment": 7024,
      "320": 7025,
      "rehab": 7026,
      "ownloader": 7027,
      "monet": 7028,
      "trojandownloader": 7029,
      "meal": 7030,
      "tests": 7031,
      "perspective": 7032,
      "0000": 7033,
      "barri": 7034,
      "enjo": 7035,
      "emphasized": 7036,
      "nearest": 7037,
      "steal": 7038,
      "geneva": 7039,
      "tank": 7040,
      "lebanon": 7041,
      "eh": 7042,
      "atov": 7043,
      "channels": 7044,
      "responsib": 7045,
      "shining": 7046,
      "byl": 7047,
      "dervish": 7048,
      "terz": 7049,
      "karaganda": 7050,
      "insp": 7051,
      "cafe": 7052,
      "pn": 7053,
      "317": 7054,
      "rubles": 7055,
      "requests": 7056,
      "flood": 7057,
      "suspect": 7058,
      "emperor": 7059,
      "pharaoh": 7060,
      "gay": 7061,
      "shed": 7062,
      "109": 7063,
      "formal": 7064,
      "composition": 7065,
      "bron": 7066,
      "vacation": 7067,
      "rc": 7068,
      "authen": 7069,
      "thorough": 7070,
      "chest": 7071,
      "burnt": 7072,
      "enor": 7073,
      "160": 7074,
      "thunder": 7075,
      "entity": 7076,
      "aca": 7077,
      "neut": 7078,
      "colonel": 7079,
      "passenger": 7080,
      "comparison": 7081,
      "cathedr": 7082,
      "tie": 7083,
      "coverage": 7084,
      "nutrients": 7085,
      "nig": 7086,
      "pts": 7087,
      "nikov": 7088,
      "guidance": 7089,
      "cath": 7090,
      "\"\"\"\")": 7091,
      "001": 7092,
      "180": 7093,
      "identified": 7094,
      "tained": 7095,
      "!!!": 7096,
      "lamp": 7097,
      "unclean": 7098,
      "frequency": 7099,
      "simult": 7100,
      "osh": 7101,
      "aded": 7102,
      "ifications": 7103,
      "assigned": 7104,
      "sla": 7105,
      "frequently": 7106,
      "simultane": 7107,
      "512": 7108,
      "encing": 7109,
      "emen": 7110,
      "centres": 7111,
      "limits": 7112,
      "kommers": 7113,
      "programmes": 7114,
      "specify": 7115,
      "decreased": 7116,
      "assum": 7117,
      "estimated": 7118,
      "724": 7119,
      "eager": 7120,
      "sections": 7121,
      "arranged": 7122,
      "yers": 7123,
      "cosm": 7124,
      "paying": 7125,
      "possibly": 7126,
      "detention": 7127,
      "unavoidably": 7128,
      "213": 7129,
      "anybody": 7130,
      "flower": 7131,
      "rehabil": 7132,
      "novo": 7133,
      "loving": 7134,
      "ussr": 7135,
      "embar": 7136,
      "gues": 7137,
      "hurry": 7138,
      "accounting": 7139,
      "rein": 7140,
      "1997": 7141,
      "slip": 7142,
      "enthus": 7143,
      "shang": 7144,
      "cuisine": 7145,
      "ongoing": 7146,
      "remark": 7147,
      "sees": 7148,
      "voices": 7149,
      "euros": 7150,
      "palm": 7151,
      "dealing": 7152,
      "diets": 7153,
      "beer": 7154,
      "blank": 7155,
      "worker": 7156,
      "privile": 7157,
      "authentic": 7158,
      "828": 7159,
      "testament": 7160,
      "manufacturer": 7161,
      "&#": 7162,
      "gates": 7163,
      "aston": 7164,
      "studied": 7165,
      "juarez": 7166,
      "linked": 7167,
      "patriotic": 7168,
      "814": 7169,
      "generations": 7170,
      "horiz": 7171,
      "412": 7172,
      "khan": 7173,
      "thine": 7174,
      "adapt": 7175,
      "1990": 7176,
      "newspapers": 7177,
      "dies": 7178,
      "allowing": 7179,
      "divid": 7180,
      "staying": 7181,
      "resur": 7182,
      "wm": 7183,
      "identify": 7184,
      "copies": 7185,
      "laughed": 7186,
      "tournaments": 7187,
      "riding": 7188,
      "leis": 7189,
      "agents": 7190,
      "aints": 7191,
      "farms": 7192,
      "consulting": 7193,
      "+\"\"\"\";\"\"\"\"": 7194,
      "wages": 7195,
      "soldier": 7196,
      "apparently": 7197,
      "acquisition": 7198,
      "wilderness": 7199,
      "apy": 7200,
      "decrease": 7201,
      "precisely": 7202,
      "valent": 7203,
      "outdoor": 7204,
      "folder": 7205,
      "fault": 7206,
      "bee": 7207,
      "contrast": 7208,
      "kim": 7209,
      "ller": 7210,
      "gifts": 7211,
      "].": 7212,
      "powered": 7213,
      "plaza": 7214,
      "breast": 7215,
      "spots": 7216,
      "jumping": 7217,
      "dign": 7218,
      "sail": 7219,
      "colon": 7220,
      "knock": 7221,
      "dne": 7222,
      "raising": 7223,
      "listened": 7224,
      "encia": 7225,
      "arabia": 7226,
      "518": 7227,
      "ders": 7228,
      "exciting": 7229,
      "beloved": 7230,
      "112": 7231,
      "appar": 7232,
      "102": 7233,
      "stored": 7234,
      "announcement": 7235,
      "portfolio": 7236,
      "415": 7237,
      "cattle": 7238,
      "hd": 7239,
      "ipad": 7240,
      "memories": 7241,
      "530": 7242,
      "interrup": 7243,
      "burden": 7244,
      "845": 7245,
      "targets": 7246,
      "kok": 7247,
      "nad": 7248,
      "cyprus": 7249,
      "ranean": 7250,
      "scope": 7251,
      "cf": 7252,
      "highlight": 7253,
      "barrel": 7254,
      "contained": 7255,
      "wand": 7256,
      "creatures": 7257,
      "subscr": 7258,
      "passage": 7259,
      "bene": 7260,
      "aming": 7261,
      "llp": 7262,
      "killing": 7263,
      "punches": 7264,
      "itated": 7265,
      "poet": 7266,
      "awareness": 7267,
      "behavior": 7268,
      "leisure": 7269,
      "jas": 7270,
      "tha": 7271,
      "comed": 7272,
      "moments": 7273,
      "conflicts": 7274,
      "illust": 7275,
      "reducing": 7276,
      "younger": 7277,
      "multitude": 7278,
      "********": 7279,
      "plun": 7280,
      "pulled": 7281,
      "legitimate": 7282,
      "omas": 7283,
      "presidents": 7284,
      "addressing": 7285,
      "continuous": 7286,
      "pilot": 7287,
      "uly": 7288,
      "azz": 7289,
      "waited": 7290,
      "expensive": 7291,
      "continuing": 7292,
      "veterans": 7293,
      "poverty": 7294,
      "muk": 7295,
      "skaya": 7296,
      "consultations": 7297,
      "ounds": 7298,
      "mediter": 7299,
      "radical": 7300,
      "resolved": 7301,
      "bby": 7302,
      "sap": 7303,
      "species": 7304,
      "considerable": 7305,
      "conferences": 7306,
      "206": 7307,
      "uration": 7308,
      "opinions": 7309,
      "juni": 7310,
      "140": 7311,
      "casino": 7312,
      "premises": 7313,
      "biting": 7314,
      "318": 7315,
      "dare": 7316,
      "phones": 7317,
      "vessels": 7318,
      "repeat": 7319,
      "????": 7320,
      "218": 7321,
      "wy": 7322,
      "ighter": 7323,
      "documentation": 7324,
      "loun": 7325,
      "proportion": 7326,
      "attach": 7327,
      "monetary": 7328,
      "nich": 7329,
      "spils": 7330,
      "transform": 7331,
      "obed": 7332,
      "buried": 7333,
      "423": 7334,
      "huh": 7335,
      "massive": 7336,
      "guilty": 7337,
      ";\"\"\"": 7338,
      "dir": 7339,
      "llc": 7340,
      "sized": 7341,
      "weapon": 7342,
      "covers": 7343,
      "counsel": 7344,
      "governing": 7345,
      "909": 7346,
      "excess": 7347,
      "logic": 7348,
      "israeli": 7349,
      "province": 7350,
      "+)": 7351,
      "mud": 7352,
      "waves": 7353,
      "exists": 7354,
      "estimate": 7355,
      "ventspils": 7356,
      "pha": 7357,
      "trium": 7358,
      "topics": 7359,
      "promising": 7360,
      "amic": 7361,
      "plenty": 7362,
      "soviets": 7363,
      "mum": 7364,
      "losses": 7365,
      "ultimate": 7366,
      "iting": 7367,
      "metals": 7368,
      "exports": 7369,
      "pered": 7370,
      "economics": 7371,
      "smiled": 7372,
      "borrow": 7373,
      "ouse": 7374,
      "ascension": 7375,
      "bella": 7376,
      "rejected": 7377,
      "officially": 7378,
      "803": 7379,
      "hook": 7380,
      "714": 7381,
      "emma": 7382,
      "406": 7383,
      "turnover": 7384,
      "voy": 7385,
      "athletes": 7386,
      "savi": 7387,
      "cathedral": 7388,
      "subsequent": 7389,
      "silk": 7390,
      "obliged": 7391,
      "inquiry": 7392,
      "gov": 7393,
      "estonia": 7394,
      "survey": 7395,
      "siauli": 7396,
      "liberty": 7397,
      "phant": 7398,
      "bolsheviks": 7399,
      "mediterranean": 7400,
      "256": 7401,
      "satan": 7402,
      "effectively": 7403,
      "theast": 7404,
      "pled": 7405,
      "healthcare": 7406,
      "farmers": 7407,
      "departments": 7408,
      "bind": 7409,
      "nist": 7410,
      "whereas": 7411,
      "ruling": 7412,
      "belongs": 7413,
      "inheritance": 7414,
      "equivalent": 7415,
      "alia": 7416,
      "crack": 7417,
      "lovely": 7418,
      "sooner": 7419,
      "expertise": 7420,
      "responsibilities": 7421,
      "sugar": 7422,
      "323": 7423,
      "loves": 7424,
      "229": 7425,
      "declare": 7426,
      "dozen": 7427,
      "deeply": 7428,
      "brussels": 7429,
      "assault": 7430,
      "mity": 7431,
      "female": 7432,
      "canyon": 7433,
      "scenar": 7434,
      "creates": 7435,
      "reasonable": 7436,
      "adding": 7437,
      "commissioner": 7438,
      "regarded": 7439,
      "discrim": 7440,
      "musical": 7441,
      "monthly": 7442,
      "hopes": 7443,
      "indicated": 7444,
      "joining": 7445,
      "717": 7446,
      "jane": 7447,
      "belt": 7448,
      "phr": 7449,
      "blame": 7450,
      "passengers": 7451,
      "morocco": 7452,
      "*(****)": 7453,
      "tau": 7454,
      "prob": 7455,
      "707": 7456,
      "betray": 7457,
      "sorrow": 7458,
      "irs": 7459,
      "grate": 7460,
      "armenians": 7461,
      "cookies": 7462,
      "...\"\"\"": 7463,
      "achi": 7464,
      "mineral": 7465,
      "til": 7466,
      "levit": 7467,
      "boot": 7468,
      "organizers": 7469,
      "pets": 7470,
      "nod": 7471,
      "nebr": 7472,
      "brook": 7473,
      "desert": 7474,
      "pron": 7475,
      "supplies": 7476,
      "pressing": 7477,
      "bankas": 7478,
      "kam": 7479,
      "pad": 7480,
      "205": 7481,
      "doesnt": 7482,
      "cision": 7483,
      "thrown": 7484,
      "surrounding": 7485,
      "nerv": 7486,
      "installing": 7487,
      "guns": 7488,
      "618": 7489,
      "pent": 7490,
      "pine": 7491,
      "atyr": 7492,
      "nokia": 7493,
      "vienna": 7494,
      "lawyers": 7495,
      "distributed": 7496,
      "nebraska": 7497,
      "408": 7498,
      "hatch": 7499,
      "adays": 7500,
      "madrid": 7501,
      "maintaining": 7502,
      "faculty": 7503,
      "widely": 7504,
      "lithuanian": 7505,
      "zhambyl": 7506,
      "nowadays": 7507,
      "speaks": 7508,
      "407": 7509,
      "levin": 7510,
      "pov": 7511,
      "115": 7512,
      "tells": 7513,
      "circul": 7514,
      "movies": 7515,
      "1995": 7516,
      "identification": 7517,
      "hunger": 7518,
      "adjusted": 7519,
      "hack": 7520,
      "itter": 7521,
      "ilateral": 7522,
      "norway": 7523,
      "dens": 7524,
      "anymore": 7525,
      "1992": 7526,
      "prepayment": 7527,
      "publish": 7528,
      "pale": 7529,
      "omed": 7530,
      "quer": 7531,
      ":\"\"\"": 7532,
      "olic": 7533,
      "torture": 7534,
      "caution": 7535,
      "tast": 7536,
      "corn": 7537,
      "observers": 7538,
      "natasha": 7539,
      "lucky": 7540,
      "assistant": 7541,
      "belgium": 7542,
      "210": 7543,
      "bly": 7544,
      "atherine": 7545,
      "fought": 7546,
      "terminal": 7547,
      "vod": 7548,
      "carriage": 7549,
      "617": 7550,
      "possession": 7551,
      "whenever": 7552,
      "examination": 7553,
      "aunt": 7554,
      "hong": 7555,
      "ari": 7556,
      "youll": 7557,
      "bra": 7558,
      "distur": 7559,
      "gene": 7560,
      "antry": 7561,
      "sym": 7562,
      "solemn": 7563,
      "804": 7564,
      "flying": 7565,
      "coordination": 7566,
      "vik": 7567,
      "kilometers": 7568,
      "promises": 7569,
      "score": 7570,
      "dictator": 7571,
      "treasure": 7572,
      "806": 7573,
      "feb": 7574,
      "woods": 7575,
      "dread": 7576,
      "disabilities": 7577,
      "boro": 7578,
      "luggage": 7579,
      "230": 7580,
      "928": 7581,
      "restrictions": 7582,
      "3rd": 7583,
      "restored": 7584,
      "shoulders": 7585,
      "inent": 7586,
      "stops": 7587,
      "mour": 7588,
      "trig": 7589,
      "eping": 7590,
      "museums": 7591,
      "involvement": 7592,
      "919": 7593,
      "resolve": 7594,
      "shanghai": 7595,
      "laser": 7596,
      "elegant": 7597,
      "gol": 7598,
      "yur": 7599,
      "aii": 7600,
      "communicate": 7601,
      "advertisement": 7602,
      "zones": 7603,
      "typical": 7604,
      "prox": 7605,
      "accessible": 7606,
      "suspic": 7607,
      "856": 7608,
      "rand": 7609,
      "swi": 7610,
      "asle": 7611,
      "rehabilitation": 7612,
      "dispos": 7613,
      "mailbox": 7614,
      "purchased": 7615,
      "graduates": 7616,
      "dying": 7617,
      "exercis": 7618,
      "sau": 7619,
      "scat": 7620,
      "donetsk": 7621,
      "relationships": 7622,
      "institutional": 7623,
      "affili": 7624,
      "frames": 7625,
      "gray": 7626,
      "dimension": 7627,
      "918": 7628,
      "tiny": 7629,
      "surgery": 7630,
      "outcome": 7631,
      "properly": 7632,
      "lifting": 7633,
      "fis": 7634,
      "robert": 7635,
      "forbid": 7636,
      "shooting": 7637,
      "attached": 7638,
      "apostle": 7639,
      "iments": 7640,
      "corners": 7641,
      "competent": 7642,
      "slav": 7643,
      "ien": 7644,
      "expense": 7645,
      "parade": 7646,
      "wars": 7647,
      "cooking": 7648,
      "elders": 7649,
      "646": 7650,
      "agger": 7651,
      "printed": 7652,
      "duration": 7653,
      "bekov": 7654,
      "quantity": 7655,
      "405": 7656,
      "bast": 7657,
      "alous": 7658,
      "alexey": 7659,
      "asleep": 7660,
      "petrole": 7661,
      "garage": 7662,
      "innovations": 7663,
      "gical": 7664,
      "rust": 7665,
      "surve": 7666,
      "elder": 7667,
      "pecu": 7668,
      "josh": 7669,
      "jailbreak": 7670,
      "507": 7671,
      "img": 7672,
      "usage": 7673,
      "proceedings": 7674,
      "atyrau": 7675,
      "ducks": 7676,
      "dressed": 7677,
      "monaster": 7678,
      "petroleum": 7679,
      "tut": 7680,
      "icking": 7681,
      "simpli": 7682,
      "sanctions": 7683,
      "drove": 7684,
      "rag": 7685,
      "209": 7686,
      "backup": 7687,
      "suites": 7688,
      "expanded": 7689,
      "usive": 7690,
      "hag": 7691,
      "correction": 7692,
      "beaches": 7693,
      "fm": 7694,
      "dishes": 7695,
      "tm": 7696,
      "bicy": 7697,
      "kong": 7698,
      "conversion": 7699,
      "freely": 7700,
      "ikes": 7701,
      "iranian": 7702,
      "nikol": 7703,
      "monuments": 7704,
      "mystery": 7705,
      "dil": 7706,
      "megg": 7707,
      "cancer": 7708,
      "25th": 7709,
      "receip": 7710,
      "fifteen": 7711,
      "1994": 7712,
      "shots": 7713,
      "reaching": 7714,
      "513": 7715,
      "508": 7716,
      "503": 7717,
      "itative": 7718,
      "mental": 7719,
      "demanded": 7720,
      "catherine": 7721,
      "dj": 7722,
      "pants": 7723,
      "defeat": 7724,
      "ossetia": 7725,
      "igate": 7726,
      "crush": 7727,
      "electrical": 7728,
      "fixing": 7729,
      "rains": 7730,
      "strategy2050": 7731,
      "excited": 7732,
      "adequate": 7733,
      "guards": 7734,
      "seventh": 7735,
      "937": 7736,
      "pole": 7737,
      "peculiar": 7738,
      "dal": 7739,
      "ceo": 7740,
      "fans": 7741,
      "208": 7742,
      "siauliu": 7743,
      "guided": 7744,
      "tains": 7745,
      "smiling": 7746,
      "mechanical": 7747,
      "fred": 7748,
      "martin": 7749,
      "competitiveness": 7750,
      "convict": 7751,
      "laundry": 7752,
      "incred": 7753,
      "ati": 7754,
      "leather": 7755,
      "searching": 7756,
      "explore": 7757,
      "816": 7758,
      "bp": 7759,
      "unturned": 7760,
      "movements": 7761,
      "relief": 7762,
      "duma": 7763,
      "wire": 7764,
      "regret": 7765,
      "jew": 7766,
      "elab": 7767,
      "pays": 7768,
      "toilet": 7769,
      "704": 7770,
      "buying": 7771,
      "swing": 7772,
      "eurasia": 7773,
      "functioning": 7774,
      "technique": 7775,
      "706": 7776,
      "vc": 7777,
      "governance": 7778,
      "criteria": 7779,
      "pity": 7780,
      "charming": 7781,
      "strongly": 7782,
      "thread": 7783,
      "eric": 7784,
      "rolled": 7785,
      "cott": 7786,
      "ilham": 7787,
      "oven": 7788,
      "russians": 7789,
      "earned": 7790,
      "cuba": 7791,
      "expanding": 7792,
      "innocent": 7793,
      "bloc": 7794,
      "commod": 7795,
      "intend": 7796,
      "anskommers": 7797,
      "regularly": 7798,
      "adm": 7799,
      "newsin": 7800,
      "managers": 7801,
      "wich": 7802,
      "yna": 7803,
      "neo": 7804,
      "prizes": 7805,
      "caf": 7806,
      "jpg": 7807,
      "luk": 7808,
      "kek": 7809,
      "enjoyed": 7810,
      "tolerance": 7811,
      "uden": 7812,
      "gardens": 7813,
      "mixed": 7814,
      "plugin": 7815,
      "nizh": 7816,
      "followers": 7817,
      "effectiveness": 7818,
      "[/": 7819,
      "240": 7820,
      "496": 7821,
      "kindness": 7822,
      "specifically": 7823,
      "bent": 7824,
      "asser": 7825,
      "corrid": 7826,
      "dmitry": 7827,
      "shift": 7828,
      "boost": 7829,
      "contents": 7830,
      "favorable": 7831,
      "nye": 7832,
      "infinite": 7833,
      "procure": 7834,
      "medal": 7835,
      "regulatory": 7836,
      "proletarian": 7837,
      "prosperity": 7838,
      "relating": 7839,
      "wounded": 7840,
      "argentina": 7841,
      "plays": 7842,
      "communists": 7843,
      "cruel": 7844,
      "rings": 7845,
      "offshore": 7846,
      "violent": 7847,
      "zip": 7848,
      "doctr": 7849,
      "!!!!": 7850,
      "613": 7851,
      "khaz": 7852,
      "tours": 7853,
      "pens": 7854,
      "serving": 7855,
      "drunk": 7856,
      "input": 7857,
      "505": 7858,
      "615": 7859,
      "noble": 7860,
      "ivals": 7861,
      "peasantry": 7862,
      "shells": 7863,
      "francisco": 7864,
      "withdra": 7865,
      "certified": 7866,
      "publications": 7867,
      "closing": 7868,
      "participant": 7869,
      "laughing": 7870,
      "zero": 7871,
      "kazmunay": 7872,
      "theoret": 7873,
      "cb": 7874,
      "seminars": 7875,
      "excitement": 7876,
      "loose": 7877,
      "aryan": 7878,
      "transformation": 7879,
      "volunt": 7880,
      "confirmation": 7881,
      "shipping": 7882,
      "achievement": 7883,
      "gad": 7884,
      "rally": 7885,
      "uah": 7886,
      "escap": 7887,
      "tamp": 7888,
      "poster": 7889,
      "sabbath": 7890,
      "persu": 7891,
      "daniel": 7892,
      "samruk": 7893,
      "chickens": 7894,
      "reputation": 7895,
      "dlya": 7896,
      "hil": 7897,
      "aks": 7898,
      "isto": 7899,
      "sofa": 7900,
      "pom": 7901,
      "theater": 7902,
      "resu": 7903,
      "248": 7904,
      "ashamed": 7905,
      "tested": 7906,
      "zav": 7907,
      "bln": 7908,
      "hammad": 7909,
      "initiated": 7910,
      "trum": 7911,
      "cooper": 7912,
      "111": 7913,
      "harmon": 7914,
      "stein": 7915,
      "corrupt": 7916,
      "ell": 7917,
      "cock": 7918,
      "gregation": 7919,
      "collap": 7920,
      "609": 7921,
      "gorsk": 7922,
      "aria": 7923,
      "bike": 7924,
      "commissioned": 7925,
      "drugs": 7926,
      "oked": 7927,
      "bash": 7928,
      "porter": 7929,
      "belarusian": 7930,
      "yacht": 7931,
      "wives": 7932,
      "testimony": 7933,
      "tes": 7934,
      "deter": 7935,
      "discussing": 7936,
      "territories": 7937,
      "sung": 7938,
      "weekly": 7939,
      "hypo": 7940,
      "returns": 7941,
      "bottle": 7942,
      "entrepreneurship": 7943,
      "bones": 7944,
      "kamen": 7945,
      "wagon": 7946,
      "likewise": 7947,
      "guad": 7948,
      "supplied": 7949,
      "chemist": 7950,
      "metall": 7951,
      "fleet": 7952,
      "consistent": 7953,
      "sula": 7954,
      "cler": 7955,
      "mole": 7956,
      "holo": 7957,
      "spons": 7958,
      "civilization": 7959,
      "functional": 7960,
      "dun": 7961,
      "dia": 7962,
      "savings": 7963,
      "sessions": 7964,
      "itary": 7965,
      "arena": 7966,
      "grey": 7967,
      "shock": 7968,
      "distinct": 7969,
      "708": 7970,
      "deeds": 7971,
      "limb": 7972,
      "amounts": 7973,
      "757": 7974,
      "rog": 7975,
      "serves": 7976,
      "demons": 7977,
      "palestinian": 7978,
      "603": 7979,
      "stamp": 7980,
      "cruc": 7981,
      "skill": 7982,
      "cheese": 7983,
      "merc": 7984,
      "parameter": 7985,
      "explanation": 7986,
      "pavilion": 7987,
      "abank": 7988,
      "inton": 7989,
      "muslims": 7990,
      "isnt": 7991,
      "increasingly": 7992,
      "magnific": 7993,
      "kare": 7994,
      "vs": 7995,
      "abund": 7996,
      "pursue": 7997,
      "accurate": 7998,
      "routes": 7999,
      "eating": 8000,
      "vat": 8001,
      "energ": 8002,
      "perpet": 8003,
      "producing": 8004,
      "volga": 8005,
      "inating": 8006,
      "anticip": 8007,
      "rank": 8008,
      "accessories": 8009,
      "resurrection": 8010,
      "605": 8011,
      "maz": 8012,
      "phe": 8013,
      "rug": 8014,
      "nasb": 8015,
      "locked": 8016,
      "319": 8017,
      "exit": 8018,
      "uniform": 8019,
      "tees": 8020,
      "counts": 8021,
      "readiness": 8022,
      "ratio": 8023,
      "hectares": 8024,
      "vain": 8025,
      "andro": 8026,
      "auz": 8027,
      "crossed": 8028,
      "defic": 8029,
      "transparen": 8030,
      "preserve": 8031,
      "exped": 8032,
      "keeper": 8033,
      "intervention": 8034,
      "complicated": 8035,
      "pip": 8036,
      "seized": 8037,
      "gravity": 8038,
      "oz": 8039,
      "pitch": 8040,
      "productivity": 8041,
      "capitalist": 8042,
      "grateful": 8043,
      "kazmunaygas": 8044,
      "tram": 8045,
      "accred": 8046,
      "supervision": 8047,
      "replace": 8048,
      "replaced": 8049,
      "periods": 8050,
      "swiss": 8051,
      "ultimately": 8052,
      "psychological": 8053,
      "pakistan": 8054,
      "slovakia": 8055,
      "cheer": 8056,
      "alarm": 8057,
      "sevent": 8058,
      "prav": 8059,
      "236": 8060,
      "physics": 8061,
      "reveal": 8062,
      "sque": 8063,
      "instructed": 8064,
      "beaten": 8065,
      "triumph": 8066,
      "glan": 8067,
      "thereby": 8068,
      "rachel": 8069,
      "unlike": 8070,
      "ups": 8071,
      "conducting": 8072,
      "425": 8073,
      "sisters": 8074,
      "debate": 8075,
      "krasnodar": 8076,
      "sigh": 8077,
      "uted": 8078,
      "volumes": 8079,
      "denver": 8080,
      "wore": 8081,
      "titles": 8082,
      "believing": 8083,
      "417": 8084,
      "opard": 8085,
      "americ": 8086,
      "deliber": 8087,
      "reflected": 8088,
      "cinem": 8089,
      "pec": 8090,
      "shi": 8091,
      "adopt": 8092,
      "325": 8093,
      "nast": 8094,
      "william": 8095,
      "deny": 8096,
      "bishkek": 8097,
      "316": 8098,
      "gotta": 8099,
      "specialist": 8100,
      "african": 8101,
      "rambl": 8102,
      "alter": 8103,
      "melan": 8104,
      "spon": 8105,
      "employers": 8106,
      "nity": 8107,
      "escal": 8108,
      "wels": 8109,
      "lecture": 8110,
      "camel": 8111,
      "camps": 8112,
      "pse": 8113,
      "largely": 8114,
      "commandments": 8115,
      "219": 8116,
      "716": 8117,
      "raz": 8118,
      "orph": 8119,
      "deck": 8120,
      "agan": 8121,
      "ounce": 8122,
      "clubs": 8123,
      "choosing": 8124,
      "410": 8125,
      "aro": 8126,
      "ignor": 8127,
      "submission": 8128,
      "sample": 8129,
      "interpretation": 8130,
      "gle": 8131,
      "accused": 8132,
      "ungsten": 8133,
      "majesty": 8134,
      "joshua": 8135,
      "hebre": 8136,
      "337": 8137,
      "demonstrated": 8138,
      "wast": 8139,
      "assume": 8140,
      "attracted": 8141,
      "symbols": 8142,
      "pours": 8143,
      "oming": 8144,
      "1991": 8145,
      "pushed": 8146,
      "sian": 8147,
      "barking": 8148,
      "roadmap": 8149,
      "taxi": 8150,
      "panor": 8151,
      "doubted": 8152,
      "withdrawal": 8153,
      "metov": 8154,
      "outlook": 8155,
      "boards": 8156,
      "606": 8157,
      "712": 8158,
      "apol": 8159,
      "attain": 8160,
      "websites": 8161,
      "gagauz": 8162,
      "separated": 8163,
      "787": 8164,
      "brill": 8165,
      "aviation": 8166,
      "petrov": 8167,
      "offerings": 8168,
      "certificates": 8169,
      "techniques": 8170,
      "neutral": 8171,
      "disposal": 8172,
      "aland": 8173,
      "religions": 8174,
      "jurgis": 8175,
      "emissions": 8176,
      "413": 8177,
      "stylish": 8178,
      "somehow": 8179,
      "cured": 8180,
      "measuring": 8181,
      "pump": 8182,
      "rin": 8183,
      "mang": 8184,
      "organised": 8185,
      "preparations": 8186,
      "facilitate": 8187,
      "desper": 8188,
      "equally": 8189,
      "hungry": 8190,
      "pattern": 8191,
      "sqm": 8192,
      "evaluation": 8193,
      "517": 8194,
      "604": 8195,
      "xi": 8196,
      "dram": 8197,
      "graphical": 8198,
      "twi": 8199,
      "tum": 8200,
      "welfare": 8201,
      "victori": 8202,
      "korean": 8203,
      "nervous": 8204,
      "bone": 8205,
      "rear": 8206,
      "transparency": 8207,
      "enables": 8208,
      "ico": 8209,
      "seize": 8210,
      "crucial": 8211,
      "thed": 8212,
      "disco": 8213,
      "charity": 8214,
      "ugal": 8215,
      "measurement": 8216,
      "loyalty": 8217,
      "relatively": 8218,
      "intern": 8219,
      "clinic": 8220,
      "wto": 8221,
      "zhol": 8222,
      "quit": 8223,
      "viet": 8224,
      "singing": 8225,
      "extrem": 8226,
      "troubles": 8227,
      "flexible": 8228,
      "rows": 8229,
      "addy": 8230,
      "philist": 8231,
      "lag": 8232,
      "deals": 8233,
      "aret": 8234,
      "////": 8235,
      "signature": 8236,
      "madame": 8237,
      "refugees": 8238,
      "118": 8239,
      "denied": 8240,
      "509": 8241,
      "bou": 8242,
      "revis": 8243,
      "persist": 8244,
      "meggie": 8245,
      "nizhny": 8246,
      "openly": 8247,
      "motions": 8248,
      "nin": 8249,
      "goose": 8250,
      "scratch": 8251,
      "stretch": 8252,
      "fantastic": 8253,
      "435": 8254,
      "1996": 8255,
      "writes": 8256,
      "burgh": 8257,
      "drinks": 8258,
      "alpha": 8259,
      "partial": 8260,
      "missile": 8261,
      "valencia": 8262,
      "ception": 8263,
      "beneath": 8264,
      "450": 8265,
      "plenary": 8266,
      "horizon": 8267,
      "808": 8268,
      "uncertain": 8269,
      "ownership": 8270,
      "lum": 8271,
      "wings": 8272,
      "convey": 8273,
      "radiation": 8274,
      "kni": 8275,
      "naked": 8276,
      "chenko": 8277,
      "unified": 8278,
      "19th": 8279,
      "portra": 8280,
      "lounge": 8281,
      "zag": 8282,
      "seas": 8283,
      "downloads": 8284,
      "saints": 8285,
      "abkhaz": 8286,
      "fron": 8287,
      "worried": 8288,
      "ansk": 8289,
      "armies": 8290,
      "habits": 8291,
      "reminding": 8292,
      "estimates": 8293,
      "enormous": 8294,
      "tries": 8295,
      "spaces": 8296,
      "parks": 8297,
      "beneficial": 8298,
      "occupation": 8299,
      "fier": 8300,
      "wol": 8301,
      "filed": 8302,
      "departed": 8303,
      "sensitive": 8304,
      "shire": 8305,
      "permitted": 8306,
      "justified": 8307,
      "skiy": 8308,
      "linen": 8309,
      "alcohol": 8310,
      "mathem": 8311,
      "overview": 8312,
      "backs": 8313,
      "nurly": 8314,
      "inspection": 8315,
      "boats": 8316,
      "reserv": 8317,
      "ggling": 8318,
      "eties": 8319,
      "chances": 8320,
      "269": 8321,
      "manufactured": 8322,
      "athen": 8323,
      "ilee": 8324,
      "achieving": 8325,
      "noting": 8326,
      "cribe": 8327,
      "handling": 8328,
      "elephant": 8329,
      "instruction": 8330,
      "zhou": 8331,
      "ouds": 8332,
      "lighting": 8333,
      "picked": 8334,
      "impressive": 8335,
      "(*": 8336,
      "iki": 8337,
      "receipt": 8338,
      "polling": 8339,
      "representing": 8340,
      "504": 8341,
      "erson": 8342,
      "targeted": 8343,
      "evidently": 8344,
      "knife": 8345,
      "...)": 8346,
      "genu": 8347,
      "eec": 8348,
      "forgiveness": 8349,
      "refund": 8350,
      "clude": 8351,
      "ovich": 8352,
      "fears": 8353,
      "locations": 8354,
      "visitor": 8355,
      "romans": 8356,
      "miami": 8357,
      "maintained": 8358,
      "confront": 8359,
      "traged": 8360,
      "liby": 8361,
      "annually": 8362,
      "119": 8363,
      "727": 8364,
      "916": 8365,
      "lm": 8366,
      "pharise": 8367,
      "shepher": 8368,
      "demonstration": 8369,
      "830": 8370,
      "root": 8371,
      "kee": 8372,
      "dragon": 8373,
      "certification": 8374,
      "stuck": 8375,
      "mobil": 8376,
      "namely": 8377,
      "vili": 8378,
      "detect": 8379,
      "finishing": 8380,
      "photographs": 8381,
      "synago": 8382,
      "cluster": 8383,
      "cav": 8384,
      "flour": 8385,
      "glance": 8386,
      "samara": 8387,
      "whel": 8388,
      "resolutions": 8389,
      "heavenly": 8390,
      "substit": 8391,
      "keepers": 8392,
      "activists": 8393,
      "scand": 8394,
      "consumers": 8395,
      "ister": 8396,
      "washing": 8397,
      "suspend": 8398,
      "divisions": 8399,
      "consolidated": 8400,
      "722": 8401,
      "fisher": 8402,
      "lion": 8403,
      "tin": 8404,
      "alumin": 8405,
      "absor": 8406,
      "ministries": 8407,
      "denmark": 8408,
      "serbia": 8409,
      "meets": 8410,
      "earn": 8411,
      "committees": 8412,
      "simultaneously": 8413,
      "caspian": 8414,
      "madam": 8415,
      "zabeth": 8416,
      "030": 8417,
      "jah": 8418,
      "distress": 8419,
      "stores": 8420,
      "competence": 8421,
      "secretar": 8422,
      "attacked": 8423,
      "jumped": 8424,
      "weakness": 8425,
      "cort": 8426,
      "iro": 8427,
      "exchanged": 8428,
      "furnished": 8429,
      "bree": 8430,
      "nm": 8431,
      "nkr": 8432,
      "tology": 8433,
      "bride": 8434,
      "udes": 8435,
      "pavlov": 8436,
      "dignity": 8437,
      "founder": 8438,
      "victoriabank": 8439,
      "bian": 8440,
      "mate": 8441,
      "tbil": 8442,
      "ativity": 8443,
      "1993": 8444,
      "legend": 8445,
      "processed": 8446,
      "romantic": 8447,
      "motive": 8448,
      "sergei": 8449,
      "returning": 8450,
      "weigh": 8451,
      "otan": 8452,
      "accession": 8453,
      "conditioned": 8454,
      "difficulty": 8455,
      "acquire": 8456,
      "reliability": 8457,
      "timet": 8458,
      "ppf": 8459,
      "pping": 8460,
      "indicate": 8461,
      "dictatorship": 8462,
      "hut": 8463,
      "ballot": 8464,
      "blocks": 8465,
      "paralle": 8466,
      "marg": 8467,
      "ratification": 8468,
      "pipeline": 8469,
      "prevail": 8470,
      "##": 8471,
      "cater": 8472,
      "kab": 8473,
      "rol": 8474,
      "phob": 8475,
      "stranger": 8476,
      "specially": 8477,
      "biological": 8478,
      "bust": 8479,
      "somewhat": 8480,
      "corps": 8481,
      "sixth": 8482,
      "tribes": 8483,
      "bend": 8484,
      "fancy": 8485,
      "overwhel": 8486,
      "supplement": 8487,
      "7498": 8488,
      ";&#": 8489,
      "atization": 8490,
      "chess": 8491,
      "commemor": 8492,
      "absent": 8493,
      "delete": 8494,
      "expend": 8495,
      "sony": 8496,
      "definition": 8497,
      "925": 8498,
      "lg": 8499,
      "itors": 8500,
      "composed": 8501,
      "everyday": 8502,
      "intensive": 8503,
      "360": 8504,
      "graphics": 8505,
      "throat": 8506,
      "revenues": 8507,
      "reservations": 8508,
      "cade": 8509,
      "presentations": 8510,
      "methodo": 8511,
      "celebrated": 8512,
      "rejoice": 8513,
      "dana": 8514,
      "lone": 8515,
      "wage": 8516,
      "kazyna": 8517,
      "117": 8518,
      "socio": 8519,
      "genuine": 8520,
      "stip": 8521,
      "amor": 8522,
      "clouds": 8523,
      "logist": 8524,
      "extend": 8525,
      "wheat": 8526,
      "pregnancy": 8527,
      "dk": 8528,
      "enabled": 8529,
      "interpre": 8530,
      "transnist": 8531,
      "ashes": 8532,
      "businessmen": 8533,
      "foolish": 8534,
      "906": 8535,
      "alo": 8536,
      "ician": 8537,
      "withdraw": 8538,
      "portugal": 8539,
      "curios": 8540,
      "monastery": 8541,
      "tbilisi": 8542,
      "capitalism": 8543,
      "hoped": 8544,
      "reconcil": 8545,
      "rit": 8546,
      "tire": 8547,
      "116": 8548,
      "shield": 8549,
      "wherever": 8550,
      "sagint": 8551,
      "architectural": 8552,
      "cp": 8553,
      "artistic": 8554,
      "jackson": 8555,
      "pard": 8556,
      "secrets": 8557,
      "approached": 8558,
      "swear": 8559,
      "politicians": 8560,
      "flows": 8561,
      "cotton": 8562,
      "809": 8563,
      "914": 8564,
      "sleeve": 8565,
      "characters": 8566,
      "executed": 8567,
      "consequently": 8568,
      "uranium": 8569,
      "scheme": 8570,
      "bridges": 8571,
      "slogan": 8572,
      "utical": 8573,
      "grim": 8574,
      "bug": 8575,
      "magnificent": 8576,
      "jon": 8577,
      "124": 8578,
      "regards": 8579,
      "shook": 8580,
      "nazi": 8581,
      "damas": 8582,
      "inser": 8583,
      "grab": 8584,
      "flame": 8585,
      "finds": 8586,
      "(-": 8587,
      "organic": 8588,
      "representation": 8589,
      "circu": 8590,
      "argument": 8591,
      "mold": 8592,
      "pave": 8593,
      "quran": 8594,
      "idol": 8595,
      "engineers": 8596,
      "lavrov": 8597,
      "pitts": 8598,
      "frightened": 8599,
      "autonomous": 8600,
      "dnepr": 8601,
      "equality": 8602,
      "zar": 8603,
      "delic": 8604,
      "quietly": 8605,
      "ambit": 8606,
      "grants": 8607,
      "372": 8608,
      "landscape": 8609,
      "accuracy": 8610,
      "%),": 8611,
      "gut": 8612,
      "cooperate": 8613,
      "upgrade": 8614,
      "presenting": 8615,
      "stabil": 8616,
      "affir": 8617,
      "dull": 8618,
      "carb": 8619,
      "consular": 8620,
      "0x00": 8621,
      "rake": 8622,
      "qualities": 8623,
      "aquar": 8624,
      "hadn": 8625,
      "lington": 8626,
      "hz": 8627,
      "sip": 8628,
      "prec": 8629,
      "analyt": 8630,
      "assumed": 8631,
      "608": 8632,
      "atus": 8633,
      "cely": 8634,
      "riad": 8635,
      "massage": 8636,
      "capture": 8637,
      "compensation": 8638,
      "damascus": 8639,
      "intelligent": 8640,
      "outer": 8641,
      "assure": 8642,
      "congregation": 8643,
      "define": 8644,
      "juris": 8645,
      "mikhail": 8646,
      "oliver": 8647,
      "516": 8648,
      "crafts": 8649,
      "relatives": 8650,
      "deadlines": 8651,
      "advisory": 8652,
      "matt": 8653,
      "astro": 8654,
      "shoe": 8655,
      "ps3": 8656,
      "delf": 8657,
      "pelled": 8658,
      "ska": 8659,
      "aman": 8660,
      "publishing": 8661,
      "electro": 8662,
      "greeting": 8663,
      "sovereignty": 8664,
      "rask": 8665,
      "armor": 8666,
      "unusual": 8667,
      "fern": 8668,
      "pacific": 8669,
      "decades": 8670,
      "films": 8671,
      "genes": 8672,
      "dawn": 8673,
      "comrade": 8674,
      "discre": 8675,
      "ranks": 8676,
      "succeeded": 8677,
      "mann": 8678,
      "harry": 8679,
      "trafficking": 8680,
      "complaints": 8681,
      "het": 8682,
      "114": 8683,
      "preservation": 8684,
      "eleven": 8685,
      "kirov": 8686,
      "\"\"\"[": 8687,
      "destiny": 8688,
      "drilling": 8689,
      "curiosity": 8690,
      "886": 8691,
      "systematic": 8692,
      "shortly": 8693,
      "gulf": 8694,
      "oldest": 8695,
      "demonstrate": 8696,
      "discrimination": 8697,
      "uous": 8698,
      "restruct": 8699,
      "worn": 8700,
      "seless": 8701,
      "buck": 8702,
      "hani": 8703,
      "ethno": 8704,
      "858": 8705,
      "cave": 8706,
      "grease": 8707,
      "cialis": 8708,
      "hunting": 8709,
      "pharmace": 8710,
      "uro": 8711,
      "vid": 8712,
      "airy": 8713,
      "stepped": 8714,
      "correspond": 8715,
      "stom": 8716,
      "thermal": 8717,
      "transparent": 8718,
      "280": 8719,
      "warranty": 8720,
      "passes": 8721,
      "profound": 8722,
      "fortress": 8723,
      "kostan": 8724,
      "mandatory": 8725,
      "balanced": 8726,
      "859": 8727,
      "rice": 8728,
      "quet": 8729,
      "fox": 8730,
      "joe": 8731,
      "cue": 8732,
      "brows": 8733,
      "freedoms": 8734,
      "pupils": 8735,
      "alleged": 8736,
      "tos": 8737,
      "recommendation": 8738,
      "thesis": 8739,
      "prohibited": 8740,
      "bere": 8741,
      "chand": 8742,
      "villas": 8743,
      "mouse": 8744,
      "stretched": 8745,
      "besto": 8746,
      "spy": 8747,
      "producer": 8748,
      "feeds": 8749,
      "conclusions": 8750,
      "grindstone": 8751,
      "odor": 8752,
      "corinth": 8753,
      "ranking": 8754,
      "908": 8755,
      "coff": 8756,
      "../": 8757,
      "brun": 8758,
      "ody": 8759,
      "applicant": 8760,
      "loading": 8761,
      "receives": 8762,
      "skip": 8763,
      "bases": 8764,
      "divor": 8765,
      "ignore": 8766,
      "megab": 8767,
      "counting": 8768,
      "trains": 8769,
      "cabinet": 8770,
      "905": 8771,
      "unemployment": 8772,
      "forming": 8773,
      "curse": 8774,
      "converted": 8775,
      "splend": 8776,
      "jim": 8777,
      "lakes": 8778,
      "rous": 8779,
      "checked": 8780,
      "prayers": 8781,
      "louder": 8782,
      "sagintayev": 8783,
      "disclosure": 8784,
      "posing": 8785,
      "concepts": 8786,
      "concentration": 8787,
      "therein": 8788,
      "firmly": 8789,
      "knees": 8790,
      "phenomen": 8791,
      "recru": 8792,
      "areth": 8793,
      "pear": 8794,
      "annon": 8795,
      "cliff": 8796,
      "graduate": 8797,
      "sochi": 8798,
      "reader": 8799,
      "commands": 8800,
      "appreciated": 8801,
      "m3": 8802,
      "ych": 8803,
      "lyn": 8804,
      "communigate": 8805,
      "interrupted": 8806,
      "tension": 8807,
      "xml": 8808,
      "congratulated": 8809,
      "preferred": 8810,
      "shouted": 8811,
      "612": 8812,
      "foundations": 8813,
      "races": 8814,
      "protecting": 8815,
      "rav": 8816,
      "utc": 8817,
      "abstr": 8818,
      "continental": 8819,
      "trinity": 8820,
      "counted": 8821,
      "gentiles": 8822,
      "mw": 8823,
      "bore": 8824,
      "4th": 8825,
      "crystal": 8826,
      "oriented": 8827,
      "orland": 8828,
      "specifications": 8829,
      "henry": 8830,
      "edited": 8831,
      "ilov": 8832,
      "login": 8833,
      "letting": 8834,
      "developers": 8835,
      "telecom": 8836,
      "victoria": 8837,
      "prestigious": 8838,
      "829": 8839,
      "gage": 8840,
      "therapy": 8841,
      "meter": 8842,
      "continually": 8843,
      "jet": 8844,
      "accompany": 8845,
      "))": 8846,
      "csto": 8847,
      "endo": 8848,
      "tec": 8849,
      "disgu": 8850,
      "powerpoint": 8851,
      "truck": 8852,
      "compatible": 8853,
      "precinct": 8854,
      "aig": 8855,
      "bass": 8856,
      "advent": 8857,
      "rah": 8858,
      "explains": 8859,
      "combating": 8860,
      "infect": 8861,
      "reb": 8862,
      "applies": 8863,
      "ngos": 8864,
      "resign": 8865,
      "kazan": 8866,
      "controls": 8867,
      "practically": 8868,
      "thanked": 8869,
      "removal": 8870,
      "maps": 8871,
      "gur": 8872,
      "boast": 8873,
      "converting": 8874,
      "buffet": 8875,
      "912": 8876,
      "170": 8877,
      "rulers": 8878,
      "flee": 8879,
      "sack": 8880,
      "retr": 8881,
      "wasnt": 8882,
      "transfers": 8883,
      "260": 8884,
      "scul": 8885,
      "strategies": 8886,
      "bomb": 8887,
      "quix": 8888,
      "foreigners": 8889,
      "diameter": 8890,
      "996": 8891,
      "mare": 8892,
      "mp3": 8893,
      "writer": 8894,
      "adri": 8895,
      "unning": 8896,
      "282": 8897,
      "resulting": 8898,
      "wondered": 8899,
      "voltage": 8900,
      "inspir": 8901,
      "stack": 8902,
      "imposed": 8903,
      "overnight": 8904,
      "247": 8905,
      "messenger": 8906,
      "levites": 8907,
      "515": 8908,
      "fid": 8909,
      "sant": 8910,
      "urance": 8911,
      "plates": 8912,
      "uls": 8913,
      "muhammad": 8914,
      "resulted": 8915,
      "xpages": 8916,
      "brands": 8917,
      "survive": 8918,
      "exercises": 8919,
      "capabilities": 8920,
      "welcomed": 8921,
      "megabank": 8922,
      "eg": 8923,
      "vip": 8924,
      "intense": 8925,
      "penet": 8926,
      "punish": 8927,
      "consequence": 8928,
      "exclusively": 8929,
      "520": 8930,
      "898": 8931,
      "aer": 8932,
      "gments": 8933,
      "kw": 8934,
      "sas": 8935,
      "decisive": 8936,
      "confusion": 8937,
      "wit": 8938,
      "notary": 8939,
      "bru": 8940,
      "logists": 8941,
      "336": 8942,
      "singapo": 8943,
      "ensures": 8944,
      "singapore": 8945,
      "anyan": 8946,
      "openimage": 8947,
      "boxes": 8948,
      "crossing": 8949,
      "openimagebank": 8950,
      "tomb": 8951,
      "ashley": 8952,
      ".).": 8953,
      "isen": 8954,
      "chu": 8955,
      "breathe": 8956,
      "commitments": 8957,
      "mothers": 8958,
      "descend": 8959,
      "719": 8960,
      "spake": 8961,
      "disappeared": 8962,
      "suppliers": 8963,
      "pink": 8964,
      "repro": 8965,
      "sunny": 8966,
      "tabern": 8967,
      "observation": 8968,
      "deemed": 8969,
      "nicholas": 8970,
      "bd": 8971,
      "unlimited": 8972,
      "ules": 8973,
      "brave": 8974,
      "tene": 8975,
      "........": 8976,
      "gap": 8977,
      "irish": 8978,
      "trick": 8979,
      "cession": 8980,
      "potato": 8981,
      "involving": 8982,
      "414": 8983,
      "highway": 8984,
      "diverse": 8985,
      "antonio": 8986,
      "shirt": 8987,
      "brass": 8988,
      "akhmetov": 8989,
      "airlines": 8990,
      "desires": 8991,
      "malay": 8992,
      "organizational": 8993,
      "preserved": 8994,
      "enjoying": 8995,
      "android": 8996,
      "3000": 8997,
      "degre": 8998,
      "shannon": 8999,
      "rocks": 9000,
      "urge": 9001,
      "iffs": 9002,
      "sentenced": 9003,
      "throwing": 9004,
      "laughter": 9005,
      "5th": 9006,
      "fon": 9007,
      "devi": 9008,
      "translated": 9009,
      "municipality": 9010,
      "demanding": 9011,
      "acceptance": 9012,
      "decorated": 9013,
      "nbk": 9014,
      "vrachi": 9015,
      "sod": 9016,
      "affl": 9017,
      "ensk": 9018,
      "seld": 9019,
      "rope": 9020,
      "jealous": 9021,
      "boris": 9022,
      "xeno": 9023,
      "meals": 9024,
      "describe": 9025,
      "talent": 9026,
      "countryside": 9027,
      "prisoner": 9028,
      "settlements": 9029,
      "obligation": 9030,
      "corridor": 9031,
      "theoretical": 9032,
      "quixote": 9033,
      "tai": 9034,
      "268": 9035,
      "courty": 9036,
      "rants": 9037,
      "infection": 9038,
      "eding": 9039,
      "sizes": 9040,
      "napo": 9041,
      "benjam": 9042,
      "trials": 9043,
      "apparatus": 9044,
      "ija": 9045,
      "employee": 9046,
      "pharmaceutical": 9047,
      "degrees": 9048,
      "wag": 9049,
      "stum": 9050,
      "203": 9051,
      "tribe": 9052,
      "rendered": 9053,
      "landing": 9054,
      "childhood": 9055,
      "substant": 9056,
      "appli": 9057,
      "samuel": 9058,
      "heights": 9059,
      "anxious": 9060,
      "khov": 9061,
      "altogether": 9062,
      "224": 9063,
      "mbh": 9064,
      "iniqu": 9065,
      "rt": 9066,
      "odessa": 9067,
      "carto": 9068,
      "governors": 9069,
      "provoc": 9070,
      "eggshells": 9071,
      "rgn": 9072,
      "cosme": 9073,
      "coffin": 9074,
      "mild": 9075,
      "rational": 9076,
      "injury": 9077,
      "oft": 9078,
      "226": 9079,
      "idaho": 9080,
      "lifet": 9081,
      "mathemat": 9082,
      "jav": 9083,
      "yout": 9084,
      "considers": 9085,
      "trojans": 9086,
      "pharisees": 9087,
      "hated": 9088,
      "excur": 9089,
      "iva": 9090,
      "armenpress": 9091,
      "tracks": 9092,
      "optional": 9093,
      "krem": 9094,
      "deaf": 9095,
      "merchant": 9096,
      "philistines": 9097,
      "oath": 9098,
      "puh": 9099,
      "artific": 9100,
      "bishop": 9101,
      "619": 9102,
      "inf": 9103,
      "ulating": 9104,
      "magnet": 9105,
      "elizabeth": 9106,
      "958": 9107,
      "nord": 9108,
      "\"\"\"\"-": 9109,
      "emir": 9110,
      "crude": 9111,
      "grove": 9112,
      "924": 9113,
      "novel": 9114,
      "commandment": 9115,
      "energies": 9116,
      "emotions": 9117,
      "ghost": 9118,
      "tub": 9119,
      "exposed": 9120,
      "causing": 9121,
      "subsidiary": 9122,
      "ep0lv": 9123,
      "swift": 9124,
      "gust": 9125,
      "gender": 9126,
      "jeho": 9127,
      "goodness": 9128,
      "manife": 9129,
      "fond": 9130,
      "defect": 9131,
      "logo": 9132,
      "inclusive": 9133,
      "patter": 9134,
      "performing": 9135,
      "orlando": 9136,
      "rim": 9137,
      "proven": 9138,
      "cells": 9139,
      "delegates": 9140,
      "napoleon": 9141,
      "678": 9142,
      "enov": 9143,
      "indif": 9144,
      "matic": 9145,
      "pointing": 9146,
      "jointly": 9147,
      "bourg": 9148,
      "doctrine": 9149,
      "hart": 9150,
      "jara": 9151,
      "cloth": 9152,
      "blogs": 9153,
      "345": 9154,
      "nons": 9155,
      "stance": 9156,
      "admir": 9157,
      "atlantic": 9158,
      "sheets": 9159,
      "wow": 9160,
      "enlar": 9161,
      "clay": 9162,
      "marine": 9163,
      "risen": 9164,
      "reap": 9165,
      "salary": 9166,
      "placing": 9167,
      "inspired": 9168,
      "catholic": 9169,
      "vard": 9170,
      "larry": 9171,
      "aj": 9172,
      "albert": 9173,
      "detained": 9174,
      "abuse": 9175,
      "illness": 9176,
      "designs": 9177,
      "constructive": 9178,
      "orus": 9179,
      "resid": 9180,
      "tsar": 9181,
      "306": 9182,
      "sketch": 9183,
      "gig": 9184,
      "economies": 9185,
      "dancing": 9186,
      "snap": 9187,
      "a2": 9188,
      "dn": 9189,
      "wines": 9190,
      "warned": 9191,
      "cosmetology": 9192,
      "flav": 9193,
      "intends": 9194,
      "athy": 9195,
      "generated": 9196,
      "bags": 9197,
      "optimal": 9198,
      "montana": 9199,
      "rek": 9200,
      "samsung": 9201,
      "rolex": 9202,
      "liberation": 9203,
      "610": 9204,
      "thetic": 9205,
      "intermedi": 9206,
      "fulness": 9207,
      "cleve": 9208,
      "hiding": 9209,
      "omin": 9210,
      "riot": 9211,
      "produces": 9212,
      "approve": 9213,
      "izer": 9214,
      "attraction": 9215,
[...]
