{
  "version": "1.0",
  "truncation": null,
  "padding": {
    "strategy": "BatchLongest",
    "direction": "Right",
    "pad_to_multiple_of": null,
    "pad_id": 0,
    "pad_type_id": 0,
    "pad_token": "[PAD]"
  },
  "added_tokens": [
    {
      "id": 0,
      "content": "[PAD]",
      "single_word": false,
      "lstrip": false,
      "rstrip": false,
      "normalized": false,
      "special": true
    },
    {
      "id": 1,
      "content": "[CLS]",
      "single_word": false,
      "lstrip": false,
      "rstrip": false,
      "normalized": false,
      "special": true
    },
    {
      "id": 2,
      "content": "[SEP]",
      "single_word": false,
      "lstrip": false,
      "rstrip": false,
      "normalized": false,
      "special": true
    },
    {
      "id": 3,
      "content": "[UNK]",
      "single_word": false,
      "lstrip": false,
      "rstrip": false,
      "normalized": false,
      "special": true
    },
    {
      "id": 4,
      "content": "[MASK]",
      "single_word": false,
      "lstrip": false,
      "rstrip": false,
      "normalized": false,
      "special": true
    }
  ],
  "normalizer": null,
  "pre_tokenizer": {
    "type": "Whitespace"
  },
  "post_processor": {
    "type": "TemplateProcessing",
    "single": [
      {
        "SpecialToken": {
          "id": "[CLS]",
          "type_id": 0
        }
      },
      {
        "Sequence": {
          "id": "A",
          "type_id": 0
        }
      },
      {
        "SpecialToken": {
          "id": "[SEP]",
          "type_id": 0
        }
      }
    ],
    "pair": [
      {
        "SpecialToken": {
          "id": "[CLS]",
          "type_id": 0
        }
      },
      {
        "Sequence": {
          "id": "A",
          "type_id": 0
        }
      },
      {
        "SpecialToken": {
          "id": "[SEP]",
          "type_id": 0
        }
      },
      {
        "Sequence": {
          "id": "B",
          "type_id": 1
        }
      },
      {
        "SpecialToken": {
          "id": "[SEP]",
          "type_id": 1
        }
      }
    ],
    "special_tokens": {
      "[CLS]": {
        "id": "[CLS]",
        "ids": [
          1
        ],
        "tokens": [
          "[CLS]"
        ]
      },
      "[SEP]": {
        "id": "[SEP]",
        "ids": [
          2
        ],
        "tokens": [
          "[SEP]"
        ]
      }
    }
  },
  "decoder": null,
  "model": {
    "type": "BPE",
    "dropout": null,
    "unk_token": "[UNK]",
    "continuing_subword_prefix": null,
    "end_of_word_suffix": null,
    "fuse_unk": false,
    "byte_fallback": false,
    "ignore_merges": false,
    "vocab": {
      "[PAD]": 0,
      "[CLS]": 1,
      "[SEP]": 2,
      "[UNK]": 3,
      "[MASK]": 4,
      "!": 5,
      "\"": 6,
      "#": 7,
      "$": 8,
      "%": 9,
      "&": 10,
      "'": 11,
      "(": 12,
      ")": 13,
      "*": 14,
      "+": 15,
      "-": 16,
      ".": 17,
      "/": 18,
      "0": 19,
      "1": 20,
      "2": 21,
      "3": 22,
      "4": 23,
      "5": 24,
      "6": 25,
      "7": 26,
      "8": 27,
      "9": 28,
      ":": 29,
      ";": 30,
      "<": 31,
      "=": 32,
      ">": 33,
      "?": 34,
      "@": 35,
      "A": 36,
      "B": 37,
      "C": 38,
      "D": 39,
      "E": 40,
      "F": 41,
      "G": 42,
      "H": 43,
      "I": 44,
      "J": 45,
      "K": 46,
      "L": 47,
      "M": 48,
      "N": 49,
      "O": 50,
      "P": 51,
      "Q": 52,
      "R": 53,
      "S": 54,
      "T": 55,
      "U": 56,
      "V": 57,
      "W": 58,
      "X": 59,
      "Y": 60,
      "Z": 61,
      "[": 62,
      "\\": 63,
      "]": 64,
      "^": 65,
      "_": 66,
      "`": 67,
      "a": 68,
      "b": 69,
      "c": 70,
      "d": 71,
      "e": 72,
      "f": 73,
      "g": 74,
      "h": 75,
      "i": 76,
      "j": 77,
      "k": 78,
      "l": 79,
      "m": 80,
      "n": 81,
      "o": 82,
      "p": 83,
      "q": 84,
      "r": 85,
      "s": 86,
      "t": 87,
      "u": 88,
      "v": 89,
      "w": 90,
      "x": 91,
      "y": 92,
      "z": 93,
      "{": 94,
      "|": 95,
      "}": 96,
      "~": 97,
      "¡": 98,
      "¢": 99,
      "£": 100,
      "¤": 101,
      "¥": 102,
      "¦": 103,
      "©": 104,
      "«": 105,
      "­": 106,
      "®": 107,
      "°": 108,
      "±": 109,
      "²": 110,
      "¶": 111,
      "»": 112,
      "½": 113,
      "¿": 114,
      "Æ": 115,
      "Ç": 116,
      "É": 117,
      "Ð": 118,
      "Ñ": 119,
      "×": 120,
      "Ø": 121,
      "Ü": 122,
      "Þ": 123,
      "ß": 124,
      "à": 125,
      "á": 126,
      "â": 127,
      "ã": 128,
      "ä": 129,
      "å": 130,
      "æ": 131,
      "ç": 132,
      "è": 133,
      "é": 134,
      "ë": 135,
      "ì": 136,
      "í": 137,
      "î": 138,
      "ï": 139,
      "ð": 140,
      "ñ": 141,
      "ò": 142,
      "ó": 143,
      "ô": 144,
      "õ": 145,
      "÷": 146,
      "ø": 147,
      "ü": 148,
      "þ": 149,
      "Đ": 150,
      "đ": 151,
      "Ħ": 152,
      "ħ": 153,
      "ı": 154,
      "Ł": 155,
      "ł": 156,
      "ž": 157,
      "Ə": 158,
      "ƒ": 159,
      "ə": 160,
      "ˆ": 161,
      "ː": 162,
      "Α": 163,
      "Β": 164,
      "Γ": 165,
      "Δ": 166,
      "Ε": 167,
      "Η": 168,
      "Θ": 169,
      "Ι": 170,
      "Κ": 171,
      "Μ": 172,
      "Ν": 173,
      "Ξ": 174,
      "Ο": 175,
      "Π": 176,
      "Ρ": 177,
      "Σ": 178,
      "Τ": 179,
      "Υ": 180,
      "Χ": 181,
      "Ω": 182,
      "έ": 183,
      "α": 184,
      "β": 185,
      "γ": 186,
      "δ": 187,
      "ε": 188,
      "η": 189,
      "ι": 190,
      "κ": 191,
      "λ": 192,
      "μ": 193,
      "ν": 194,
      "ξ": 195,
      "ο": 196,
      "π": 197,
      "ρ": 198,
      "ς": 199,
      "σ": 200,
      "τ": 201,
      "υ": 202,
      "φ": 203,
      "χ": 204,
      "ω": 205,
      "Є": 206,
      "І": 207,
      "А": 208,
      "Б": 209,
      "В": 210,
      "Г": 211,
      "Д": 212,
      "Е": 213,
      "Ж": 214,
      "З": 215,
      "И": 216,
      "К": 217,
      "Л": 218,
      "М": 219,
      "Н": 220,
      "О": 221,
      "П": 222,
      "Р": 223,
      "С": 224,
      "Т": 225,
      "У": 226,
      "Ф": 227,
      "Х": 228,
      "Ц": 229,
      "Ч": 230,
      "Ш": 231,
      "Щ": 232,
      "Ъ": 233,
      "Ы": 234,
      "Ь": 235,
      "Э": 236,
      "Ю": 237,
      "Я": 238,
      "а": 239,
      "б": 240,
      "в": 241,
      "г": 242,
      "д": 243,
      "е": 244,
      "ж": 245,
      "з": 246,
      "и": 247,
      "й": 248,
      "к": 249,
      "л": 250,
      "м": 251,
      "н": 252,
      "о": 253,
      "п": 254,
      "р": 255,
      "с": 256,
      "т": 257,
      "у": 258,
      "ф": 259,
      "х": 260,
      "ц": 261,
      "ч": 262,
      "ш": 263,
      "щ": 264,
      "ъ": 265,
      "ы": 266,
      "ь": 267,
      "э": 268,
      "ю": 269,
      "я": 270,
      "є": 271,
      "ѕ": 272,
      "і": 273,
      "ј": 274,
      "ѳ": 275,
      "ҷ": 276,
      "ե": 277,
      "է": 278,
      "չ": 279,
      "ւ": 280,
      "ב": 281,
      "ג": 282,
      "ד": 283,
      "ה": 284,
      "ו": 285,
      "ז": 286,
      "ח": 287,
      "י": 288,
      "כ": 289,
      "ל": 290,
      "ם": 291,
      "מ": 292,
      "ע": 293,
      "ק": 294,
      "ר": 295,
      "ש": 296,
      "،": 297,
      "؛": 298,
      "؟": 299,
      "آ": 300,
      "ئ": 301,
      "ا": 302,
      "ب": 303,
      "ت": 304,
      "ث": 305,
      "ج": 306,
      "ح": 307,
      "خ": 308,
      "د": 309,
      "ذ": 310,
      "ر": 311,
      "ز": 312,
      "س": 313,
      "ش": 314,
      "ص": 315,
      "ض": 316,
      "ط": 317,
      "ظ": 318,
      "ع": 319,
      "غ": 320,
      "ف": 321,
      "ق": 322,
      "ل": 323,
      "م": 324,
      "ن": 325,
      "ه": 326,
      "و": 327,
      "ّ": 328,
      "ْ": 329,
      "ٔ": 330,
      "٪": 331,
      "پ": 332,
      "چ": 333,
      "ڈ": 334,
      "ژ": 335,
      "ک": 336,
      "گ": 337,
      "ی": 338,
      "ای": 339,
      "ان": 340,
      "ار": 341,
      "ست": 342,
      "در": 343,
      "می": 344,
      "را": 345,
      "از": 346,
      "ند": 347,
      "به": 348,
      "بر": 349,
      "ود": 350,
      "که": 351,
      "ور": 352,
      "ما": 353,
      "\"\"": 354,
      "ید": 355,
      "با": 356,
      "ده": 357,
      "است": 358,
      "ال": 359,
      "**": 360,
      "ام": 361,
      "رو": 362,
      "کن": 363,
      "این": 364,
      "های": 365,
      "ین": 366,
      "رد": 367,
      "او": 368,
      "اد": 369,
      "تو": 370,
      "یک": 371,
      "سی": 372,
      "لی": 373,
      "اه": 374,
      "من": 375,
      "ها": 376,
      "ات": 377,
      "آن": 378,
      "فت": 379,
      "تر": 380,
      "برای": 381,
      "یر": 382,
      "مو": 383,
      "یا": 384,
      "خو": 385,
      "کرد": 386,
      "گر": 387,
      "مان": 388,
      "بی": 389,
      "20": 390,
      "نی": 391,
      "شد": 392,
      "وی": 393,
      "تی": 394,
      "دا": 395,
      "بود": 396,
      "تا": 397,
      "هم": 398,
      "ون": 399,
      "لا": 400,
      "کار": 401,
      "شت": 402,
      "یم": 403,
      "دار": 404,
      "سا": 405,
      "خود": 406,
      "دی": 407,
      "اق": 408,
      "دو": 409,
      "فر": 410,
      "هر": 411,
      "تل": 412,
      "زی": 413,
      "شما": 414,
      "اب": 415,
      "****": 416,
      "سر": 417,
      "شده": 418,
      "کند": 419,
      "کر": 420,
      "فن": 421,
      "انی": 422,
      "بای": 423,
      "201": 424,
      "نو": 425,
      "انه": 426,
      "مر": 427,
      "\"\"\"": 428,
      "خواه": 429,
      "نا": 430,
      "اری": 431,
      "نگ": 432,
      "باز": 433,
      "سال": 434,
      "تلفن": 435,
      "اف": 436,
      "جه": 437,
      "توان": 438,
      "شود": 439,
      "شر": 440,
      "ول": 441,
      "پی": 442,
      "عی": 443,
      "کنید": 444,
      "ورد": 445,
      "خت": 446,
      "مت": 447,
      "مش": 448,
      "ستان": 449,
      "گی": 450,
      "ری": 451,
      "وری": 452,
      "نام": 453,
      "اس": 454,
      "مای": 455,
      "مه": 456,
      "مع": 457,
      "دید": 458,
      "کل": 459,
      "کت": 460,
      "داد": 461,
      "هست": 462,
      "اما": 463,
      "کی": 464,
      "کنند": 465,
      "حال": 466,
      "چه": 467,
      "کو": 468,
      "مل": 469,
      "قی": 470,
      "بار": 471,
      "دست": 472,
      "دان": 473,
      "ایی": 474,
      "مین": 475,
      "\"\"\"\"": 476,
      "رس": 477,
      "کش": 478,
      "تما": 479,
      "گفت": 480,
      "فا": 481,
      "زار": 482,
      "بین": 483,
      "شن": 484,
      "ایل": 485,
      "هی": 486,
      "بل": 487,
      "توس": 488,
      "پس": 489,
      "گاه": 490,
      "نمی": 491,
      "مد": 492,
      "مح": 493,
      "چی": 494,
      "قر": 495,
      "00": 496,
      "نظ": 497,
      "اند": 498,
      "شو": 499,
      "13": 500,
      "اط": 501,
      "باید": 502,
      "قه": 503,
      "داشت": 504,
      "تص": 505,
      "مورد": 506,
      "فایل": 507,
      "اع": 508,
      "روز": 509,
      "..": 510,
      "عه": 511,
      "روی": 512,
      "شی": 513,
      "گذ": 514,
      "سه": 515,
      "12": 516,
      "اج": 517,
      "نامه": 518,
      "همه": 519,
      "دیگر": 520,
      "جا": 521,
      "10": 522,
      "er": 523,
      "ارد": 524,
      "انت": 525,
      "وق": 526,
      "ساز": 527,
      "ئی": 528,
      "دارد": 529,
      "رف": 530,
      "اص": 531,
      "جام": 532,
      "لو": 533,
      "in": 534,
      "نه": 535,
      "ادی": 536,
      "گان": 537,
      "کس": 538,
      "اح": 539,
      "on": 540,
      "جود": 541,
      "بع": 542,
      "بت": 543,
      "سو": 544,
      "قط": 545,
      "نده": 546,
      "an": 547,
      "بد": 548,
      "کرده": 549,
      "اگر": 550,
      "200": 551,
      "عت": 552,
      "گو": 553,
      "خواهد": 554,
      "ارت": 555,
      "خد": 556,
      "نش": 557,
      "راه": 558,
      "گیر": 559,
      "گرفت": 560,
      "وز": 561,
      "تح": 562,
      "بیش": 563,
      "چن": 564,
      "یت": 565,
      "بو": 566,
      "کنم": 567,
      "دهد": 568,
      "رای": 569,
      "زمان": 570,
      "ht": 571,
      "شه": 572,
      "خی": 573,
      "مرد": 574,
      "مج": 575,
      "کم": 576,
      "en": 577,
      "19": 578,
      "ترین": 579,
      "توسط": 580,
      "بان": 581,
      "برنامه": 582,
      "خص": 583,
      "مق": 584,
      "بز": 585,
      "اش": 586,
      "یه": 587,
      "شرکت": 588,
      ".\"\"\"": 589,
      "انجام": 590,
      "om": 591,
      "یافت": 592,
      "طور": 593,
      "واق": 594,
      "قرار": 595,
      "اینکه": 596,
      "کان": 597,
      "چنین": 598,
      "بخ": 599,
      "نیست": 600,
      "له": 601,
      "نظر": 602,
      "11": 603,
      "or": 604,
      "al": 605,
      "شنبه": 606,
      "اشت": 607,
      "قز": 608,
      "مط": 609,
      "قزاق": 610,
      "باشد": 611,
      "عات": 612,
      "نج": 613,
      "تج": 614,
      "ar": 615,
      "پرو": 616,
      "وجود": 617,
      "زد": 618,
      "فاده": 619,
      "استفاده": 620,
      "پای": 621,
      "اره": 622,
      "ژه": 623,
      "یکی": 624,
      "زند": 625,
      "اض": 626,
      "پیش": 627,
      "کنیم": 628,
      "بسی": 629,
      "جمه": 630,
      "تع": 631,
      "ره": 632,
      "نمای": 633,
      "قزاقستان": 634,
      "it": 635,
      "پر": 636,
      "ارا": 637,
      "شهر": 638,
      "کشور": 639,
      "صد": 640,
      "قل": 641,
      "سای": 642,
      "ww": 643,
      "بال": 644,
      "15": 645,
      "تن": 646,
      "منط": 647,
      "هستند": 648,
      "st": 649,
      "//": 650,
      "خانه": 651,
      "فی": 652,
      "امل": 653,
      "مات": 654,
      "ایج": 655,
      "روسی": 656,
      "شم": 657,
      "الی": 658,
      "tp": 659,
      "مس": 660,
      "گزار": 661,
      "منطقه": 662,
      "هایی": 663,
      "http": 664,
      "تمام": 665,
      "اول": 666,
      "://": 667,
      "وا": 668,
      "بزر": 669,
      "بایل": 670,
      "16": 671,
      "ll": 672,
      "جدید": 673,
      "موبایل": 674,
      "ستم": 675,
      "کردند": 676,
      "داده": 677,
      "عنو": 678,
      "عنوان": 679,
      "ساعت": 680,
      "جی": 681,
      "تب": 682,
      "نر": 683,
      "فقط": 684,
      "14": 685,
      "انس": 686,
      "139": 687,
      "ساس": 688,
      "ئیس": 689,
      "حی": 690,
      "اطلا": 691,
      "دول": 692,
      "18": 693,
      "مم": 694,
      "ازه": 695,
      "رات": 696,
      "بعد": 697,
      "زش": 698,
      "ئه": 699,
      "زمین": 700,
      "خار": 701,
      "بیشتر": 702,
      "30": 703,
      "زیر": 704,
      "فکر": 705,
      "انتخ": 706,
      "17": 707,
      "ساخت": 708,
      "رئیس": 709,
      "پو": 710,
      "خر": 711,
      "جو": 712,
      "رسید": 713,
      "اینجا": 714,
      "پا": 715,
      "خط": 716,
      "زیرا": 717,
      "هنگ": 718,
      "ارائه": 719,
      "es": 720,
      "امی": 721,
      "عیت": 722,
      "باش": 723,
      "توجه": 724,
      "ممکن": 725,
      "بزرگ": 726,
      "ایش": 727,
      "رفت": 728,
      "افز": 729,
      "08": 730,
      "شنا": 731,
      "ایجاد": 732,
      "خواست": 733,
      "25": 734,
      "هیچ": 735,
      "مرک": 736,
      "2016": 737,
      "روسیه": 738,
      "***": 739,
      "کاری": 740,
      "دل": 741,
      "تواند": 742,
      "همچنین": 743,
      "فع": 744,
      "صب": 745,
      "توسعه": 746,
      "کمی": 747,
      "23": 748,
      "ورت": 749,
      "ارو": 750,
      "گز": 751,
      "مشکل": 752,
      "دور": 753,
      "آیا": 754,
      "امبر": 755,
      "تق": 756,
      "تصمی": 757,
      "چند": 758,
      "زندگی": 759,
      "چیز": 760,
      "گرد": 761,
      "بسیار": 762,
      "at": 763,
      "جان": 764,
      "24": 765,
      "آمو": 766,
      "نت": 767,
      "مرا": 768,
      "گون": 769,
      "لیل": 770,
      "حق": 771,
      "مانند": 772,
      "سل": 773,
      "غیر": 774,
      "پروژه": 775,
      "وارد": 776,
      "le": 777,
      "...": 778,
      "شوند": 779,
      "اطلاعات": 780,
      "ملی": 781,
      "قاب": 782,
      "عل": 783,
      "واقع": 784,
      "چیزی": 785,
      "همی": 786,
      "تول": 787,
      "کسی": 788,
      "22": 789,
      "کردن": 790,
      "آل": 791,
      "سته": 792,
      "سازمان": 793,
      "قان": 794,
      "تصمیم": 795,
      "اتاق": 796,
      "غی": 797,
      "ch": 798,
      "وقتی": 799,
      "قدر": 800,
      "تش": 801,
      "نیز": 802,
      "دن": 803,
      "ro": 804,
      "26": 805,
      "05": 806,
      "اید": 807,
      "همان": 808,
      "یاد": 809,
      "مار": 810,
      "آب": 811,
      "یدا": 812,
      "سیستم": 813,
      "گونه": 814,
      "ضو": 815,
      "04": 816,
      "قیق": 817,
      "توانید": 818,
      "میلی": 819,
      "حل": 820,
      "09": 821,
      "کردم": 822,
      "آی": 823,
      "03": 824,
      "وه": 825,
      "خان": 826,
      "مست": 827,
      "جمهوری": 828,
      "com": 829,
      "داشته": 830,
      "ینه": 831,
      "ارسال": 832,
      "تری": 833,
      "مخ": 834,
      "اخ": 835,
      "وب": 836,
      "قبل": 837,
      "کمک": 838,
      "بدون": 839,
      "حتی": 840,
      "et": 841,
      "بنا": 842,
      "07": 843,
      "شب": 844,
      "بالا": 845,
      "06": 846,
      "نشان": 847,
      "رسی": 848,
      "سخ": 849,
      "گیری": 850,
      "02": 851,
      "شته": 852,
      "حد": 853,
      "گوی": 854,
      "48": 855,
      "as": 856,
      "برا": 857,
      "کلی": 858,
      "بور": 859,
      "المل": 860,
      "ماه": 861,
      "خوب": 862,
      "مرکز": 863,
      "زه": 864,
      "27": 865,
      "بودند": 866,
      "آمد": 867,
      "28": 868,
      "ic": 869,
      "فرا": 870,
      "تغی": 871,
      "بازی": 872,
      "باره": 873,
      "مسا": 874,
      "ئن": 875,
      "جل": 876,
      "پنج": 877,
      "re": 878,
      "تنها": 879,
      "براین": 880,
      "بنابراین": 881,
      "شوید": 882,
      "المللی": 883,
      "سف": 884,
      "وان": 885,
      "نفر": 886,
      "هستید": 887,
      "شرو": 888,
      "بخش": 889,
      "مث": 890,
      "صف": 891,
      "مدیر": 892,
      "نتی": 893,
      "تولید": 894,
      "اخت": 895,
      "متر": 896,
      "\"\"\"\"\"\"\"": 897,
      "نمایش": 898,
      "is": 899,
      "حاض": 900,
      "نق": 901,
      "نزد": 902,
      "صورت": 903,
      "حاضر": 904,
      "طی": 905,
      "شروع": 906,
      "دوست": 907,
      "اور": 908,
      "پذ": 909,
      "طول": 910,
      "خواهید": 911,
      "وند": 912,
      "انتخاب": 913,
      "21": 914,
      "تاری": 915,
      "یده": 916,
      "افت": 917,
      "www": 918,
      "رون": 919,
      "نیاز": 920,
      "سازی": 921,
      "آوری": 922,
      "تلا": 923,
      "مردم": 924,
      "01": 925,
      "صح": 926,
      "کننده": 927,
      "کام": 928,
      "پار": 929,
      ".\"": 930,
      "گرو": 931,
      "فعال": 932,
      "el": 933,
      "کنون": 934,
      "قب": 935,
      "داری": 936,
      "اسی": 937,
      "بند": 938,
      "دیگری": 939,
      "ad": 940,
      "2009": 941,
      "درصد": 942,
      "گزارش": 943,
      "میز": 944,
      "دولت": 945,
      "اقتص": 946,
      "قابل": 947,
      "ارمن": 948,
      "افزایش": 949,
      "پرد": 950,
      "زمانی": 951,
      "آز": 952,
      "پذیر": 953,
      "مالی": 954,
      "اوند": 955,
      "ia": 956,
      "نرم": 957,
      "زن": 958,
      "خدا": 959,
      "عمل": 960,
      "شاه": 961,
      "مسی": 962,
      "اساس": 963,
      "29": 964,
      "هو": 965,
      "ماده": 966,
      "هد": 967,
      "خداوند": 968,
      "دانش": 969,
      "دهید": 970,
      "LL": 971,
      "لح": 972,
      "ایت": 973,
      "صفح": 974,
      "ویند": 975,
      "ودی": 976,
      "شخص": 977,
      "اکنون": 978,
      "ژی": 979,
      "دس": 980,
      "اده": 981,
      "اصلی": 982,
      "بات": 983,
      "اتی": 984,
      "dll": 985,
      "پسر": 986,
      "ویندوز": 987,
      "جهان": 988,
      "دلیل": 989,
      "نگه": 990,
      "مایه": 991,
      "درخواست": 992,
      "ابت": 993,
      "غل": 994,
      "همیشه": 995,
      "سان": 996,
      "2015": 997,
      "فرو": 998,
      "سمت": 999,
      "شان": 1000,
      "دهند": 1001,
      "سم": 1002,
      "چگونه": 1003,
      "کاه": 1004,
      "تاب": 1005,
      "خواهند": 1006,
      "خواهم": 1007,
      "صی": 1008,
      "قیم": 1009,
      "تغییر": 1010,
      "شک": 1011,
      "سرمایه": 1012,
      "سط": 1013,
      "اوه": 1014,
      "50": 1015,
      "اک": 1016,
      "ویر": 1017,
      "آورد": 1018,
      "درست": 1019,
      "گذاری": 1020,
      "ژو": 1021,
      "خدمات": 1022,
      "he": 1023,
      "خیلی": 1024,
      "وزیر": 1025,
      "ارمنستان": 1026,
      "پاس": 1027,
      "ترک": 1028,
      "دم": 1029,
      "موضو": 1030,
      "دارند": 1031,
      "منت": 1032,
      "پیدا": 1033,
      "DLL": 1034,
      "دهای": 1035,
      "تلاش": 1036,
      "برگزار": 1037,
      "یع": 1038,
      "برو": 1039,
      "کوچ": 1040,
      "گروه": 1041,
      "49": 1042,
      "سپس": 1043,
      "وض": 1044,
      "جمع": 1045,
      "جای": 1046,
      "سک": 1047,
      "2014": 1048,
      "ut": 1049,
      "انگ": 1050,
      "الات": 1051,
      "فته": 1052,
      "قانون": 1053,
      "ol": 1054,
      "33": 1055,
      "ونی": 1056,
      "عمو": 1057,
      "شور": 1058,
      "ترا": 1059,
      "نوع": 1060,
      "سب": 1061,
      "ستر": 1062,
      "غذ": 1063,
      "شرای": 1064,
      "رز": 1065,
      "همکاری": 1066,
      "جنگ": 1067,
      "چهار": 1068,
      "صحبت": 1069,
      "موجود": 1070,
      "بوط": 1071,
      "قای": 1072,
      "صر": 1073,
      "مربوط": 1074,
      "صبح": 1075,
      "شدن": 1076,
      "امه": 1077,
      "ac": 1078,
      "بازدید": 1079,
      "انو": 1080,
      "مانی": 1081,
      "دام": 1082,
      "تاریخ": 1083,
      "داخ": 1084,
      "احساس": 1085,
      "حالی": 1086,
      "حر": 1087,
      "خوش": 1088,
      "ur": 1089,
      "مز": 1090,
      "دریافت": 1091,
      "مال": 1092,
      "نگاه": 1093,
      "قات": 1094,
      "اروپا": 1095,
      "صفحه": 1096,
      "پدر": 1097,
      ")،": 1098,
      "am": 1099,
      "de": 1100,
      "امروز": 1101,
      "امت": 1102,
      "شار": 1103,
      "35": 1104,
      "افرا": 1105,
      "ستانه": 1106,
      "برخی": 1107,
      "بری": 1108,
      "اولین": 1109,
      "جهانی": 1110,
      "طری": 1111,
      "لیه": 1112,
      "طرف": 1113,
      "پت": 1114,
      "هتل": 1115,
      "ظه": 1116,
      "کنی": 1117,
      "ته": 1118,
      "2013": 1119,
      "کاهش": 1120,
      "بانی": 1121,
      "حمل": 1122,
      "حمای": 1123,
      "مهم": 1124,
      "مطم": 1125,
      "پایان": 1126,
      "ضای": 1127,
      "شرایط": 1128,
      "اوت": 1129,
      "چرا": 1130,
      "چر": 1131,
      "il": 1132,
      "زیادی": 1133,
      "خاط": 1134,
      "زینه": 1135,
      "جمهور": 1136,
      "شتی": 1137,
      "کامل": 1138,
      "سایر": 1139,
      "جایی": 1140,
      "زارت": 1141,
      "2011": 1142,
      "تون": 1143,
      "عکس": 1144,
      "ویه": 1145,
      "وزارت": 1146,
      "خور": 1147,
      "آنچه": 1148,
      "هزینه": 1149,
      "اون": 1150,
      "us": 1151,
      "کود": 1152,
      "دارید": 1153,
      "فل": 1154,
      "اتح": 1155,
      "مرتب": 1156,
      "نوز": 1157,
      "حمایت": 1158,
      "پسوند": 1159,
      "اجازه": 1160,
      "ion": 1161,
      "ثر": 1162,
      "گذار": 1163,
      "2010": 1164,
      "جن": 1165,
      "بگیر": 1166,
      "هدف": 1167,
      "ینی": 1168,
      "جز": 1169,
      "ظهر": 1170,
      "کا": 1171,
      "دیل": 1172,
      "راب": 1173,
      "طب": 1174,
      "45": 1175,
      "پاد": 1176,
      "لط": 1177,
      "گوید": 1178,
      "ov": 1179,
      "عمومی": 1180,
      "لاح": 1181,
      "رایگان": 1182,
      "ادامه": 1183,
      "تعداد": 1184,
      "بیا": 1185,
      "بینی": 1186,
      "th": 1187,
      "موف": 1188,
      "ضی": 1189,
      "طریق": 1190,
      "36": 1191,
      "دنبال": 1192,
      "مدت": 1193,
      "بیرون": 1194,
      "آستانه": 1195,
      "قت": 1196,
      "ویژه": 1197,
      "اشتبا": 1198,
      "پاسخ": 1199,
      "سفر": 1200,
      "2012": 1201,
      "اپ": 1202,
      "هوا": 1203,
      "انتخا": 1204,
      "روح": 1205,
      "1396": 1206,
      "امور": 1207,
      "شید": 1208,
      "صن": 1209,
      "آور": 1210,
      "نوی": 1211,
      "مدر": 1212,
      "گرفته": 1213,
      "آموزش": 1214,
      "متح": 1215,
      "دارم": 1216,
      "محص": 1217,
      "برد": 1218,
      "سایت": 1219,
      "آرا": 1220,
      "تماس": 1221,
      "مند": 1222,
      "امکان": 1223,
      "تلف": 1224,
      "نور": 1225,
      "استان": 1226,
      "ag": 1227,
      "دولتی": 1228,
      "وف": 1229,
      "تبدیل": 1230,
      "خوبی": 1231,
      "47": 1232,
      "32": 1233,
      "شدند": 1234,
      "دلار": 1235,
      ").": 1236,
      "فعالیت": 1237,
      "هستم": 1238,
      "حقوق": 1239,
      "خاطر": 1240,
      "اوکر": 1241,
      "ندارد": 1242,
      "اوکراین": 1243,
      "دری": 1244,
      "un": 1245,
      "بسیاری": 1246,
      "ویت": 1247,
      "ازی": 1248,
      "2017": 1249,
      "آنجا": 1250,
      "محصول": 1251,
      "ندگان": 1252,
      "37": 1253,
      "آمر": 1254,
      "پل": 1255,
      "ویی": 1256,
      "دوباره": 1257,
      "هنوز": 1258,
      "بررسی": 1259,
      "نزدیک": 1260,
      "قدرت": 1261,
      "یابی": 1262,
      "کوچک": 1263,
      "اقتصادی": 1264,
      "کاملا": 1265,
      "موضوع": 1266,
      "ent": 1267,
      "مک": 1268,
      "لام": 1269,
      "چون": 1270,
      "وضعیت": 1271,
      "گران": 1272,
      "زمینه": 1273,
      "مسکو": 1274,
      "ستی": 1275,
      "38": 1276,
      "رایانه": 1277,
      "قیمت": 1278,
      "باشید": 1279,
      "مص": 1280,
      "دهم": 1281,
      "همین": 1282,
      "گیرد": 1283,
      "دارای": 1284,
      "میان": 1285,
      "آمریک": 1286,
      "اندازه": 1287,
      "تای": 1288,
      "Ph": 1289,
      "جم": 1290,
      "ازم": 1291,
      "40": 1292,
      "one": 1293,
      "مرتبط": 1294,
      "عر": 1295,
      "ایست": 1296,
      "بلکه": 1297,
      "رفه": 1298,
      "روند": 1299,
      "میلیون": 1300,
      "تور": 1301,
      "تس": 1302,
      "آخر": 1303,
      "عیسی": 1304,
      "46": 1305,
      "زبان": 1306,
      "انر": 1307,
      "مطمئن": 1308,
      "نتیجه": 1309,
      "آماده": 1310,
      "متحده": 1311,
      "افی": 1312,
      "ناه": 1313,
      "ئو": 1314,
      "اوی": 1315,
      "قا": 1316,
      "خواب": 1317,
      "دقیق": 1318,
      "ساب": 1319,
      "گه": 1320,
      "آینده": 1321,
      "همراه": 1322,
      "غر": 1323,
      "ببین": 1324,
      "گذشته": 1325,
      "نشد": 1326,
      "پرداخت": 1327,
      "گاهی": 1328,
      "بازار": 1329,
      "متوجه": 1330,
      "کنار": 1331,
      "آغ": 1332,
      "انرژی": 1333,
      "دود": 1334,
      "دانید": 1335,
      "واقعا": 1336,
      "ایالات": 1337,
      "فرد": 1338,
      "بهترین": 1339,
      "درو": 1340,
      "گل": 1341,
      "خاص": 1342,
      "فرص": 1343,
      "39": 1344,
      "هن": 1345,
      "گذاشت": 1346,
      "رح": 1347,
      "خته": 1348,
      "کنندگان": 1349,
      "دوره": 1350,
      "ران": 1351,
      "خیر": 1352,
      "1395": 1353,
      "سرور": 1354,
      "31": 1355,
      "آش": 1356,
      "کشورهای": 1357,
      "کیف": 1358,
      "پول": 1359,
      "56": 1360,
      "هزار": 1361,
      "57": 1362,
      "آم": 1363,
      "فرانس": 1364,
      "سن": 1365,
      "جوان": 1366,
      "شا": 1367,
      "ربه": 1368,
      "بندی": 1369,
      "اتر": 1370,
      "پادشاه": 1371,
      "ite": 1372,
      "ot": 1373,
      "نشست": 1374,
      "اکت": 1375,
      "سیون": 1376,
      "سطح": 1377,
      "os": 1378,
      "امنی": 1379,
      "نصب": 1380,
      "مختلف": 1381,
      "وم": 1382,
      "حت": 1383,
      "44": 1384,
      "توانست": 1385,
      "فیل": 1386,
      "اجتما": 1387,
      "شخصی": 1388,
      "هرگز": 1389,
      "اهده": 1390,
      "منظ": 1391,
      "بانک": 1392,
      "ir": 1393,
      "پیشن": 1394,
      "ینگ": 1395,
      "کنتر": 1396,
      "شامل": 1397,
      "ws": 1398,
      "وریه": 1399,
      "خارجه": 1400,
      "um": 1401,
      "مجمو": 1402,
      "تحت": 1403,
      "نس": 1404,
      "لطفا": 1405,
      "خارجی": 1406,
      "حدا": 1407,
      "چیست": 1408,
      "مکان": 1409,
      "خصو": 1410,
      "توانند": 1411,
      "درس": 1412,
      "خرید": 1413,
      "سیاست": 1414,
      "100": 1415,
      "علاوه": 1416,
      "وت": 1417,
      "جلسه": 1418,
      "برابر": 1419,
      "روس": 1420,
      "کلیک": 1421,
      "ژان": 1422,
      "کنترل": 1423,
      "::": 1424,
      "هایت": 1425,
      "دهی": 1426,
      "سنگ": 1427,
      "اجتماعی": 1428,
      "حذ": 1429,
      "چین": 1430,
      "اوری": 1431,
      "توانم": 1432,
      "مول": 1433,
      "55": 1434,
      "میت": 1435,
      "ئیل": 1436,
      "گفته": 1437,
      "گری": 1438,
      "پیشنه": 1439,
      "دهیم": 1440,
      "واقعی": 1441,
      "کال": 1442,
      "میل": 1443,
      "سخت": 1444,
      "حض": 1445,
      "طرا": 1446,
      "ob": 1447,
      "صیه": 1448,
      "توصیه": 1449,
      "دانست": 1450,
      "حذف": 1451,
      "عالی": 1452,
      "34": 1453,
      "فروش": 1454,
      "اتحادی": 1455,
      "مواد": 1456,
      "اتحادیه": 1457,
      "ed": 1458,
      "آموز": 1459,
      "مشترک": 1460,
      "آپ": 1461,
      "فناوری": 1462,
      "گستر": 1463,
      "تنظ": 1464,
      "ساسی": 1465,
      "یو": 1466,
      "دستگاه": 1467,
      "خورد": 1468,
      "فرهنگ": 1469,
      "ra": 1470,
      "بن": 1471,
      "جمل": 1472,
      "افراد": 1473,
      "بح": 1474,
      "فران": 1475,
      "لود": 1476,
      "کسانی": 1477,
      "شماره": 1478,
      "مناس": 1479,
      "آغاز": 1480,
      "نداشت": 1481,
      "بلند": 1482,
      "ثبت": 1483,
      ".»": 1484,
      "alth": 1485,
      "جر": 1486,
      "قال": 1487,
      "رسد": 1488,
      "مساب": 1489,
      "حف": 1490,
      "نبود": 1491,
      "شین": 1492,
      "اعلام": 1493,
      "تجاری": 1494,
      "96": 1495,
      "جمله": 1496,
      "کیلو": 1497,
      "ذر": 1498,
      "health": 1499,
      "مشاهده": 1500,
      "Phone": 1501,
      "58": 1502,
      "سریع": 1503,
      "تیم": 1504,
      "لاس": 1505,
      "ارز": 1506,
      "ml": 1507,
      "دانلود": 1508,
      "هفته": 1509,
      "اجرای": 1510,
      "ing": 1511,
      "تاث": 1512,
      "اکتبر": 1513,
      "ایم": 1514,
      "بران": 1515,
      "دخ": 1516,
      "ژوئن": 1517,
      "مشکلات": 1518,
      "ایده": 1519,
      "دع": 1520,
      "آر": 1521,
      "آسی": 1522,
      "ظاه": 1523,
      "نوامبر": 1524,
      "im": 1525,
      "سیاسی": 1526,
      "دوم": 1527,
      "رشد": 1528,
      "احتما": 1529,
      "کتاب": 1530,
      "ie": 1531,
      "سپت": 1532,
      "مف": 1533,
      "لازم": 1534,
      "دقی": 1535,
      "بش": 1536,
      "سپتامبر": 1537,
      "موق": 1538,
      "رود": 1539,
      "html": 1540,
      "حدود": 1541,
      "آپارت": 1542,
      "77": 1543,
      "طراحی": 1544,
      "طبی": 1545,
      "افزار": 1546,
      "88": 1547,
      "شاید": 1548,
      "باط": 1549,
      "ژانویه": 1550,
      "خواهیم": 1551,
      "مدیریت": 1552,
      "دادن": 1553,
      "بهتر": 1554,
      "تاثیر": 1555,
      "فاق": 1556,
      "دسامبر": 1557,
      "انتخابات": 1558,
      "ترکی": 1559,
      "شش": 1560,
      "تامین": 1561,
      "اشاره": 1562,
      "صند": 1563,
      "پیشنهاد": 1564,
      "جلو": 1565,
      "توانیم": 1566,
      "گشت": 1567,
      "انیا": 1568,
      "داریم": 1569,
      "آخرین": 1570,
      "بحث": 1571,
      "اسرا": 1572,
      "پیام": 1573,
      "حضور": 1574,
      "قف": 1575,
      "کوت": 1576,
      "Su": 1577,
      "کشید": 1578,
      "2008": 1579,
      "دقیقه": 1580,
      "مشخص": 1581,
      "حز": 1582,
      "آقای": 1583,
      "موس": 1584,
      "مثل": 1585,
      "دوشنبه": 1586,
      "\"\"،": 1587,
      "بودم": 1588,
      "la": 1589,
      "ویل": 1590,
      "مادر": 1591,
      "عامل": 1592,
      "راف": 1593,
      "مام": 1594,
      "وده": 1595,
      "نهایت": 1596,
      "id": 1597,
      "ماند": 1598,
      "خانم": 1599,
      "تحلیل": 1600,
      "ندار": 1601,
      "جنو": 1602,
      "چشم": 1603,
      "اهای": 1604,
      "لیت": 1605,
      "خوان": 1606,
      "پایین": 1607,
      "مطبو": 1608,
      "ابط": 1609,
      "درباره": 1610,
      "انیه": 1611,
      "خارج": 1612,
      "آپارتمان": 1613,
      "بسته": 1614,
      "آوریل": 1615,
      "انسان": 1616,
      "میلیارد": 1617,
      "فری": 1618,
      "عملی": 1619,
      "دیو": 1620,
      "جامعه": 1621,
      "59": 1622,
      "فه": 1623,
      "شدم": 1624,
      "میر": 1625,
      "انتظ": 1626,
      "رنگ": 1627,
      "بنی": 1628,
      "حفظ": 1629,
      "نیا": 1630,
      "اساسی": 1631,
      "باع": 1632,
      "محلی": 1633,
      "UR": 1634,
      "مشتری": 1635,
      "تجربه": 1636,
      "کالی": 1637,
      "sk": 1638,
      "داخلی": 1639,
      "قیت": 1640,
      "یور": 1641,
      "خانوا": 1642,
      "ru": 1643,
      "اسرائیل": 1644,
      "خانواده": 1645,
      "تخت": 1646,
      "وس": 1647,
      "لات": 1648,
      "مبار": 1649,
      "بله": 1650,
      "یافته": 1651,
      "مارس": 1652,
      "صله": 1653,
      "وط": 1654,
      "آمریکا": 1655,
      "راحت": 1656,
      "تجارت": 1657,
      "سرا": 1658,
      "نویس": 1659,
      "فرصت": 1660,
      "تحقیق": 1661,
      "صل": 1662,
      "64": 1663,
      "امنیت": 1664,
      "تض": 1665,
      "تقری": 1666,
      "چار": 1667,
      "انتظار": 1668,
      "گویم": 1669,
      "نمایشگاه": 1670,
      "عد": 1671,
      "شکل": 1672,
      "ترس": 1673,
      "وح": 1674,
      "محصولات": 1675,
      "اتفاق": 1676,
      "فهمی": 1677,
      "کیل": 1678,
      "مذ": 1679,
      "*****": 1680,
      "بوده": 1681,
      "em": 1682,
      "مون": 1683,
      "افه": 1684,
      "og": 1685,
      "انواع": 1686,
      "کنفرانس": 1687,
      "ارزش": 1688,
      "شناس": 1689,
      "لند": 1690,
      "ess": 1691,
      "توضی": 1692,
      "تعی": 1693,
      "تعیین": 1694,
      "سعی": 1695,
      "بهشت": 1696,
      "وقت": 1697,
      "دنی": 1698,
      "ist": 1699,
      "نح": 1700,
      "ابع": 1701,
      "لیم": 1702,
      "فدر": 1703,
      "قبلا": 1704,
      "ایر": 1705,
      "اینتر": 1706,
      "دیمی": 1707,
      "ph": 1708,
      "ویروس": 1709,
      "بهبود": 1710,
      "دختر": 1711,
      "تقریبا": 1712,
      "کنان": 1713,
      "54": 1714,
      "تار": 1715,
      "اقدا": 1716,
      "خش": 1717,
      "محدود": 1718,
      "کیفیت": 1719,
      "اورا": 1720,
      "آذر": 1721,
      "روابط": 1722,
      "علا": 1723,
      "لس": 1724,
      "ec": 1725,
      "دک": 1726,
      "آس": 1727,
      "سیم": 1728,
      "چش": 1729,
      "iv": 1730,
      "گرم": 1731,
      "دانم": 1732,
      "ile": 1733,
      "مرکزی": 1734,
      "موفقیت": 1735,
      "97": 1736,
      "ئت": 1737,
      "فاصله": 1738,
      "توضیح": 1739,
      "افزاری": 1740,
      "حزب": 1741,
      "دقیقا": 1742,
      "اجرا": 1743,
      "86": 1744,
      "سرعت": 1745,
      "درخواستی": 1746,
      "درک": 1747,
      "دریا": 1748,
      "هایش": 1749,
      "یکشنبه": 1750,
      "فرمان": 1751,
      "حرکت": 1752,
      "صدا": 1753,
      "رها": 1754,
      "بشر": 1755,
      "eb": 1756,
      "ارتباط": 1757,
      "انگی": 1758,
      "مسیح": 1759,
      "نیرو": 1760,
      "نظامی": 1761,
      "آیند": 1762,
      "ساخته": 1763,
      "تایید": 1764,
      "قوان": 1765,
      "and": 1766,
      "نتایج": 1767,
      "ماشین": 1768,
      "هستیم": 1769,
      "ئل": 1770,
      "بخشی": 1771,
      "انج": 1772,
      "باعث": 1773,
      "آذربای": 1774,
      "مجموعه": 1775,
      "سروی": 1776,
      "مطال": 1777,
      "ex": 1778,
      "مشار": 1779,
      "زنده": 1780,
      "ضا": 1781,
      "واقعیت": 1782,
      "جست": 1783,
      "اعت": 1784,
      "خدای": 1785,
      "زیه": 1786,
      "اله": 1787,
      "سرویس": 1788,
      "ضر": 1789,
      "URL": 1790,
      "od": 1791,
      "رسمی": 1792,
      "عش": 1793,
      ".\"\"": 1794,
      "ادر": 1795,
      "امات": 1796,
      "خورشید": 1797,
      "ig": 1798,
      "تجزیه": 1799,
      "op": 1800,
      "دسترسی": 1801,
      "چوب": 1802,
      "پیشر": 1803,
      "پن": 1804,
      "تصویر": 1805,
      "فتر": 1806,
      "گناه": 1807,
      "هیئت": 1808,
      "باشند": 1809,
      "قوانین": 1810,
      "نان": 1811,
      "آدرس": 1812,
      "ساد": 1813,
      "مشارکت": 1814,
      "جمعه": 1815,
      "Win": 1816,
      "حساب": 1817,
      "حالا": 1818,
      "ill": 1819,
      "روش": 1820,
      "شورای": 1821,
      "رفی": 1822,
      "ay": 1823,
      "نسبت": 1824,
      "اشتباه": 1825,
      "محل": 1826,
      "یدی": 1827,
      "کالیفر": 1828,
      "آمده": 1829,
      "فوریه": 1830,
      "Suite": 1831,
      "پشت": 1832,
      "نحوه": 1833,
      "IS": 1834,
      "ناد": 1835,
      "کالیفرنیا": 1836,
      "مسیر": 1837,
      "اردی": 1838,
      "99": 1839,
      "موسی": 1840,
      "ستری": 1841,
      "بگیرید": 1842,
      "******": 1843,
      "دفتر": 1844,
      "پشتی": 1845,
      "تف": 1846,
      "موارد": 1847,
      "وال": 1848,
      "خودم": 1849,
      "گرفتم": 1850,
      "اصلاح": 1851,
      "مناسب": 1852,
      "علیه": 1853,
      "ak": 1854,
      "زات": 1855,
      "آذربایجان": 1856,
      "لحظه": 1857,
      "فو": 1858,
      "ریزی": 1859,
      "برس": 1860,
      "خلا": 1861,
      "آفت": 1862,
      "ساده": 1863,
      "43": 1864,
      "قانونی": 1865,
      "مطبوعات": 1866,
      "محی": 1867,
      "طولانی": 1868,
      "ولو": 1869,
      "پارک": 1870,
      "بگذار": 1871,
      "مثال": 1872,
      "سات": 1873,
      "قدیمی": 1874,
      "فاع": 1875,
      "خره": 1876,
      "اقتصاد": 1877,
      "66": 1878,
      "علی": 1879,
      "ظر": 1880,
      "انجمن": 1881,
      "ویم": 1882,
      "نسخ": 1883,
      "افق": 1884,
      "روزی": 1885,
      "ne": 1886,
      "باس": 1887,
      "نسخه": 1888,
      "87": 1889,
      "مینی": 1890,
      "تشکیل": 1891,
      "روشن": 1892,
      "گوش": 1893,
      "اضافه": 1894,
      "چرخ": 1895,
      "هنگامی": 1896,
      "پزش": 1897,
      "علاقه": 1898,
      "قلا": 1899,
      "SC": 1900,
      "تخ": 1901,
      "فنی": 1902,
      "دستور": 1903,
      "گاز": 1904,
      "ورک": 1905,
      "org": 1906,
      "خب": 1907,
      "000": 1908,
      "دها": 1909,
      "مدی": 1910,
      "طل": 1911,
      "خصوصی": 1912,
      "گم": 1913,
      "کمیته": 1914,
      "42": 1915,
      "لذ": 1916,
      "ظت": 1917,
      "پیو": 1918,
      "هنگام": 1919,
      "روست": 1920,
      "نمایندگان": 1921,
      "ap": 1922,
      "نقط": 1923,
      "نقطه": 1924,
      "نشده": 1925,
      "زیاد": 1926,
      "مناط": 1927,
      "بچه": 1928,
      "ابتدا": 1929,
      "الت": 1930,
      "بیان": 1931,
      "طبق": 1932,
      "صدای": 1933,
      "مرگ": 1934,
      "اعضای": 1935,
      "سلط": 1936,
      "ماتی": 1937,
      "مایش": 1938,
      "خیره": 1939,
      "یورو": 1940,
      "راست": 1941,
      "چال": 1942,
      "XP": 1943,
      "لیس": 1944,
      "ماری": 1945,
      "دیدار": 1946,
      "خودش": 1947,
      "جری": 1948,
      "افتاد": 1949,
      "زم": 1950,
      "اقامت": 1951,
      "کافی": 1952,
      "کسب": 1953,
      "خبر": 1954,
      "مقدس": 1955,
      "فشار": 1956,
      "شهرستان": 1957,
      "ایمن": 1958,
      "جذ": 1959,
      "do": 1960,
      "--": 1961,
      "روان": 1962,
      "برادر": 1963,
      "صنعت": 1964,
      "دانشگاه": 1965,
      "ورود": 1966,
      "اقدامات": 1967,
      "اعمال": 1968,
      "نیوی": 1969,
      "41": 1970,
      "کودکان": 1971,
      "آفتاب": 1972,
      "حالت": 1973,
      "کردیم": 1974,
      "نیویورک": 1975,
      "اندازی": 1976,
      "رفع": 1977,
      "شبکه": 1978,
      "چنان": 1979,
      "دادند": 1980,
      "ua": 1981,
      "ترو": 1982,
      "اطلاع": 1983,
      "ونقل": 1984,
      "مبارزه": 1985,
      "ترتی": 1986,
      "معاون": 1987,
      "فرست": 1988,
      "باقی": 1989,
      "فرمت": 1990,
      "جوی": 1991,
      "2007": 1992,
      "طبقه": 1993,
      "چهارشنبه": 1994,
      "مناطق": 1995,
      "ظاهر": 1996,
      "کشاور": 1997,
      "راز": 1998,
      "سهام": 1999,
      "راک": 2000,
      "60": 2001,
      "لذت": 2002,
      "آزاد": 2003,
      "خدمت": 2004,
      "منبع": 2005,
      "حداقل": 2006,
      "رت": 2007,
      "52": 2008,
      "مهر": 2009,
      "سختی": 2010,
      "خوشحال": 2011,
      "ik": 2012,
      "صادر": 2013,
      "روید": 2014,
      "باد": 2015,
      "pr": 2016,
      "عرض": 2017,
      "تنگه": 2018,
      "منظور": 2019,
      "خطای": 2020,
      "دیده": 2021,
      "ate": 2022,
      "بدانید": 2023,
      "آید": 2024,
      "موا": 2025,
      "اصل": 2026,
      "بعدی": 2027,
      "امتی": 2028,
      "عتی": 2029,
      "واح": 2030,
      "ادل": 2031,
      "لباس": 2032,
      "منابع": 2033,
      "تونی": 2034,
      "کوه": 2035,
      "سراسر": 2036,
      "53": 2037,
      "انقلا": 2038,
      "شکست": 2039,
      "ایمان": 2040,
      "خیا": 2041,
      "بایف": 2042,
      "بودن": 2043,
      "are": 2044,
      "98": 2045,
      "be": 2046,
      "مبل": 2047,
      "جهی": 2048,
      "وظ": 2049,
      "آتش": 2050,
      "جستان": 2051,
      "گار": 2052,
      "موقعیت": 2053,
      "راحتی": 2054,
      "رسیده": 2055,
      "پیا": 2056,
      "معمو": 2057,
      "طرح": 2058,
      "تان": 2059,
      "عشق": 2060,
      "گرجستان": 2061,
      "آموزشی": 2062,
      "Mob": 2063,
      "بیشتری": 2064,
      "رجی": 2065,
      "az": 2066,
      "آک": 2067,
      "نفت": 2068,
      "ماهی": 2069,
      "for": 2070,
      "ملا": 2071,
      "نجات": 2072,
      "اطمین": 2073,
      "تگز": 2074,
      "هفت": 2075,
      "برج": 2076,
      "عهد": 2077,
      "مرح": 2078,
      "داف": 2079,
      "تگزاس": 2080,
      "مطبوعاتی": 2081,
      "نکرده": 2082,
      "ثابت": 2083,
      "آلمان": 2084,
      "اطمینان": 2085,
      "In": 2086,
      "اسیون": 2087,
      "جزئی": 2088,
      "ساختمان": 2089,
      "تنظیم": 2090,
      "ul": 2091,
      "اگرچه": 2092,
      "گرا": 2093,
      "est": 2094,
      "51": 2095,
      "اعتما": 2096,
      "اختص": 2097,
      "شنید": 2098,
      "مرحله": 2099,
      "مطاب": 2100,
      "تجهی": 2101,
      "صندوق": 2102,
      "خطر": 2103,
      "تضمین": 2104,
      "کمیسیون": 2105,
      "sy": 2106,
      "داشتند": 2107,
      "قطع": 2108,
      "سوی": 2109,
      "Mobile": 2110,
      "حرفه": 2111,
      "سنت": 2112,
      "پنجره": 2113,
      "انداز": 2114,
      "نباید": 2115,
      "صحی": 2116,
      "دهنده": 2117,
      "بید": 2118,
      "St": 2119,
      "ترتیب": 2120,
      "دین": 2121,
      "زنان": 2122,
      "خصص": 2123,
      "گا": 2124,
      "نخواهد": 2125,
      "وزه": 2126,
      "ظرف": 2127,
      "پنجشنبه": 2128,
      "مسائل": 2129,
      "مهمان": 2130,
      "مدرسه": 2131,
      "جنوبی": 2132,
      "اختصاص": 2133,
      "صور": 2134,
      "باغ": 2135,
      "سود": 2136,
      "سوال": 2137,
      "اردیبهشت": 2138,
      "ستانی": 2139,
      "صلح": 2140,
      "خواند": 2141,
      "لمان": 2142,
      "جریان": 2143,
      "مجبور": 2144,
      "قلب": 2145,
      "دادگاه": 2146,
      "چشمان": 2147,
      "بگیرد": 2148,
      "تاک": 2149,
      "ter": 2150,
      "ایمیل": 2151,
      "80": 2152,
      "ابزار": 2153,
      "فصل": 2154,
      "بیر": 2155,
      "پرداز": 2156,
      "di": 2157,
      "زا": 2158,
      "نار": 2159,
      "جدیدی": 2160,
      "انا": 2161,
      "خواهی": 2162,
      "لت": 2163,
      "....": 2164,
      "یهودی": 2165,
      "فرزند": 2166,
      "فرآیند": 2167,
      "آبی": 2168,
      "2006": 2169,
      "دون": 2170,
      "کمتر": 2171,
      "گسترده": 2172,
      "عضو": 2173,
      "اعتماد": 2174,
      "پست": 2175,
      "نای": 2176,
      "زود": 2177,
      "نیستید": 2178,
      "کدام": 2179,
      "جدا": 2180,
      "وران": 2181,
      "ok": 2182,
      "مربع": 2183,
      "ویژ": 2184,
      "مدرن": 2185,
      "طبیعی": 2186,
      "ندی": 2187,
      "طه": 2188,
      "مشا": 2189,
      "نوشت": 2190,
      "امیدو": 2191,
      "67": 2192,
      "حوزه": 2193,
      "توافق": 2194,
      "بورگ": 2195,
      "زیبا": 2196,
      "عزی": 2197,
      "بیه": 2198,
      "پشتیبانی": 2199,
      "پرس": 2200,
      "کشی": 2201,
      "تجهیزات": 2202,
      "شدت": 2203,
      "رسانه": 2204,
      "فوق": 2205,
      "اینها": 2206,
      "موش": 2207,
      "یابد": 2208,
      "شوم": 2209,
      "ow": 2210,
      "فس": 2211,
      "میوه": 2212,
      "فدراسیون": 2213,
      "اهمیت": 2214,
      "فیلم": 2215,
      "بالاتر": 2216,
      "حرف": 2217,
      "ce": 2218,
      "ers": 2219,
      "عبار": 2220,
      "پیاده": 2221,
      "غال": 2222,
      "ادار": 2223,
      "زده": 2224,
      "رال": 2225,
      "کری": 2226,
      "پیچ": 2227,
      "وسی": 2228,
      "کشاورزی": 2229,
      "مغ": 2230,
      "پیر": 2231,
      "شهروند": 2232,
      "اختی": 2233,
      "منتشر": 2234,
      "اولیه": 2235,
      "غیره": 2236,
      "تقویت": 2237,
      "95": 2238,
      "(****": 2239,
      "لیسی": 2240,
      "داخل": 2241,
      "کودک": 2242,
      "پایی": 2243,
      "اخبار": 2244,
      "فرود": 2245,
      "لاین": 2246,
      "دفاع": 2247,
      "مواجه": 2248,
      "متف": 2249,
      "ایسه": 2250,
      "مقایسه": 2251,
      "سون": 2252,
      "کوتاه": 2253,
      "ویژگی": 2254,
      "قول": 2255,
      "تبلی": 2256,
      "ویب": 2257,
      "لع": 2258,
      "دیگران": 2259,
      "باشم": 2260,
      "».": 2261,
      "تصویب": 2262,
      "مردی": 2263,
      "آرام": 2264,
      "av": 2265,
      "1394": 2266,
      "قض": 2267,
      "ببینید": 2268,
      "روب": 2269,
      "ab": 2270,
      "خیابان": 2271,
      "مسابقه": 2272,
      "فرانسه": 2273,
      "گردان": 2274,
      "مستقی": 2275,
      "کشف": 2276,
      "کارت": 2277,
      "دانی": 2278,
      "شع": 2279,
      "90": 2280,
      "رویداد": 2281,
      "امیدوار": 2282,
      "کات": 2283,
      "روف": 2284,
      "مردان": 2285,
      "مقر": 2286,
      "آورده": 2287,
      "ev": 2288,
      "ببر": 2289,
      "بالاخره": 2290,
      "زای": 2291,
      "2005": 2292,
      "پاک": 2293,
      "ایستگاه": 2294,
      "تبلیغ": 2295,
      "چالش": 2296,
      "فراهم": 2297,
      "امضا": 2298,
      "چارچوب": 2299,
      "خال": 2300,
      "مقامات": 2301,
      "Ch": 2302,
      "چندین": 2303,
      "جویی": 2304,
      "حقیق": 2305,
      "مجمع": 2306,
      "مدار": 2307,
      "آمیز": 2308,
      "مایل": 2309,
      "عبور": 2310,
      "رفته": 2311,
      "متو": 2312,
      "معرفی": 2313,
      "باور": 2314,
      "شمالی": 2315,
      "اشتباهی": 2316,
      "وقی": 2317,
      "چقدر": 2318,
      "فهمید": 2319,
      "نیک": 2320,
      "دوستان": 2321,
      "رست": 2322,
      "ition": 2323,
      "لین": 2324,
      "بودجه": 2325,
      "تحصی": 2326,
      "گردش": 2327,
      "مستقیما": 2328,
      "منتظر": 2329,
      "لق": 2330,
      "==": 2331,
      "مولد": 2332,
      "دسترس": 2333,
      "درد": 2334,
      "نم": 2335,
      "بیمار": 2336,
      "نرخ": 2337,
      "یون": 2338,
      "قالب": 2339,
      "70": 2340,
      "ایمنی": 2341,
      "مجاز": 2342,
      "ویرایش": 2343,
      "صورتی": 2344,
      "مور": 2345,
      "قوی": 2346,
      "کیلومتر": 2347,
      "یعنی": 2348,
      "Com": 2349,
      "ملل": 2350,
      "حقوقی": 2351,
      "بست": 2352,
      "کاران": 2353,
      "دنیا": 2354,
      "فضای": 2355,
      "نشانه": 2356,
      "اسپ": 2357,
      "بگویم": 2358,
      "حا": 2359,
      "مجلس": 2360,
      "محیط": 2361,
      "ولی": 2362,
      "بهره": 2363,
      "تبر": 2364,
      "تحقیقات": 2365,
      "art": 2366,
      "php": 2367,
      "شناخته": 2368,
      "ثانیه": 2369,
      "ندان": 2370,
      "انگلیسی": 2371,
      "حقیقت": 2372,
      "76": 2373,
      "کجا": 2374,
      "mi": 2375,
      "of": 2376,
      "هنر": 2377,
      "اطراف": 2378,
      "کف": 2379,
      "تاسی": 2380,
      "سیا": 2381,
      "ساله": 2382,
      "موزه": 2383,
      "غم": 2384,
      "اشتراک": 2385,
      "محاف": 2386,
      "تاکید": 2387,
      "پزشکی": 2388,
      "لیست": 2389,
      "سین": 2390,
      "اتو": 2391,
      "اروس": 2392,
      "آزمایش": 2393,
      "شوروی": 2394,
      "بیای": 2395,
      "ولای": 2396,
      "داشتی": 2397,
      "جزئیات": 2398,
      "پیشرفت": 2399,
      "شدید": 2400,
      "اینترنت": 2401,
      "وع": 2402,
      "تغیی": 2403,
      "آزادی": 2404,
      "باشه": 2405,
      "ملاقات": 2406,
      "بیت": 2407,
      "انتشار": 2408,
      "نیروهای": 2409,
      "مسئ": 2410,
      "کارهای": 2411,
      "تعطی": 2412,
      "اداره": 2413,
      "خون": 2414,
      "آرز": 2415,
      "lad": 2416,
      "عبارت": 2417,
      "غلات": 2418,
      "استرات": 2419,
      "مسئو": 2420,
      "الع": 2421,
      "فرهنگی": 2422,
      "کور": 2423,
      "مشتریان": 2424,
      "کرو": 2425,
      "کردی": 2426,
      "قصد": 2427,
      "بته": 2428,
      "تاح": 2429,
      "جین": 2430,
      "ضاع": 2431,
      "افتتاح": 2432,
      "ome": 2433,
      "MA": 2434,
      "البته": 2435,
      "قسمت": 2436,
      "نخ": 2437,
      "آره": 2438,
      "انتقال": 2439,
      "(****)": 2440,
      "آشکار": 2441,
      "جدی": 2442,
      "جاده": 2443,
      "لن": 2444,
      "کره": 2445,
      "بلاروس": 2446,
      "داو": 2447,
      "ندگی": 2448,
      "مولداوی": 2449,
      "لاک": 2450,
      "کاربر": 2451,
      "گذاشته": 2452,
      "ناک": 2453,
      "شیر": 2454,
      "عم": 2455,
      "89": 2456,
      "مسابقات": 2457,
      "پیوند": 2458,
      "رزرو": 2459,
      "پرسید": 2460,
      "شگفت": 2461,
      "متحد": 2462,
      "کته": 2463,
      "JSC": 2464,
      "خطوط": 2465,
      "رویدا": 2466,
      "موفق": 2467,
      "جات": 2468,
      "برجسته": 2469,
      "شناسی": 2470,
      "ساحل": 2471,
      "حمام": 2472,
      "رابطه": 2473,
      "آنلاین": 2474,
      "مراق": 2475,
      "پنه": 2476,
      "ورزش": 2477,
      "آسیب": 2478,
      "net": 2479,
      "مفید": 2480,
      "دارایی": 2481,
      "امید": 2482,
      "هستی": 2483,
      "سوم": 2484,
      "غروب": 2485,
      "ذکر": 2486,
      "تقد": 2487,
      "oc": 2488,
      "ضد": 2489,
      "ant": 2490,
      "گسترش": 2491,
      "موسیقی": 2492,
      "مقاب": 2493,
      "نظارت": 2494,
      "ناگه": 2495,
      "وار": 2496,
      "وام": 2497,
      "بک": 2498,
      "جوانان": 2499,
      "نقش": 2500,
      "رفتار": 2501,
      "فراموش": 2502,
      "الان": 2503,
      "الکت": 2504,
      "اضافی": 2505,
      "تازه": 2506,
      "سری": 2507,
      "کثر": 2508,
      "آسان": 2509,
      "ریاست": 2510,
      "متخصص": 2511,
      "توانی": 2512,
      "برق": 2513,
      "ies": 2514,
      "کارخانه": 2515,
      "Ma": 2516,
      "آسمان": 2517,
      "دیدن": 2518,
      "صنعتی": 2519,
      "بزرگی": 2520,
      "ارتش": 2521,
      "سام": 2522,
      "ont": 2523,
      "یهوه": 2524,
      "EC": 2525,
      "بالای": 2526,
      "خطاهای": 2527,
      "سفید": 2528,
      "گرفتن": 2529,
      "ذخیره": 2530,
      "پان": 2531,
      "همچنان": 2532,
      "شای": 2533,
      "کلاس": 2534,
      "گفتند": 2535,
      "چو": 2536,
      "باشیم": 2537,
      "ارش": 2538,
      "اوضاع": 2539,
      "Ar": 2540,
      "رجیستری": 2541,
      "سازماندهی": 2542,
      "بوس": 2543,
      "درآمد": 2544,
      "وله": 2545,
      "استراحت": 2546,
      "ویزی": 2547,
      "مستقل": 2548,
      "آشپ": 2549,
      "ئیه": 2550,
      "حداکثر": 2551,
      "lady": 2552,
      "العاده": 2553,
      "بلا": 2554,
      "چاپ": 2555,
      "!!": 2556,
      "aut": 2557,
      "web": 2558,
      "up": 2559,
      "امکس": 2560,
      "بازگشت": 2561,
      "نماینده": 2562,
      "ladyhealth": 2563,
      "زاده": 2564,
      "رقاب": 2565,
      "نسل": 2566,
      "بگوید": 2567,
      "جشن": 2568,
      "مدیامکس": 2569,
      "جمعیت": 2570,
      "مراقبت": 2571,
      "پوش": 2572,
      "مسئولیت": 2573,
      "مستقیم": 2574,
      "خراب": 2575,
      "ناشر": 2576,
      "AS": 2577,
      "منح": 2578,
      "نکته": 2579,
      "موسسه": 2580,
      "مانده": 2581,
      "ونت": 2582,
      "رتبه": 2583,
      "تیر": 2584,
      "اختیار": 2585,
      "قره": 2586,
      "عادی": 2587,
      "گاو": 2588,
      "__": 2589,
      "ek": 2590,
      "Ed": 2591,
      "پیک": 2592,
      "خاطرنشان": 2593,
      "طلو": 2594,
      "عقب": 2595,
      "دعوت": 2596,
      "جیل": 2597,
      "احت": 2598,
      "ادت": 2599,
      "نهایی": 2600,
      "مطابق": 2601,
      "کشتی": 2602,
      "ino": 2603,
      "ass": 2604,
      "78": 2605,
      "علمی": 2606,
      "گانه": 2607,
      "احتمال": 2608,
      "اهداف": 2609,
      "تشخی": 2610,
      "شکر": 2611,
      "انگیز": 2612,
      "مرور": 2613,
      "ژوئیه": 2614,
      "آرامش": 2615,
      "ازدو": 2616,
      "ازدواج": 2617,
      "تغییرات": 2618,
      "هسته": 2619,
      "نظربایف": 2620,
      "سادگی": 2621,
      "اقدام": 2622,
      "ista": 2623,
      "دش": 2624,
      "قربانی": 2625,
      "PC": 2626,
      "بیند": 2627,
      "تنظی": 2628,
      "نگر": 2629,
      "الف": 2630,
      "اوراق": 2631,
      "نقشه": 2632,
      "نادرست": 2633,
      "iz": 2634,
      "تلویزی": 2635,
      "باتی": 2636,
      "بدی": 2637,
      "تاریخی": 2638,
      "حمله": 2639,
      "اوقات": 2640,
      "تکمی": 2641,
      "فرم": 2642,
      "فای": 2643,
      "ماهنگ": 2644,
      "متا": 2645,
      "ou": 2646,
      "درای": 2647,
      "گفتم": 2648,
      "عملیات": 2649,
      "دسته": 2650,
      "گزاری": 2651,
      "واحد": 2652,
      "داشتم": 2653,
      "کرا": 2654,
      "مطالعه": 2655,
      "میدان": 2656,
      "متفاوت": 2657,
      "اها": 2658,
      "مصرف": 2659,
      "فریاد": 2660,
      "لغ": 2661,
      "زیبای": 2662,
      "ینا": 2663,
      "تک": 2664,
      "ریف": 2665,
      "فلور": 2666,
      "شج": 2667,
      "ip": 2668,
      "تعطیلات": 2669,
      "داند": 2670,
      "بدن": 2671,
      "سخنر": 2672,
      "گذارد": 2673,
      "سرش": 2674,
      "تنظیمات": 2675,
      "ستون": 2676,
      "خاک": 2677,
      "آنجایی": 2678,
      "رسانی": 2679,
      "برود": 2680,
      "توجهی": 2681,
      "عمی": 2682,
      "هرچند": 2683,
      "زیست": 2684,
      "جب": 2685,
      "نیو": 2686,
      "درمان": 2687,
      "ix": 2688,
      "روبرو": 2689,
      "بیست": 2690,
      "اندا": 2691,
      "خرو": 2692,
      "\"\"\"\"\"\"\"\"": 2693,
      "شنو": 2694,
      "پنهان": 2695,
      "عین": 2696,
      "مدل": 2697,
      "هماهنگ": 2698,
      "مشاور": 2699,
      "ost": 2700,
      "لیا": 2701,
      "تهی": 2702,
      "مری": 2703,
      "ونا": 2704,
      "هه": 2705,
      "sp": 2706,
      "دادم": 2707,
      "اسناد": 2708,
      "تشخیص": 2709,
      "نشود": 2710,
      "Windo": 2711,
      "Home": 2712,
      "سبک": 2713,
      "جاری": 2714,
      "زان": 2715,
      "ank": 2716,
      "مجد": 2717,
      "کلمه": 2718,
      "خا": 2719,
      "اهی": 2720,
      "Windows": 2721,
      "مشابه": 2722,
      "زمینی": 2723,
      "فهر": 2724,
      "ذهن": 2725,
      "واش": 2726,
      "جلوگیری": 2727,
      "امر": 2728,
      "ممن": 2729,
      "ib": 2730,
      "شرک": 2731,
      "حو": 2732,
      "اثر": 2733,
      "دمو": 2734,
      "مناف": 2735,
      "پرواز": 2736,
      "Pre": 2737,
      "طلوع": 2738,
      "ID": 2739,
      "رق": 2740,
      "هوش": 2741,
      "تهیه": 2742,
      "شغل": 2743,
      "سالانه": 2744,
      "گذر": 2745,
      "وید": 2746,
      "Vista": 2747,
      "AT": 2748,
      "پوشش": 2749,
      "غلب": 2750,
      "اغلب": 2751,
      "جولای": 2752,
      "کلیسای": 2753,
      "لان": 2754,
      "ارهای": 2755,
      "بیانیه": 2756,
      "عیف": 2757,
      "قرن": 2758,
      "اتحاد": 2759,
      "صرفه": 2760,
      "تحر": 2761,
      "مرده": 2762,
      "بازسازی": 2763,
      "تروجان": 2764,
      "ظرفیت": 2765,
      "تولد": 2766,
      "age": 2767,
      "ارزیابی": 2768,
      "وحشت": 2769,
      "آفر": 2770,
      "قرارداد": 2771,
      "شادی": 2772,
      "قدم": 2773,
      "کشت": 2774,
      "نکرد": 2775,
      "ایروان": 2776,
      "رستوران": 2777,
      "سرد": 2778,
      "مبت": 2779,
      "سبزی": 2780,
      "تمامی": 2781,
      "مقدار": 2782,
      "ele": 2783,
      "عدم": 2784,
      "انقلاب": 2785,
      "گفتگو": 2786,
      "\"\"\"\"\"": 2787,
      "حجم": 2788,
      "ژانس": 2789,
      "ترکیه": 2790,
      "شویم": 2791,
      "65": 2792,
      "شرقی": 2793,
      "احترا": 2794,
      "دشو": 2795,
      "سیل": 2796,
      "85": 2797,
      "اجاره": 2798,
      "بیتی": 2799,
      "نقل": 2800,
      "زو": 2801,
      "گام": 2802,
      "نیم": 2803,
      "Edition": 2804,
      "منافع": 2805,
      "قوم": 2806,
      "قبال": 2807,
      "داران": 2808,
      "مراسم": 2809,
      "غذا": 2810,
      "پایه": 2811,
      "الیا": 2812,
      "بزرگترین": 2813,
      "جستجو": 2814,
      "رض": 2815,
      "شهروندان": 2816,
      "ویچ": 2817,
      "au": 2818,
      "گویی": 2819,
      "اروپایی": 2820,
      "قهر": 2821,
      "میزان": 2822,
      "بحر": 2823,
      "سیاه": 2824,
      "کارکنان": 2825,
      "استاد": 2826,
      "چک": 2827,
      "آلوده": 2828,
      "گرفتند": 2829,
      "یاط": 2830,
      "زدن": 2831,
      "خام": 2832,
      "آه": 2833,
      "بس": 2834,
      "دنیای": 2835,
      "بریت": 2836,
      "ولین": 2837,
      "خصوص": 2838,
      "سرزمین": 2839,
      "صبر": 2840,
      "برنده": 2841,
      "اعترا": 2842,
      "دشمن": 2843,
      "سبز": 2844,
      "لوم": 2845,
      "آنقدر": 2846,
      "واشنگ": 2847,
      "تصور": 2848,
      "نخست": 2849,
      "واشنگتن": 2850,
      "75": 2851,
      "گره": 2852,
      "هره": 2853,
      "امتیاز": 2854,
      "Pro": 2855,
      "خالص": 2856,
      "الکترون": 2857,
      "درخت": 2858,
      "ضروری": 2859,
      "لامی": 2860,
      "دکمه": 2861,
      "چیزهای": 2862,
      "آشپز": 2863,
      "اداری": 2864,
      "سبزیجات": 2865,
      "تکمیل": 2866,
      "Premi": 2867,
      "خاصی": 2868,
      "متاسف": 2869,
      "زودی": 2870,
      "گریه": 2871,
      "تحق": 2872,
      "سازنده": 2873,
      "شمال": 2874,
      "بیاور": 2875,
      "امپ": 2876,
      "diet": 2877,
      "اسکن": 2878,
      "آژانس": 2879,
      "شاهزاده": 2880,
      "IN": 2881,
      "مرو": 2882,
      "Premium": 2883,
      "فعلی": 2884,
      "lv": 2885,
      "باری": 2886,
      "آهن": 2887,
      "فرار": 2888,
      "پرده": 2889,
      "ine": 2890,
      "اعتبار": 2891,
      "نوشته": 2892,
      "شناسایی": 2893,
      "منحصر": 2894,
      "پیروزی": 2895,
      "تونم": 2896,
      "all": 2897,
      "ation": 2898,
      "ali": 2899,
      "سرباز": 2900,
      "مونه": 2901,
      "متوسط": 2902,
      "جع": 2903,
      "محافظت": 2904,
      "برگرد": 2905,
      "کارگران": 2906,
      "معنای": 2907,
      "طر": 2908,
      "دانستم": 2909,
      "سلام": 2910,
      "صحیح": 2911,
      "پلیس": 2912,
      "گین": 2913,
      "تاج": 2914,
      "69": 2915,
      "گزینه": 2916,
      "روزنامه": 2917,
      "83": 2918,
      "برسد": 2919,
      "گانی": 2920,
      "سالن": 2921,
      "عاش": 2922,
      "سخنرانی": 2923,
      "شهرد": 2924,
      "غربی": 2925,
      "عجی": 2926,
      "سران": 2927,
      "دونی": 2928,
      "AR": 2929,
      "اطلاعاتی": 2930,
      "مکانی": 2931,
      "بده": 2932,
      "ولادی": 2933,
      "تهدید": 2934,
      "تحویل": 2935,
      "فهرست": 2936,
      "کاب": 2937,
      "قبلی": 2938,
      "ماد": 2939,
      "ness": 2940,
      "داستان": 2941,
      "EP": 2942,
      "قادر": 2943,
      "سیلو": 2944,
      "زیره": 2945,
      "جال": 2946,
      "طوری": 2947,
      "رفتن": 2948,
      "فرودگاه": 2949,
      "ive": 2950,
      "وش": 2951,
      "تز": 2952,
      "درجه": 2953,
      "نیمه": 2954,
      "روم": 2955,
      "درایور": 2956,
      "ژیک": 2957,
      "گویند": 2958,
      "سوریه": 2959,
      "غام": 2960,
      "آلماتی": 2961,
      "ایف": 2962,
      "آشنا": 2963,
      "جزیره": 2964,
      "چهره": 2965,
      "مرورگر": 2966,
      "بتوانیم": 2967,
      "ort": 2968,
      "نگران": 2969,
      "شانس": 2970,
      "جانبه": 2971,
      "Ill": 2972,
      "راهی": 2973,
      "CO": 2974,
      "یدن": 2975,
      "انسانی": 2976,
      "EN": 2977,
      "پتر": 2978,
      "موضوعات": 2979,
      "An": 2980,
      "دکتر": 2981,
      "جهت": 2982,
      "حفا": 2983,
      "ille": 2984,
      "جایزه": 2985,
      "توانستم": 2986,
      "لز": 2987,
      "مهلت": 2988,
      "رهبری": 2989,
      "چپ": 2990,
      "نیستند": 2991,
      "درخ": 2992,
      "احترام": 2993,
      "شهرهای": 2994,
      "قانه": 2995,
      "اندن": 2996,
      "Re": 2997,
      "گوست": 2998,
      "Ne": 2999,
      "مالیات": 3000,
      "تمرکز": 3001,
      "رفتند": 3002,
      "چرخه": 3003,
      "فار": 3004,
      "احتمالا": 3005,
      "فلوریدا": 3006,
      "سهم": 3007,
      "auty": 3008,
      "رخ": 3009,
      "فرزندان": 3010,
      "94": 3011,
      "بیایید": 3012,
      "نگهداری": 3013,
      "inois": 3014,
      "مبلغ": 3015,
      "شناسان": 3016,
      "غذایی": 3017,
      "نمونه": 3018,
      "سکو": 3019,
      "73": 3020,
      "Illinois": 3021,
      "معمولا": 3022,
      "دستو": 3023,
      "اویر": 3024,
      "روزهای": 3025,
      "آمدند": 3026,
      "گال": 3027,
      "اصلاحات": 3028,
      "مدیره": 3029,
      "سوسی": 3030,
      "کتا": 3031,
      "beauty": 3032,
      "دراز": 3033,
      "حس": 3034,
      "میشی": 3035,
      "کارایی": 3036,
      "مجوز": 3037,
      "sys": 3038,
      "بتوانید": 3039,
      "انتخاباتی": 3040,
      "US": 3041,
      "کز": 3042,
      "dex": 3043,
      "مرز": 3044,
      "طلا": 3045,
      "تروری": 3046,
      "مهارت": 3047,
      "یکا": 3048,
      "داشتن": 3049,
      "EA": 3050,
      "شبیه": 3051,
      "تسلیم": 3052,
      "انداخت": 3053,
      "متوقف": 3054,
      "آگوست": 3055,
      "قایق": 3056,
      "جاست": 3057,
      "جذب": 3058,
      "وک": 3059,
      "رقابت": 3060,
      "دائ": 3061,
      "اظه": 3062,
      "الز": 3063,
      "سفیر": 3064,
      "ایران": 3065,
      "جعه": 3066,
      "تاسیس": 3067,
      "اظهار": 3068,
      "افرادی": 3069,
      "یهودیان": 3070,
      "ماهه": 3071,
      "منجر": 3072,
      "آهنگ": 3073,
      "برداری": 3074,
      "سکی": 3075,
      "مجموع": 3076,
      "ES": 3077,
      "تلویزیون": 3078,
      "ub": 3079,
      "ya": 3080,
      "یادآوری": 3081,
      "موثر": 3082,
      "تعدادی": 3083,
      "تصاویر": 3084,
      "دبیر": 3085,
      "چربی": 3086,
      "یکدیگر": 3087,
      "یفه": 3088,
      "رسیدن": 3089,
      "بیل": 3090,
      "پذیرش": 3091,
      "حاوی": 3092,
      "هند": 3093,
      "کمپ": 3094,
      "شمند": 3095,
      "امکانات": 3096,
      "صفحات": 3097,
      "io": 3098,
      "کلید": 3099,
      "مقاله": 3100,
      "نیروی": 3101,
      "شخصیت": 3102,
      "وظیفه": 3103,
      "ell": 3104,
      "بیماری": 3105,
      "کلیسا": 3106,
      "IP": 3107,
      "متن": 3108,
      "نفس": 3109,
      "ang": 3110,
      "گن": 3111,
      "دهندگان": 3112,
      "Comp": 3113,
      "آگاه": 3114,
      "مجدد": 3115,
      "محتو": 3116,
      "مذه": 3117,
      "qu": 3118,
      "*******": 3119,
      "سالگرد": 3120,
      "لم": 3121,
      "اوراسیا": 3122,
      "قد": 3123,
      "سلطان": 3124,
      "هدایت": 3125,
      "ta": 3126,
      "جایگز": 3127,
      "آشپزخانه": 3128,
      "My": 3129,
      "نجی": 3130,
      "دای": 3131,
      "صه": 3132,
      "ژاپ": 3133,
      "مقابل": 3134,
      "AN": 3135,
      "خواسته": 3136,
      "اران": 3137,
      "شری": 3138,
      "84": 3139,
      "our": 3140,
      "اوم": 3141,
      "fit": 3142,
      "شام": 3143,
      "کامپیو": 3144,
      "تشکر": 3145,
      "قو": 3146,
      "رهبران": 3147,
      "ارتباطات": 3148,
      "نوعی": 3149,
      "شرق": 3150,
      "زبورگ": 3151,
      "حفاظت": 3152,
      "پخش": 3153,
      "روت": 3154,
      "لتونی": 3155,
      "شیط": 3156,
      "سایه": 3157,
      "مهند": 3158,
      "ژن": 3159,
      "نامی": 3160,
      "برگ": 3161,
      "کد": 3162,
      "لیک": 3163,
      "مثبت": 3164,
      "یهود": 3165,
      "حیوان": 3166,
      "بیدار": 3167,
      "500": 3168,
      "لبخ": 3169,
      "74": 3170,
      "ارستان": 3171,
      "Al": 3172,
      "لای": 3173,
      "oman": 3174,
      "فرصتی": 3175,
      "بکشید": 3176,
      "نشسته": 3177,
      "ضعیف": 3178,
      "وریت": 3179,
      "اوهای": 3180,
      "کارولین": 3181,
      "MM": 3182,
      "گیرند": 3183,
      "زنی": 3184,
      "index": 3185,
      "sh": 3186,
      "دریایی": 3187,
      "محبو": 3188,
      "تام": 3189,
      "نکنید": 3190,
      "بروید": 3191,
      "راهنمای": 3192,
      "غنی": 3193,
      "فردی": 3194,
      "تئ": 3195,
      "ach": 3196,
      "کلیدی": 3197,
      "صندلی": 3198,
      "تبلیغات": 3199,
      "نفره": 3200,
      "ادا": 3201,
      "برگزاری": 3202,
      "پاری": 3203,
      "محکو": 3204,
      "رویدادهای": 3205,
      "جنوب": 3206,
      "گور": 3207,
      "بدترین": 3208,
      "ایستاده": 3209,
      "تجدید": 3210,
      "وای": 3211,
      "پذیری": 3212,
      "زیبایی": 3213,
      "اوهایو": 3214,
      "ادغام": 3215,
      "ثبات": 3216,
      "اورش": 3217,
      "مواف": 3218,
      "چسب": 3219,
      "ورز": 3220,
      "قرمز": 3221,
      "93": 3222,
      "بقی": 3223,
      "تعهد": 3224,
      "exe": 3225,
      "خشم": 3226,
      "دشوار": 3227,
      "متق": 3228,
      "ایشان": 3229,
      "فرانسوی": 3230,
      "fitness": 3231,
      "اورشلیم": 3232,
      "تین": 3233,
      "قلمرو": 3234,
      "2004": 3235,
      "انتق": 3236,
      "ناگهان": 3237,
      "ویق": 3238,
      "نورسلطان": 3239,
      "قرقی": 3240,
      "»،": 3241,
      "ترکیب": 3242,
      "شراب": 3243,
      "استخر": 3244,
      "دانیم": 3245,
      "سند": 3246,
      "میشیگان": 3247,
      "تکان": 3248,
      "کارولینای": 3249,
      "کلمات": 3250,
      "کنگره": 3251,
      "گاری": 3252,
      "خودکار": 3253,
      "زح": 3254,
      "قرقیز": 3255,
      "خرد": 3256,
      "چای": 3257,
      "ee": 3258,
      "ity": 3259,
      "موافقت": 3260,
      "شریک": 3261,
      "استاندار": 3262,
      "پارلمان": 3263,
      "سیلوانیا": 3264,
      "وگ": 3265,
      "پسران": 3266,
      "جور": 3267,
      "یمه": 3268,
      "فرستاد": 3269,
      "اینترنتی": 3270,
      "منتقل": 3271,
      "68": 3272,
      "امسال": 3273,
      "اینک": 3274,
      "توزی": 3275,
      "رودخانه": 3276,
      "بنیاد": 3277,
      "آموخت": 3278,
      "پرست": 3279,
      "پنسیلوانیا": 3280,
      "گذشت": 3281,
      "اضی": 3282,
      "دعا": 3283,
      "63": 3284,
      "کرات": 3285,
      "پایدار": 3286,
      "مانه": 3287,
      "رم": 3288,
      "دروغ": 3289,
      "تحمل": 3290,
      "جمعی": 3291,
      "پورت": 3292,
      "معتقد": 3293,
      "woman": 3294,
      "طیف": 3295,
      "کارشناسان": 3296,
      "موسسات": 3297,
      "ct": 3298,
      "لغو": 3299,
      "دیدم": 3300,
      "92": 3301,
      "احمق": 3302,
      "پایتخت": 3303,
      "zh": 3304,
      "کشورها": 3305,
      "نظرات": 3306,
      "نوشید": 3307,
      "دقت": 3308,
      "جنسی": 3309,
      "دستی": 3310,
      "مها": 3311,
      "برگشت": 3312,
      "بقیه": 3313,
      "ترجمه": 3314,
      "PS": 3315,
      "حاصل": 3316,
      "یخ": 3317,
      "سوئ": 3318,
      "عهده": 3319,
      "قرقیزستان": 3320,
      "عادل": 3321,
      "استاندارد": 3322,
      "بگو": 3323,
      "غرب": 3324,
      "کوف": 3325,
      "سخنان": 3326,
      "بریتانیا": 3327,
      "دیپل": 3328,
      "تکر": 3329,
      "هاست": 3330,
      "متری": 3331,
      "شف": 3332,
      "ابتکار": 3333,
      "عمیق": 3334,
      "زنگ": 3335,
      "گویید": 3336,
      "pro": 3337,
      "EXP": 3338,
      "مربوطه": 3339,
      "الم": 3340,
      "ville": 3341,
      "ندارند": 3342,
      "راج": 3343,
      "صبحانه": 3344,
      "رهبر": 3345,
      "مسیحی": 3346,
      "عزیزم": 3347,
      "شجاعت": 3348,
      "روسای": 3349,
      "بحران": 3350,
      "ورودی": 3351,
      "توزیع": 3352,
      "استراتژی": 3353,
      "پارچه": 3354,
      "ts": 3355,
      "اخی": 3356,
      "Bro": 3357,
      "out": 3358,
      "چطور": 3359,
      "300": 3360,
      "معمولی": 3361,
      "ER": 3362,
      "هوای": 3363,
      "هوایی": 3364,
      "پترزبورگ": 3365,
      "ities": 3366,
      "انع": 3367,
      "اوا": 3368,
      "غول": 3369,
      "جرا": 3370,
      "فیلی": 3371,
      "خودت": 3372,
      "72": 3373,
      "دانند": 3374,
      "چیزهایی": 3375,
      "ریب": 3376,
      "ack": 3377,
      "سفارش": 3378,
      "بدهی": 3379,
      "Fl": 3380,
      "AM": 3381,
      "عصب": 3382,
      "جس": 3383,
      "عمد": 3384,
      "news": 3385,
      "دوش": 3386,
      "حاف": 3387,
      ".\"\"\"\"\"": 3388,
      "ادوارد": 3389,
      "درنگ": 3390,
      "تمر": 3391,
      "بازیابی": 3392,
      "ملک": 3393,
      "امتح": 3394,
      "مصر": 3395,
      "کاز": 3396,
      "هایم": 3397,
      "دیگه": 3398,
      "اولویت": 3399,
      "مذهبی": 3400,
      "دیر": 3401,
      "علوم": 3402,
      "الکترونیکی": 3403,
      "آموزان": 3404,
      "شنیده": 3405,
      "\"\"\"\"\"\"": 3406,
      "عج": 3407,
      "اخیر": 3408,
      "نزدیکی": 3409,
      "شناخت": 3410,
      "پرا": 3411,
      "بلافاصله": 3412,
      "رایی": 3413,
      "امتحان": 3414,
      "Mar": 3415,
      "مطمئ": 3416,
      "بروم": 3417,
      "عار": 3418,
      "په": 3419,
      "اصول": 3420,
      "گردشگری": 3421,
      "ایع": 3422,
      "ادع": 3423,
      "صرف": 3424,
      "AC": 3425,
      "سوار": 3426,
      "گوشت": 3427,
      "co": 3428,
      "تقسیم": 3429,
      "ton": 3430,
      "استقبال": 3431,
      "مقررات": 3432,
      "باشگاه": 3433,
      "ast": 3434,
      "EXPO": 3435,
      "برمی": 3436,
      "بخانه": 3437,
      "مشاوره": 3438,
      "inf": 3439,
      "Kaz": 3440,
      "بودیم": 3441,
      "فض": 3442,
      "ندارم": 3443,
      "امله": 3444,
      "پیچیده": 3445,
      "راتور": 3446,
      "نعل": 3447,
      "گنج": 3448,
      "آمریکایی": 3449,
      "ace": 3450,
      "\"\"\"\".\"\"\"": 3451,
      "آرزو": 3452,
      "بودی": 3453,
      "پادشاهی": 3454,
      "stad": 3455,
      "الکس": 3456,
      "ver": 3457,
      "هشت": 3458,
      "کیه": 3459,
      "رساند": 3460,
      "خم": 3461,
      "آگاهی": 3462,
      "راد": 3463,
      "وظایف": 3464,
      "</": 3465,
      "سنتی": 3466,
      "عمدتا": 3467,
      "Sy": 3468,
      "بندیان": 3469,
      "ایتالیا": 3470,
      "خورده": 3471,
      "کنش": 3472,
      "پیشرفته": 3473,
      "شهری": 3474,
      "دریاچه": 3475,
      "اسب": 3476,
      "ساکن": 3477,
      "نیازهای": 3478,
      "Win32": 3479,
      "بیاید": 3480,
      "وین": 3481,
      "پرول": 3482,
      "سوخت": 3483,
      "فیز": 3484,
      "ضربه": 3485,
      "ساختار": 3486,
      "فدرال": 3487,
      "ولادیمیر": 3488,
      "ard": 3489,
      "ابراز": 3490,
      "سابق": 3491,
      "طبیعت": 3492,
      "سیان": 3493,
      "مدا": 3494,
      "عصبانی": 3495,
      "اجرایی": 3496,
      "ورزشی": 3497,
      "ons": 3498,
      "ثروت": 3499,
      "اتری": 3500,
      "na": 3501,
      "پایگاه": 3502,
      "لب": 3503,
      "بره": 3504,
      "مسئول": 3505,
      "تمرین": 3506,
      "افزود": 3507,
      "طوف": 3508,
      "ریسک": 3509,
      "سلاح": 3510,
      "ماتیک": 3511,
      "تاریکی": 3512,
      "2000": 3513,
      "مسلح": 3514,
      "لعنتی": 3515,
      "سرت": 3516,
      "آلمانی": 3517,
      "آوردم": 3518,
      "no": 3519,
      "قضاوت": 3520,
      "cz": 3521,
      "نعلبندیان": 3522,
      "افتاده": 3523,
      "عجیب": 3524,
      "نیستم": 3525,
      "هوم": 3526,
      "بخوان": 3527,
      "استقل": 3528,
      "ارمنی": 3529,
      "مخالف": 3530,
      "ملت": 3531,
      "املاک": 3532,
      "دوبار": 3533,
      "نمایندگی": 3534,
      "ستاره": 3535,
      "پوست": 3536,
      "استقلال": 3537,
      "ash": 3538,
      "Sp": 3539,
      "واد": 3540,
      "شوهر": 3541,
      "هیل": 3542,
      "ساکنان": 3543,
      "ایای": 3544,
      "مونت": 3545,
      "حبو": 3546,
      "فق": 3547,
      "معدنی": 3548,
      "br": 3549,
      "جستجوی": 3550,
      "مدافع": 3551,
      "ناشی": 3552,
      "شیمی": 3553,
      "بول": 3554,
      "):": 3555,
      "معنی": 3556,
      "کشیده": 3557,
      "عظ": 3558,
      "باین": 3559,
      "کاربران": 3560,
      "حبوبات": 3561,
      "]]": 3562,
      "stadt": 3563,
      "ref": 3564,
      "کارآفر": 3565,
      "بفهمید": 3566,
      "معنوی": 3567,
      "جشنو": 3568,
      "جشنواره": 3569,
      "رع": 3570,
      "if": 3571,
      "اشی": 3572,
      "خودرو": 3573,
      "کیت": 3574,
      "بستگی": 3575,
      "فراتر": 3576,
      "معامله": 3577,
      "دوران": 3578,
      "کنه": 3579,
      "انگار": 3580,
      "OS": 3581,
      "پوکر": 3582,
      "انح": 3583,
      "لاند": 3584,
      "امنیتی": 3585,
      "صاح": 3586,
      "عصر": 3587,
      "مجه": 3588,
      "شماست": 3589,
      "پور": 3590,
      "سپرده": 3591,
      "آث": 3592,
      "lo": 3593,
      "معروف": 3594,
      "پری": 3595,
      "مراکز": 3596,
      "دریای": 3597,
      "افتخار": 3598,
      "atech": 3599,
      "بارها": 3600,
      "تعجب": 3601,
      "وزن": 3602,
      "uter": 3603,
      "فایلی": 3604,
      "ran": 3605,
      "محبوب": 3606,
      "ona": 3607,
      "درگیری": 3608,
      "مجهز": 3609,
      "نها": 3610,
      "الح": 3611,
      "علم": 3612,
      "آفری": 3613,
      "تکرار": 3614,
      "su": 3615,
      "iratech": 3616,
      "خواستم": 3617,
      "برتر": 3618,
      "اتص": 3619,
      "جالب": 3620,
      "ord": 3621,
      "arch": 3622,
      "بلی": 3623,
      "تکن": 3624,
      "بگم": 3625,
      "عدالت": 3626,
      "دیوار": 3627,
      "بهداشت": 3628,
      "اراده": 3629,
      "بهداشتی": 3630,
      "فنلاند": 3631,
      "عجله": 3632,
      "کلام": 3633,
      "گروهی": 3634,
      "رویک": 3635,
      "غیرقابل": 3636,
      "ms": 3637,
      "اردو": 3638,
      "91": 3639,
      "مطمئنا": 3640,
      "AP": 3641,
      "عمر": 3642,
      "باینری": 3643,
      "اینطور": 3644,
      "سوالات": 3645,
      "مندان": 3646,
      "CS": 3647,
      "دستان": 3648,
      "Tro": 3649,
      "نشی": 3650,
      "تروی": 3651,
      "جک": 3652,
      "پدرش": 3653,
      "فکس": 3654,
      "پردازش": 3655,
      "کشته": 3656,
      "نگرانی": 3657,
      "تعمیر": 3658,
      "مطرح": 3659,
      "لبخند": 3660,
      "طرفین": 3661,
      "AK": 3662,
      "گذاران": 3663,
      "استانداردهای": 3664,
      "رعایت": 3665,
      "میرا": 3666,
      "فوت": 3667,
      "هیجان": 3668,
      "دهان": 3669,
      "CD": 3670,
      "بدهد": 3671,
      "ایوان": 3672,
      "متخصصان": 3673,
      "ud": 3674,
      "جنگل": 3675,
      "کتابخانه": 3676,
      "مهمانان": 3677,
      "بزن": 3678,
      "مدنی": 3679,
      "ویرجین": 3680,
      "نداشته": 3681,
      "jan": 3682,
      "تخص": 3683,
      "زیرساخت": 3684,
      "اکثر": 3685,
      "نوآوری": 3686,
      "تبا": 3687,
      "Computer": 3688,
      "خشک": 3689,
      "ian": 3690,
      "رژ": 3691,
      "الق": 3692,
      "ماموریت": 3693,
      "توانایی": 3694,
      "دیدگاه": 3695,
      "کنونی": 3696,
      "eg": 3697,
      "per": 3698,
      "خالی": 3699,
      "باشی": 3700,
      "فوری": 3701,
      "لاف": 3702,
      "رمز": 3703,
      "Brows": 3704,
      "تعریف": 3705,
      "مذاک": 3706,
      "انقلابی": 3707,
      "سگ": 3708,
      "En": 3709,
      "رنج": 3710,
      "پارکینگ": 3711,
      "ثی": 3712,
      "صو": 3713,
      "فرض": 3714,
      "نامز": 3715,
      "اصلا": 3716,
      "پیوست": 3717,
      "iew": 3718,
      "میزبان": 3719,
      "تحصیل": 3720,
      "صحنه": 3721,
      "تفاوت": 3722,
      "شوی": 3723,
      "لطف": 3724,
      "عوض": 3725,
      "ارگان": 3726,
      "62": 3727,
      "رشته": 3728,
      "اجزای": 3729,
      "استع": 3730,
      "لینک": 3731,
      "مراجعه": 3732,
      "بگیرم": 3733,
      "دهه": 3734,
      "واض": 3735,
      "Browse": 3736,
      "جایگزین": 3737,
      "وسایل": 3738,
      "ویک": 3739,
      "ناتو": 3740,
      "فروشگاه": 3741,
      "نکن": 3742,
      "میتونم": 3743,
      "صحیحی": 3744,
      "ایستاد": 3745,
      "New": 3746,
      "درگیر": 3747,
      "نقض": 3748,
      "]]>": 3749,
      "محکوم": 3750,
      "ناح": 3751,
      "زاب": 3752,
      "خسته": 3753,
      "پاریس": 3754,
      "جلوی": 3755,
      "دانشجوی": 3756,
      "سمین": 3757,
      "ina": 3758,
      "معتبر": 3759,
      "سوسیالی": 3760,
      "خروج": 3761,
      "طلب": 3762,
      "کامپیوتر": 3763,
      "بعدا": 3764,
      "برند": 3765,
      "برداشت": 3766,
      "لیتوانی": 3767,
      "care": 3768,
      "فول": 3769,
      "AB": 3770,
      "رایج": 3771,
      "اهه": 3772,
      "خواندن": 3773,
      "TC": 3774,
      "جلسات": 3775,
      "احساسات": 3776,
      "پیشرو": 3777,
      "یاس": 3778,
      "رضایت": 3779,
      "نویسنده": 3780,
      "آنگاه": 3781,
      "تناب": 3782,
      "افتد": 3783,
      "ey": 3784,
      "اجتناب": 3785,
      "باب": 3786,
      "هستانی": 3787,
      "میخو": 3788,
      "وضو": 3789,
      "الکسان": 3790,
      "بکش": 3791,
      "قهرمان": 3792,
      "بارسل": 3793,
      "تاجیک": 3794,
      "pl": 3795,
      "دوچرخه": 3796,
      "برادران": 3797,
      "دروازه": 3798,
      "ترجی": 3799,
      "PR": 3800,
      "محدودیت": 3801,
      "اتخا": 3802,
      "مذاکرات": 3803,
      "اتخاذ": 3804,
      "آرامی": 3805,
      "دستیابی": 3806,
      "end": 3807,
      "آثار": 3808,
      "ادمی": 3809,
      "\"«": 3810,
      "تشویق": 3811,
      "زحمت": 3812,
      "79": 3813,
      "اتفاقی": 3814,
      "دموکرات": 3815,
      "آزار": 3816,
      "چاق": 3817,
      "وضوح": 3818,
      "حلی": 3819,
      "انبار": 3820,
      "gstadt": 3821,
      "ترد": 3822,
      "بازر": 3823,
      "دف": 3824,
      "فیلیپ": 3825,
      "ice": 3826,
      "سازد": 3827,
      "enn": 3828,
      "اتوبوس": 3829,
      "-.": 3830,
      "بیفت": 3831,
      "بیات": 3832,
      "جامع": 3833,
      "دهقان": 3834,
      "بزرگتر": 3835,
      "مداوم": 3836,
      "IT": 3837,
      "صادرات": 3838,
      "رژیم": 3839,
      "هشد": 3840,
      "ارشد": 3841,
      "بیمه": 3842,
      "واب": 3843,
      "اومت": 3844,
      "هنری": 3845,
      "کردید": 3846,
      "رسول": 3847,
      "تبریک": 3848,
      "82": 3849,
      "ینو": 3850,
      "مقاومت": 3851,
      "ایندی": 3852,
      "فهم": 3853,
      "مونی": 3854,
      "درون": 3855,
      "غذی": 3856,
      "قرض": 3857,
      "نیازی": 3858,
      "نقره": 3859,
      "اعط": 3860,
      "زر": 3861,
      "71": 3862,
      "کلاه": 3863,
      "آکادمی": 3864,
      "وسیله": 3865,
      "تاجیکستان": 3866,
      "ادویه": 3867,
      "چیزها": 3868,
      "81": 3869,
      "پیم": 3870,
      "سربازان": 3871,
      "فردا": 3872,
      "PP": 3873,
      "زندان": 3874,
      "nia": 3875,
      "سانتی": 3876,
      "شاد": 3877,
      "oft": 3878,
      "La": 3879,
      "href": 3880,
      "ka": 3881,
      "باران": 3882,
      "مبتنی": 3883,
      "بخور": 3884,
      "قدردانی": 3885,
      "MS": 3886,
      "ware": 3887,
      "بگذارید": 3888,
      "سلامت": 3889,
      "صلاح": 3890,
      "VIS": 3891,
      "انیان": 3892,
      "پرونده": 3893,
      "لوله": 3894,
      "Cl": 3895,
      "مسافر": 3896,
      "مصاح": 3897,
      "واضح": 3898,
      "ایا": 3899,
      "شدیم": 3900,
      "اخلا": 3901,
      "تکه": 3902,
      "انگیزه": 3903,
      "مصاحبه": 3904,
      "عک": 3905,
      "تنهایی": 3906,
      "حلقه": 3907,
      "تعمی": 3908,
      "محیطی": 3909,
      "مفهوم": 3910,
      ")\"\"\"": 3911,
      "عملیاتی": 3912,
      "ناب": 3913,
      "چم": 3914,
      "ویرجینیا": 3915,
      "صلی": 3916,
      "قلعه": 3917,
      "عدد": 3918,
      "حیوانات": 3919,
      "تحریک": 3920,
      "نتوانست": 3921,
      "سیر": 3922,
      "توی": 3923,
      "مهندسی": 3924,
      "تابستان": 3925,
      "جذاب": 3926,
      "دز": 3927,
      "Max": 3928,
      ">>": 3929,
      "بتواند": 3930,
      "لاهه": 3931,
      "سلی": 3932,
      "خشونت": 3933,
      "ros": 3934,
      "رسیدگی": 3935,
      "De": 3936,
      "61": 3937,
      "ژاپن": 3938,
      "پال": 3939,
      "مراقب": 3940,
      "بمان": 3941,
      "0x": 3942,
      "عض": 3943,
      "int": 3944,
      "متمرکز": 3945,
      "شاخص": 3946,
      "ورش": 3947,
      "تات": 3948,
      "موقع": 3949,
      "نما": 3950,
      "یهودا": 3951,
      "تیک": 3952,
      "Mal": 3953,
      "اعتراف": 3954,
      "جنبه": 3955,
      "شیطان": 3956,
      "شلو": 3957,
      "شرکای": 3958,
      "اسپانیا": 3959,
      "Cali": 3960,
      "روبل": 3961,
      "مساحت": 3962,
      "موتور": 3963,
      "دیه": 3964,
      "شرط": 3965,
      "1393": 3966,
      "ببینم": 3967,
      "وعده": 3968,
      "هات": 3969,
      "MG": 3970,
      "مسئله": 3971,
      "II": 3972,
      "نقاشی": 3973,
      "G20": 3974,
      "بخشید": 3975,
      "ناز": 3976,
      "درستی": 3977,
      "مگر": 3978,
      "هنرم": 3979,
      "پناه": 3980,
      "مجازات": 3981,
      "جیت": 3982,
      "مسکن": 3983,
      "مهمانی": 3984,
      "جنبش": 3985,
      "بیک": 3986,
      "تمیز": 3987,
      "fornia": 3988,
      "مشکلی": 3989,
      "جد": 3990,
      "Sh": 3991,
      "California": 3992,
      "دستورال": 3993,
      "لهستان": 3994,
      "Go": 3995,
      "کارها": 3996,
      "غلی": 3997,
      "bl": 3998,
      "هار": 3999,
      "مدتی": 4000,
      "قهوه": 4001,
      "مشغول": 4002,
      "خلق": 4003,
      "میکنی": 4004,
      "Trojan": 4005,
      "لیلی": 4006,
      "بالایی": 4007,
      "The": 4008,
      "مهمی": 4009,
      "زمز": 4010,
      "زمزمه": 4011,
      "بدتر": 4012,
      "صدی": 4013,
      "ابی": 4014,
      "هایشان": 4015,
      "الزامات": 4016,
      "سق": 4017,
      "تمایل": 4018,
      "rav": 4019,
      "ry": 4020,
      "ge": 4021,
      "مخفی": 4022,
      "ai": 4023,
      "بگذارد": 4024,
      "دستش": 4025,
      "عزیز": 4026,
      "دارو": 4027,
      "کشد": 4028,
      "اصط": 4029,
      "اخیرا": 4030,
      "تبادل": 4031,
      "برخور": 4032,
      "باما": 4033,
      "عادت": 4034,
      "پوتین": 4035,
      "سول": 4036,
      "همسر": 4037,
      "پوشیده": 4038,
      "رغم": 4039,
      "تهویه": 4040,
      "BD": 4041,
      "آجیل": 4042,
      "دستورالعمل": 4043,
      "بدهم": 4044,
      "نهادهای": 4045,
      "ny": 4046,
      "یدند": 4047,
      "همزمان": 4048,
      "سرنوشت": 4049,
      "MT": 4050,
      "دوجانبه": 4051,
      "تقاض": 4052,
      "صنایع": 4053,
      "هماهنگی": 4054,
      "زاس": 4055,
      "سیتی": 4056,
      "تماشا": 4057,
      "IC": 4058,
      "برخورد": 4059,
      "روزانه": 4060,
      "ویتامین": 4061,
      "بازخورد": 4062,
      "پتان": 4063,
      "ماهیر": 4064,
      "جماهیر": 4065,
      "uc": 4066,
      "محدوده": 4067,
      "عرضه": 4068,
      "متقابل": 4069,
      "تحقق": 4070,
      "____": 4071,
      "ریت": 4072,
      "والدین": 4073,
      "داره": 4074,
      "جلال": 4075,
      "گیریم": 4076,
      "انگشت": 4077,
      "بازگرد": 4078,
      "=\"\"\"\"": 4079,
      "AL": 4080,
      "سکوت": 4081,
      "ایق": 4082,
      "مسدود": 4083,
      "آوردن": 4084,
      "بارگذاری": 4085,
      "راق": 4086,
      "تاریک": 4087,
      "همکاران": 4088,
      "غان": 4089,
      "ark": 4090,
      "عنا": 4091,
      "فرماندار": 4092,
      "چشمانش": 4093,
      "ابر": 4094,
      "کارگر": 4095,
      "ببرید": 4096,
      "شاخ": 4097,
      "بالاترین": 4098,
      "هشدار": 4099,
      "اعد": 4100,
      "دیجیت": 4101,
      "غن": 4102,
      "بانکی": 4103,
      "پرورش": 4104,
      "سالم": 4105,
      "آرزوی": 4106,
      "حین": 4107,
      "خند": 4108,
      "افکار": 4109,
      "جلب": 4110,
      "باکو": 4111,
      "Con": 4112,
      "سور": 4113,
      "کمپین": 4114,
      "کنوان": 4115,
      "med": 4116,
      "القدس": 4117,
      "کنوانسیون": 4118,
      "جاد": 4119,
      "سواری": 4120,
      "سرگ": 4121,
      "اصر": 4122,
      "لندن": 4123,
      "بماند": 4124,
      "archive": 4125,
      "stem": 4126,
      "جرسی": 4127,
      "امیدوارم": 4128,
      "0000": 4129,
      "افزارهای": 4130,
      "فورا": 4131,
      "پولی": 4132,
      "یکپارچه": 4133,
      "own": 4134,
      "کول": 4135,
      "وردا": 4136,
      "تباری": 4137,
      "ich": 4138,
      "اعتباری": 4139,
      "جداگانه": 4140,
      "uk": 4141,
      "TM": 4142,
      "res": 4143,
      "پتانسیل": 4144,
      "نوآور": 4145,
      "bur": 4146,
      "شمش": 4147,
      "بینم": 4148,
      "خانواد": 4149,
      "داوود": 4150,
      "باله": 4151,
      "دیوانه": 4152,
      "رقص": 4153,
      "تنگ": 4154,
      "دومین": 4155,
      "ana": 4156,
      "صری": 4157,
      "هور": 4158,
      "فارغ": 4159,
      "نفع": 4160,
      "ضع": 4161,
      "چهارم": 4162,
      "ras": 4163,
      "پیما": 4164,
      "کانزاس": 4165,
      "توضیحات": 4166,
      "برقرار": 4167,
      "خانوادگی": 4168,
      "خاست": 4169,
      "ازده": 4170,
      "بهادار": 4171,
      "شیوه": 4172,
      "استث": 4173,
      "عاشق": 4174,
      "آقا": 4175,
      "نوسازی": 4176,
      "gro": 4177,
      "کپی": 4178,
      "فهمیدم": 4179,
      "====": 4180,
      "قبول": 4181,
      "توده": 4182,
      "دامنه": 4183,
      "COM": 4184,
      "اسلامی": 4185,
      "معمول": 4186,
      "Ut": 4187,
      "مزر": 4188,
      "صاد": 4189,
      "مامان": 4190,
      "نشیمن": 4191,
      "خنده": 4192,
      "مزرعه": 4193,
      "آتل": 4194,
      "میدونی": 4195,
      "نشین": 4196,
      "وجه": 4197,
      "ترجیح": 4198,
      "استراتژیک": 4199,
      "راس": 4200,
      "برچسب": 4201,
      "الکساندر": 4202,
      "ویزا": 4203,
      "ارتی": 4204,
      "سنگی": 4205,
      "نز": 4206,
      "تراس": 4207,
      "بورژو": 4208,
      "توپ": 4209,
      "سرخ": 4210,
      "مترو": 4211,
      "2003": 4212,
      "ork": 4213,
      "یادداشت": 4214,
      "وحشی": 4215,
      "افتادن": 4216,
      "رویه": 4217,
      "قتل": 4218,
      "مدارس": 4219,
      "گالری": 4220,
      "ایندیانا": 4221,
      "عملکرده": 4222,
      "آلا": 4223,
      "منو": 4224,
      "شیو": 4225,
      "West": 4226,
      "AD": 4227,
      "ذه": 4228,
      "MMK": 4229,
      "تدری": 4230,
      "دیرو": 4231,
      "آدم": 4232,
      "متی": 4233,
      "ترویج": 4234,
      "Ex": 4235,
      "150": 4236,
      "Car": 4237,
      "آو": 4238,
      "الهی": 4239,
      "te": 4240,
      "شعر": 4241,
      "سلامتی": 4242,
      "خوانده": 4243,
      "گراف": 4244,
      "لنین": 4245,
      "متاسفم": 4246,
      "ff": 4247,
      "land": 4248,
      "Ad": 4249,
      "حکم": 4250,
      "فساد": 4251,
      "پرت": 4252,
      "متعل": 4253,
      "نکند": 4254,
      "سقوط": 4255,
      "لر": 4256,
      "495": 4257,
      "NC": 4258,
      ".)": 4259,
      "IF": 4260,
      "بردن": 4261,
      "310": 4262,
      "گواهی": 4263,
      "نداد": 4264,
      "مهربان": 4265,
      "پروت": 4266,
      "سوری": 4267,
      "سمینار": 4268,
      "اتصال": 4269,
      "پرسی": 4270,
      "منظره": 4271,
      "محتوای": 4272,
      "متعلق": 4273,
      "ژول": 4274,
      "قطار": 4275,
      "آرشیو": 4276,
      "توقف": 4277,
      "بیمارستان": 4278,
      "میراث": 4279,
      "NB": 4280,
      "مالیاتی": 4281,
      "جعبه": 4282,
      "AKVIS": 4283,
      "دیروقت": 4284,
      "اهد": 4285,
      "قطعات": 4286,
      "گرمی": 4287,
      "گوشه": 4288,
      "Co": 4289,
      "شاهد": 4290,
      "تلفی": 4291,
      "sa": 4292,
      "امروزه": 4293,
      "کانال": 4294,
      "نادیده": 4295,
      "سار": 4296,
      "نات": 4297,
      "ida": 4298,
      "مادی": 4299,
      "فیف": 4300,
      "لمانی": 4301,
      "بازیکن": 4302,
      "مغذی": 4303,
      "خلاف": 4304,
      "قدرتمند": 4305,
      "برخاست": 4306,
      "نیوجرسی": 4307,
      "مبنی": 4308,
      "isc": 4309,
      "فریب": 4310,
      "تصاد": 4311,
      "حک": 4312,
      "گراد": 4313,
      "اعتق": 4314,
      "هدیه": 4315,
      "اشعار": 4316,
      "کلیه": 4317,
      "ber": 4318,
      "فور": 4319,
      "RM": 4320,
      "VD": 4321,
      "مشتا": 4322,
      "اشتغال": 4323,
      "قیب": 4324,
      "کیلوگرم": 4325,
      "کنسرت": 4326,
      "ناپذیر": 4327,
      "بهینه": 4328,
      "نوآورانه": 4329,
      "نظری": 4330,
      "/.": 4331,
      "کارا": 4332,
      "دانشجویان": 4333,
      "ناسب": 4334,
      "چیه": 4335,
      "ندارید": 4336,
      "هواپیما": 4337,
      "شمشیر": 4338,
      "عناصر": 4339,
      "ببیند": 4340,
      "نژ": 4341,
      "کاخ": 4342,
      "MAG": 4343,
      "عن": 4344,
      "سرگئی": 4345,
      "کده": 4346,
      "PD": 4347,
      "طرز": 4348,
      "معماری": 4349,
      "اوکراینی": 4350,
      "جزایر": 4351,
      "پذیرفته": 4352,
      "System": 4353,
      "دوستی": 4354,
      "جواب": 4355,
      "خانگی": 4356,
      "محاس": 4357,
      "بخوانید": 4358,
      "شهردار": 4359,
      "تال": 4360,
      "اجباری": 4361,
      "توافقنامه": 4362,
      "چینی": 4363,
      "احزاب": 4364,
      "رویکرد": 4365,
      "اجلاس": 4366,
      "سطوح": 4367,
      "اوست": 4368,
      "دردسر": 4369,
      "کاست": 4370,
      "بازیکنان": 4371,
      "ماسا": 4372,
      "view": 4373,
      "ودار": 4374,
      "کوب": 4375,
      "سنگین": 4376,
      "زودتر": 4377,
      "پرولتار": 4378,
      "ناامید": 4379,
      "نظم": 4380,
      "نقاط": 4381,
      "ابعاد": 4382,
      "مراحل": 4383,
      "مطبوع": 4384,
      "پرولتاریا": 4385,
      "موقت": 4386,
      "دندان": 4387,
      "2020": 4388,
      "PL": 4389,
      "ect": 4390,
      "پسوندهای": 4391,
      "گذرد": 4392,
      "نسب": 4393,
      "top": 4394,
      "مناسبت": 4395,
      "تئاتر": 4396,
      "شرکتی": 4397,
      "پلی": 4398,
      "غذیه": 4399,
      "آوردند": 4400,
      "قومی": 4401,
      "روغن": 4402,
      "400": 4403,
      "کوچکی": 4404,
      "حکو": 4405,
      "دلایل": 4406,
      "دونم": 4407,
      "IV": 4408,
      "مقد": 4409,
      "طوفان": 4410,
      "ویکتور": 4411,
      "amp": 4412,
      "وات": 4413,
      "توبه": 4414,
      "منفی": 4415,
      "بازدیدکنندگان": 4416,
      "تفری": 4417,
      "الا": 4418,
      "دائمی": 4419,
      "تصمیمات": 4420,
      "نامزد": 4421,
      "فیزیکی": 4422,
      "نباشد": 4423,
      "منا": 4424,
      "گفتن": 4425,
      "گرفتیم": 4426,
      "اختلاف": 4427,
      "غلبه": 4428,
      "المپیک": 4429,
      "سوتا": 4430,
      "مقام": 4431,
      "خل": 4432,
      "کمو": 4433,
      "برانگی": 4434,
      "خلاصه": 4435,
      "سفارت": 4436,
      "فلسط": 4437,
      "ریا": 4438,
      "برآورده": 4439,
      "پارلمانی": 4440,
      "برده": 4441,
      "احتیاط": 4442,
      "ابدی": 4443,
      "محض": 4444,
      "نگاهی": 4445,
      "مگ": 4446,
      "واس": 4447,
      "600": 4448,
      "ارتفاع": 4449,
      "TO": 4450,
      "روستایی": 4451,
      "ایز": 4452,
      "راضی": 4453,
      "توف": 4454,
      "ولوژی": 4455,
      "کارآفرین": 4456,
      "پولس": 4457,
      "ناراحت": 4458,
      "برطرف": 4459,
      "anc": 4460,
      "ارام": 4461,
      "گند": 4462,
      "کارش": 4463,
      "ment": 4464,
      "امضای": 4465,
      "شورا": 4466,
      "بهت": 4467,
      "زدند": 4468,
      "برویم": 4469,
      "حدس": 4470,
      "cl": 4471,
      "بازداشت": 4472,
      ".\"\"\"\"\"\"\"": 4473,
      "توصی": 4474,
      "محبت": 4475,
      "بخشد": 4476,
      "الهام": 4477,
      "متقاعد": 4478,
      "کمونیست": 4479,
      "یافتن": 4480,
      "1388": 4481,
      "Gr": 4482,
      "روحیه": 4483,
      "بگویید": 4484,
      "بلوک": 4485,
      "برون": 4486,
      "استرا": 4487,
      "یوح": 4488,
      "v2": 4489,
      "کوک": 4490,
      "گوییم": 4491,
      "شیمیایی": 4492,
      "Mic": 4493,
      "واکنش": 4494,
      "جرات": 4495,
      "گیاه": 4496,
      "طلایی": 4497,
      "عکاسی": 4498,
      "Util": 4499,
      "مینسوتا": 4500,
      "انده": 4501,
      "مهاجر": 4502,
      "علامت": 4503,
      "to": 4504,
      "آوی": 4505,
      "تجر": 4506,
      "تردید": 4507,
      "اصطلاح": 4508,
      "ial": 4509,
      "برخوردار": 4510,
      "آزمای": 4511,
      "Fix": 4512,
      "da": 4513,
      "اگه": 4514,
      "صرفا": 4515,
      "/?": 4516,
      "آلات": 4517,
      "page": 4518,
      "شغلی": 4519,
      "معی": 4520,
      "تث": 4521,
      "تپه": 4522,
      "ارزان": 4523,
      "ویدیو": 4524,
      "نبرد": 4525,
      "شبانه": 4526,
      "press": 4527,
      "شفاف": 4528,
      "تغذیه": 4529,
      "گرایی": 4530,
      "اوایل": 4531,
      "امن": 4532,
      "واج": 4533,
      "خن": 4534,
      "شهادت": 4535,
      "مناق": 4536,
      "معامل": 4537,
      "فوذ": 4538,
      "خوشحالم": 4539,
      "مقرر": 4540,
      "پیشنهادات": 4541,
      "احتمالی": 4542,
      "روستا": 4543,
      "خودداری": 4544,
      "طعم": 4545,
      "بازارهای": 4546,
      "v1": 4547,
      "؟»": 4548,
      "محکم": 4549,
      "متصل": 4550,
      "میشه": 4551,
      "فضایی": 4552,
      "انیایی": 4553,
      "1000": 4554,
      "oma": 4555,
      "بگیریم": 4556,
      "مطابقت": 4557,
      "میانه": 4558,
      "IA": 4559,
      "اپراتور": 4560,
      "forum": 4561,
      "نسبتا": 4562,
      "شاگردان": 4563,
      "v4": 4564,
      "ناخالص": 4565,
      "غیرعادی": 4566,
      "قطعنامه": 4567,
      "ساکت": 4568,
      "یادگیری": 4569,
      "ME": 4570,
      "بلیط": 4571,
      "توری": 4572,
      "بپرداز": 4573,
      "یانو": 4574,
      "غرق": 4575,
      "عاق": 4576,
      "Hit": 4577,
      "نفوذ": 4578,
      "پارام": 4579,
      "دیک": 4580,
      "هزاران": 4581,
      "مادرش": 4582,
      "افغان": 4583,
      "ئون": 4584,
      "غیرممکن": 4585,
      "دهقانان": 4586,
      "ارامنه": 4587,
      "ریگا": 4588,
      "گواه": 4589,
      "suite": 4590,
      "ale": 4591,
      "آمدن": 4592,
      "عراق": 4593,
      "بالغ": 4594,
      "زیل": 4595,
      "روزه": 4596,
      "Malware": 4597,
      "خبری": 4598,
      "کالا": 4599,
      "کراسی": 4600,
      "وو": 4601,
      "dllsuite": 4602,
      "Fixer": 4603,
      "ماهیت": 4604,
      "oun": 4605,
      "رجیستر": 4606,
      "PCMAG": 4607,
      "نظام": 4608,
      "منظم": 4609,
      "خریداری": 4610,
      "Utilities": 4611,
      "انجیل": 4612,
      "بابا": 4613,
      "بیچ": 4614,
      "لبه": 4615,
      "ارتقا": 4616,
      "توصیف": 4617,
      "درصدی": 4618,
      "استیک": 4619,
      "غذاهای": 4620,
      "شرایطی": 4621,
      "وحشتناک": 4622,
      "اعتقاد": 4623,
      "هام": 4624,
      "معلم": 4625,
      "مانع": 4626,
      "قرضه": 4627,
      "زنج": 4628,
      "پروتکل": 4629,
      "MaxUtilities": 4630,
      "رسمیت": 4631,
      "HitMalware": 4632,
      "بهش": 4633,
      "یوحنا": 4634,
      "oy": 4635,
      "کشوری": 4636,
      "تاسیسات": 4637,
      "ابزارهای": 4638,
      "مرغ": 4639,
      "علیرغم": 4640,
      "----": 4641,
      "تخفیف": 4642,
      "عو": 4643,
      "حافظ": 4644,
      "MP": 4645,
      "جدول": 4646,
      "فاش": 4647,
      "مزایای": 4648,
      "دیجیتال": 4649,
      "120": 4650,
      "سکه": 4651,
      "قوه": 4652,
      "پارامتر": 4653,
      "کارگری": 4654,
      "منع": 4655,
      "ick": 4656,
      "هل": 4657,
      "اوتی": 4658,
      "ارتقای": 4659,
      "ON": 4660,
      "انکار": 4661,
      "تخصصی": 4662,
      "دختران": 4663,
      "Sa": 4664,
      "حکومت": 4665,
      "پیروی": 4666,
      "کلین": 4667,
      "دیروز": 4668,
      "پاداش": 4669,
      "برش": 4670,
      "خروجی": 4671,
      "محق": 4672,
      "جفت": 4673,
      "داغ": 4674,
      "اشکال": 4675,
      "بستان": 4676,
      "2050": 4677,
      "آسیای": 4678,
      "گناهان": 4679,
      "بیفتد": 4680,
      "التی": 4681,
      "bib": 4682,
      "معبد": 4683,
      "acht": 4684,
      "بزند": 4685,
      "خوشحالی": 4686,
      "تحقیر": 4687,
      "BR": 4688,
      "))": 4689,
      "صلاحیت": 4690,
      "اوز": 4691,
      "پترو": 4692,
      "بوت": 4693,
      "نقدی": 4694,
      "ide": 4695,
      "ens": 4696,
      "ظاهرا": 4697,
      "اذ": 4698,
      "url": 4699,
      "مشرو": 4700,
      "eng": 4701,
      "ore": 4702,
      "مارک": 4703,
      "بط": 4704,
      "Or": 4705,
      "زین": 4706,
      "بداف": 4707,
      "نوشیدنی": 4708,
      "فند": 4709,
      "ight": 4710,
      "رویا": 4711,
      "ماس": 4712,
      "تعامل": 4713,
      "ایان": 4714,
      "کتور": 4715,
      "کوهستانی": 4716,
      "داوری": 4717,
      "ناحیه": 4718,
      "آتی": 4719,
      "ادث": 4720,
      "هوشمند": 4721,
      "بختی": 4722,
      "Tex": 4723,
      "هلند": 4724,
      "رفتم": 4725,
      "ogle": 4726,
      "افغانستان": 4727,
      "بینید": 4728,
      "انگین": 4729,
      "صمی": 4730,
      "معلمان": 4731,
      "ویلا": 4732,
      "ناهار": 4733,
      "عص": 4734,
      "تحقیقاتی": 4735,
      "وابسته": 4736,
      "ug": 4737,
      "متنفر": 4738,
      "پله": 4739,
      "شنیدم": 4740,
      "زنجیر": 4741,
      "میانگین": 4742,
      "مالکیت": 4743,
      "bibel": 4744,
      "زیک": 4745,
      "بوم": 4746,
      "نفرت": 4747,
      "پذیرفت": 4748,
      "اهم": 4749,
      "دیپلماتیک": 4750,
      "زیت": 4751,
      "درخشان": 4752,
      "ma": 4753,
      "بساز": 4754,
      "ja": 4755,
      "مزد": 4756,
      "بازرگانی": 4757,
      "یونان": 4758,
      "بگیرند": 4759,
      "لوازم": 4760,
      "مشاغل": 4761,
      "دره": 4762,
      "کاش": 4763,
      "اسکی": 4764,
      "سورا": 4765,
      "ووا": 4766,
      "اکس": 4767,
      "دستاور": 4768,
      "یرد": 4769,
      "ماجرا": 4770,
      "تم": 4771,
      "اکث": 4772,
      "rosoft": 4773,
      "سرو": 4774,
      "واحدهای": 4775,
      "هرگونه": 4776,
      "برم": 4777,
      "انوف": 4778,
      "توانستند": 4779,
      "جنس": 4780,
      "غرفه": 4781,
      "ania": 4782,
      "FS": 4783,
      "مایکرو": 4784,
      "ناگهانی": 4785,
      "قاط": 4786,
      "امیدی": 4787,
      "بهم": 4788,
      "کارآمد": 4789,
      "ni": 4790,
      "فرستاده": 4791,
      "تاژ": 4792,
      "سوئی": 4793,
      "مب": 4794,
      "انتا": 4795,
      "شرح": 4796,
      "(+": 4797,
      "ترسید": 4798,
      "شکسته": 4799,
      "آماد": 4800,
      "شهرداری": 4801,
      "EL": 4802,
      "ذار": 4803,
      "قضایی": 4804,
      "اردوگاه": 4805,
      "Be": 4806,
      "ینوی": 4807,
      "سوئیس": 4808,
      "شانه": 4809,
      "سیاره": 4810,
      "قطعه": 4811,
      "ممنون": 4812,
      "دموکراتیک": 4813,
      "برکت": 4814,
      "ستا": 4815,
      "آنتی": 4816,
      "فرشته": 4817,
      "مجت": 4818,
      "آمادگی": 4819,
      "ox": 4820,
      "RA": 4821,
      "شل": 4822,
      "تعهدات": 4823,
      "شریعت": 4824,
      "ماست": 4825,
      "گرمایش": 4826,
      "تدار": 4827,
      "عملکردها": 4828,
      "ائ": 4829,
      "مبلمان": 4830,
      "پدید": 4831,
      "Microsoft": 4832,
      "Ap": 4833,
      "راتی": 4834,
      "پذیرایی": 4835,
      "داشتیم": 4836,
      "مجتمع": 4837,
      "جوایز": 4838,
      "ult": 4839,
      "نابود": 4840,
      "عضویت": 4841,
      "آمار": 4842,
      "شوخی": 4843,
      "مقیاس": 4844,
      "انبو": 4845,
      "عیتی": 4846,
      "ez": 4847,
      "اقیانو": 4848,
      "کاپی": 4849,
      "کاربردی": 4850,
      "قطعا": 4851,
      "250": 4852,
      "پیروز": 4853,
      "متولد": 4854,
      "نل": 4855,
      "متشکر": 4856,
      "اقامتگاه": 4857,
      "کین": 4858,
      "aya": 4859,
      "کنده": 4860,
      "خواهر": 4861,
      "شیشه": 4862,
      "جوانی": 4863,
      "iss": 4864,
      "بندر": 4865,
      "کریست": 4866,
      "face": 4867,
      "مستقر": 4868,
      "خطاب": 4869,
      "بدافزار": 4870,
      "ster": 4871,
      "Pr": 4872,
      "عواق": 4873,
      "......": 4874,
      "قابلیت": 4875,
      "فون": 4876,
      "غیرقانونی": 4877,
      "دوازده": 4878,
      "وسو": 4879,
      "دادی": 4880,
      "درختان": 4881,
      "همسایه": 4882,
      "ژنرال": 4883,
      "Br": 4884,
      "اوج": 4885,
      "ظره": 4886,
      "گذران": 4887,
      "کانادا": 4888,
      "نیت": 4889,
      "leb": 4890,
      "فقیر": 4891,
      "کجاست": 4892,
      "sky": 4893,
      "ناو": 4894,
      "OD": 4895,
      "Flor": 4896,
      "شلیک": 4897,
      "مطالعات": 4898,
      "شنیدن": 4899,
      "فرآیندهای": 4900,
      "آری": 4901,
      "شکن": 4902,
      "era": 4903,
      "(*****": 4904,
      "1392": 4905,
      "آسیا": 4906,
      "راع": 4907,
      "EU": 4908,
      "ep": 4909,
      "مره": 4910,
      "شویی": 4911,
      "اخلاقی": 4912,
      "زنش": 4913,
      "پلت": 4914,
      "سبد": 4915,
      "مجله": 4916,
      "زنم": 4917,
      "سپاس": 4918,
      "ردو": 4919,
      "ys": 4920,
      "ویران": 4921,
      "روستای": 4922,
      "خاموش": 4923,
      "وانی": 4924,
      "شرم": 4925,
      "ریخت": 4926,
      "افس": 4927,
      "حیدر": 4928,
      "قفل": 4929,
      "ذخ": 4930,
      "اث": 4931,
      "رک": 4932,
      "ساحلی": 4933,
      "ریشه": 4934,
      "تروریسم": 4935,
      "پیامبر": 4936,
      "ایلینوی": 4937,
      "اکثریت": 4938,
      "لوب": 4939,
      "رانندگی": 4940,
      "Ser": 4941,
      "ادعا": 4942,
      "fa": 4943,
      "دوربین": 4944,
      "قوب": 4945,
      "دموکراسی": 4946,
      "زور": 4947,
      "انحص": 4948,
      "Pl": 4949,
      "متهم": 4950,
      "ویدی": 4951,
      "239": 4952,
      "یعقوب": 4953,
      "عظیم": 4954,
      "مسترد": 4955,
      "درج": 4956,
      "دانستند": 4957,
      "پرورد": 4958,
      "fe": 4959,
      "mm": 4960,
      "ha": 4961,
      "خرا": 4962,
      "ET": 4963,
      "معرض": 4964,
      "آفریقا": 4965,
      "خدام": 4966,
      "انسور": 4967,
      "info": 4968,
      "ذخایر": 4969,
      "همسرش": 4970,
      "متشکرم": 4971,
      "za": 4972,
      "پرتاب": 4973,
      "استخدام": 4974,
      "اسکار": 4975,
      "بخار": 4976,
      "نوار": 4977,
      "105": 4978,
      "غرور": 4979,
      "وبلا": 4980,
      "حملات": 4981,
      "شاخه": 4982,
      "معن": 4983,
      "کاس": 4984,
      "Col": 4985,
      "کمال": 4986,
      "لوئی": 4987,
      "صوتی": 4988,
      "Google": 4989,
      "کارآفرینان": 4990,
      "سرشار": 4991,
      "پدرم": 4992,
      "حسا": 4993,
      "حاکم": 4994,
      "Kra": 4995,
      "پیشگیری": 4996,
      "کریس": 4997,
      "DVD": 4998,
      "سخن": 4999,
      "تحول": 5000,
      "قهرمانی": 5001,
      "سرگرمی": 5002,
      "Mass": 5003,
      "شایسته": 5004,
      "UN": 5005,
      "ock": 5006,
      "تاخیر": 5007,
      "همینطور": 5008,
      "فروشی": 5009,
      "Florida": 5010,
      "تخصص": 5011,
      "مردمی": 5012,
      "topic": 5013,
      "ala": 5014,
      "onsin": 5015,
      "دستگیر": 5016,
      "مدیران": 5017,
      "isconsin": 5018,
      "رول": 5019,
      "بزرگسال": 5020,
      "ناراح": 5021,
      "افسر": 5022,
      "Fi": 5023,
      "ces": 5024,
      "ho": 5025,
      "جیم": 5026,
      "Wisconsin": 5027,
      "خوردن": 5028,
      "محله": 5029,
      "مطالب": 5030,
      "دوی": 5031,
      "جانبی": 5032,
      "برت": 5033,
      "پدران": 5034,
      "میسوری": 5035,
      "سومین": 5036,
      "نداریم": 5037,
      "OR": 5038,
      "وگر": 5039,
      "ery": 5040,
      "دفاتر": 5041,
      "800": 5042,
      "Tr": 5043,
      "دادیم": 5044,
      "سازگار": 5045,
      "آنا": 5046,
      "جایگاه": 5047,
      "the": 5048,
      "بکشد": 5049,
      "تسلی": 5050,
      "بنای": 5051,
      "قزاقستانی": 5052,
      "ایتالی": 5053,
      "پیمایی": 5054,
      "ولتر": 5055,
      "آست": 5056,
      "معدن": 5057,
      "خرج": 5058,
      "ویش": 5059,
      "نهاد": 5060,
      "اشیا": 5061,
      "Ok": 5062,
      "شکار": 5063,
      "iki": 5064,
      "تشدید": 5065,
      "عط": 5066,
      "فایده": 5067,
      "سواح": 5068,
      "غذای": 5069,
      "اتریش": 5070,
      "حاکمی": 5071,
      "راهنمایی": 5072,
      "چراغ": 5073,
      "ینت": 5074,
      "اولی": 5075,
      "شعبه": 5076,
      "منطقی": 5077,
      "صاف": 5078,
      "یکسان": 5079,
      "ایند": 5080,
      "ترانس": 5081,
      "سواحل": 5082,
      "عید": 5083,
      "نشینی": 5084,
      "دشمنان": 5085,
      "بورژوازی": 5086,
      "otel": 5087,
      "ناراحتی": 5088,
      "ستگی": 5089,
      "ئین": 5090,
      "هولو": 5091,
      "ریچ": 5092,
      "دانشم": 5093,
      "mer": 5094,
      "ببینیم": 5095,
      "ختی": 5096,
      "وسط": 5097,
      "olog": 5098,
      "افتتاحیه": 5099,
      "iP": 5100,
      "رافی": 5101,
      "مقابله": 5102,
      "عوامل": 5103,
      "آمسترد": 5104,
      "ova": 5105,
      "KMG": 5106,
      "آزمایشی": 5107,
      "مرکی": 5108,
      "اسلو": 5109,
      "آمستردام": 5110,
      "ویلی": 5111,
      "حاشی": 5112,
      "یادت": 5113,
      "لایه": 5114,
      "ترکیبی": 5115,
      "ED": 5116,
      "شیک": 5117,
      "مداخ": 5118,
      "بیهوده": 5119,
      "ایتالیایی": 5120,
      "کتی": 5121,
      "گفتی": 5122,
      "همو": 5123,
      "شویک": 5124,
      "Miratech": 5125,
      "gr": 5126,
      "میه": 5127,
      "ردی": 5128,
      "کاغذ": 5129,
      "Le": 5130,
      "ئول": 5131,
      "جاب": 5132,
      "فیا": 5133,
      "اعتراض": 5134,
      "Del": 5135,
      "اهل": 5136,
      "تقدیم": 5137,
      "گمرکی": 5138,
      "تسهیل": 5139,
      "چوبی": 5140,
      "تنی": 5141,
      "مغز": 5142,
      "2001": 5143,
      "سرزنش": 5144,
      "Wi": 5145,
      "تعقیب": 5146,
      "ظهور": 5147,
      "دانشمندان": 5148,
      "خودتان": 5149,
      "kz": 5150,
      "تفاهم": 5151,
      "شبه": 5152,
      "فکری": 5153,
      "IDEA": 5154,
      "شمع": 5155,
      "الک": 5156,
      "مدن": 5157,
      "مینسک": 5158,
      "امتداد": 5159,
      "آشن": 5160,
      "BS": 5161,
      "کاربری": 5162,
      "اموال": 5163,
      "achus": 5164,
      "جمی": 5165,
      "راتوری": 5166,
      "لمس": 5167,
      "موجودات": 5168,
      "سقف": 5169,
      "اعظ": 5170,
      "(*****)": 5171,
      "اواخر": 5172,
      "ca": 5173,
      "مطلب": 5174,
      "celeb": 5175,
      "جبران": 5176,
      "ica": 5177,
      "bank": 5178,
      "حدی": 5179,
      "چا": 5180,
      "انگل": 5181,
      "ild": 5182,
      "چنگ": 5183,
      "AV": 5184,
      "ty": 5185,
      "صلیب": 5186,
      "میک": 5187,
      "ناپدید": 5188,
      "کاهن": 5189,
      "اضطر": 5190,
      "بارسلونا": 5191,
      "سینه": 5192,
      "اینقدر": 5193,
      "مود": 5194,
      "عواقب": 5195,
      "آتلانتا": 5196,
      "Gu": 5197,
      "لوکس": 5198,
      "ky": 5199,
      "دیدند": 5200,
      "etts": 5201,
      "معاملات": 5202,
      "کاپیتان": 5203,
      "ساختمانی": 5204,
      "ure": 5205,
      "مخاط": 5206,
      "حاشیه": 5207,
      "فاعی": 5208,
      "خطرناک": 5209,
      "فین": 5210,
      "کسل": 5211,
      "ترکمن": 5212,
      "سوراخ": 5213,
      "man": 5214,
      "حیات": 5215,
      "مربی": 5216,
      "فشر": 5217,
      "ong": 5218,
      "شکایت": 5219,
      "قلو": 5220,
      "مریلند": 5221,
      "اختصاصی": 5222,
      "استرالیا": 5223,
      "فشرده": 5224,
      "بوی": 5225,
      "اروپای": 5226,
      "لرز": 5227,
      "موع": 5228,
      "اشغال": 5229,
      "امپراتوری": 5230,
      "fr": 5231,
      "Massachus": 5232,
      "Massachusetts": 5233,
      "حه": 5234,
      "روزها": 5235,
      "ژیکی": 5236,
      "نیمی": 5237,
      "ایرلند": 5238,
      "بشنو": 5239,
      "نگرش": 5240,
      "تروریستی": 5241,
      "group": 5242,
      "آرای": 5243,
      "نقلیه": 5244,
      "کرواسی": 5245,
      "HP": 5246,
      "dl": 5247,
      "ینامه": 5248,
      "خرده": 5249,
      "مختلفی": 5250,
      "کارگاه": 5251,
      "پذیرد": 5252,
      "گواهینامه": 5253,
      "واره": 5254,
      "ونه": 5255,
      "چیک": 5256,
      "اعطا": 5257,
      "کارمندان": 5258,
      "عمده": 5259,
      "فیلد": 5260,
      "زمستان": 5261,
      "اعلامی": 5262,
      "مشهور": 5263,
      "آلود": 5264,
      "آگ": 5265,
      "مواردی": 5266,
      "جنگی": 5267,
      "بازنشست": 5268,
      "قرارداده": 5269,
      "ue": 5270,
      "منعکس": 5271,
      "متشکل": 5272,
      "2002": 5273,
      "سکا": 5274,
      "عادلانه": 5275,
      "میکنم": 5276,
      "اضطراری": 5277,
      "خواستار": 5278,
      "کوتاهی": 5279,
      "Cent": 5280,
      "104": 5281,
      "OJSC": 5282,
      "tr": 5283,
      "Penn": 5284,
      "گرگ": 5285,
      "اندرو": 5286,
      "بدهید": 5287,
      "فوتبال": 5288,
      "ازبک": 5289,
      "ung": 5290,
      "برگه": 5291,
      "1390": 5292,
      "مسلمان": 5293,
      "TA": 5294,
      "جنایت": 5295,
      "باستانی": 5296,
      "اسپانیایی": 5297,
      "مخصوص": 5298,
      "رومانی": 5299,
      "نوبه": 5300,
      "رادو": 5301,
      "بوک": 5302,
      "بیاورد": 5303,
      "تصویری": 5304,
      "تابستانی": 5305,
      "ood": 5306,
      "نکنم": 5307,
      "کمر": 5308,
      "مشخصات": 5309,
      "متاسفانه": 5310,
      "منص": 5311,
      "اعلامیه": 5312,
      "900": 5313,
      "پاول": 5314,
      "rov": 5315,
      "مغازه": 5316,
      "viewtopic": 5317,
      "درسی": 5318,
      "چندان": 5319,
      "EX": 5320,
      "NAS": 5321,
      "کافه": 5322,
      "بلو": 5323,
      "پرنده": 5324,
      "SP": 5325,
      "؟؟": 5326,
      "بازرسی": 5327,
      "قربان": 5328,
      "ببخشید": 5329,
      "امان": 5330,
      "پیشنهادی": 5331,
      "درب": 5332,
      "عربی": 5333,
      "کارم": 5334,
      "هیو": 5335,
      "دلاری": 5336,
      "مطلع": 5337,
      "ساختن": 5338,
      "ابری": 5339,
      "شون": 5340,
      "پیتر": 5341,
      "lvania": 5342,
      "بیام": 5343,
      "موضوعی": 5344,
      "ثال": 5345,
      "نگهبان": 5346,
      "sylvania": 5347,
      "نماد": 5348,
      "ader": 5349,
      "تجربیات": 5350,
      "تسکی": 5351,
      "سوالی": 5352,
      "پرسنل": 5353,
      "Pennsylvania": 5354,
      "ii": 5355,
      "izona": 5356,
      "حیاط": 5357,
      "فراوان": 5358,
      "دوقلو": 5359,
      "معل": 5360,
      "نگاران": 5361,
      "صدور": 5362,
      "KBD": 5363,
      "اشک": 5364,
      "روشی": 5365,
      "حتما": 5366,
      "غری": 5367,
      "بریم": 5368,
      "ناکی": 5369,
      "Arizona": 5370,
      "مقداری": 5371,
      "فیلتر": 5372,
      "110": 5373,
      "via": 5374,
      "دیسک": 5375,
      "ans": 5376,
      "صورتش": 5377,
      "بازاریابی": 5378,
      "آسانسور": 5379,
      "گرین": 5380,
      "old": 5381,
      "زل": 5382,
      "->": 5383,
      "آکوردا": 5384,
      "استودی": 5385,
      "الملل": 5386,
      "ماهواره": 5387,
      "مهاجرت": 5388,
      "خاندان": 5389,
      "منصوب": 5390,
      "دوستانه": 5391,
      "مبا": 5392,
      "سازمانی": 5393,
      "مدارک": 5394,
      "ier": 5395,
      "زدم": 5396,
      "ببرد": 5397,
      "نخواهند": 5398,
      "iy": 5399,
      "معتق": 5400,
      "تکنیک": 5401,
      "بتی": 5402,
      "رویدادها": 5403,
      "تولیدکنندگان": 5404,
      "خاور": 5405,
      "باطی": 5406,
      "ond": 5407,
      "اشخاص": 5408,
      "تست": 5409,
      "نواز": 5410,
      "مایز": 5411,
      "uss": 5412,
      "مکزیک": 5413,
      "gy": 5414,
      "مرجع": 5415,
      "غیرد": 5416,
      "تعادل": 5417,
      "Nacht": 5418,
      "مطلق": 5419,
      "Str": 5420,
      "؟\"\"\"": 5421,
      "بلغ": 5422,
      "ST": 5423,
      "ابایت": 5424,
      "اکمه": 5425,
      "کشیدن": 5426,
      "Nachte": 5427,
      "<<": 5428,
      "Mun": 5429,
      "فرانک": 5430,
      "حاکمیت": 5431,
      "هاو": 5432,
      "موج": 5433,
      "اذیت": 5434,
      "ایه": 5435,
      "Bo": 5436,
      "نیروگاه": 5437,
      "ممنوع": 5438,
      "ضبط": 5439,
      "آمی": 5440,
      "کنت": 5441,
      "معاهده": 5442,
      "یادبود": 5443,
      "بخواهید": 5444,
      "اظهارات": 5445,
      "رادی": 5446,
      "بدان": 5447,
      "آواز": 5448,
      "صع": 5449,
      "شیرین": 5450,
      "دلیلی": 5451,
      "رهایی": 5452,
      "گفتگوی": 5453,
      "ینگراد": 5454,
      "توه": 5455,
      "کلاسیک": 5456,
      "بزنم": 5457,
      "تکامل": 5458,
      "بروی": 5459,
      "ame": 5460,
      "وطه": 5461,
      "مرزی": 5462,
      "گوسف": 5463,
      "مسکونی": 5464,
      "Ag": 5465,
      "فضا": 5466,
      "یل": 5467,
      "نداشتم": 5468,
      "جدایی": 5469,
      "iel": 5470,
      "الفت": 5471,
      "پسرش": 5472,
      "پیکر": 5473,
      "ld": 5474,
      "سرگرم": 5475,
      "کالاهای": 5476,
      "ممنو": 5477,
      "وست": 5478,
      "lah": 5479,
      "دلال": 5480,
      "lin": 5481,
      "لزوم": 5482,
      "بام": 5483,
      "خوبه": 5484,
      "پوزی": 5485,
      "blog": 5486,
      "نرو": 5487,
      "رسولان": 5488,
      "اکره": 5489,
      "ویدئو": 5490,
      "مذاکره": 5491,
      "آلاباما": 5492,
      "ستایش": 5493,
      "آغوش": 5494,
      ".،": 5495,
      "آزمون": 5496,
      "منتظره": 5497,
      "لحه": 5498,
      "بگذارم": 5499,
      "برسان": 5500,
      "اشیائ": 5501,
      "اسلحه": 5502,
      "Man": 5503,
      "ازبکستان": 5504,
      "vol": 5505,
      "شهرها": 5506,
      "ترکمنستان": 5507,
      "الیه": 5508,
      "شجاع": 5509,
      "یکس": 5510,
      "منظورم": 5511,
      "po": 5512,
      "گنجانده": 5513,
      "محاسبه": 5514,
      "خودشان": 5515,
      "ارشی": 5516,
      "hi": 5517,
      "اتور": 5518,
      "پنجاه": 5519,
      "پیمان": 5520,
      "Texas": 5521,
      "cy": 5522,
      "جهنم": 5523,
      "ولوژیکی": 5524,
      "اقیانوس": 5525,
      "افل": 5526,
      "رده": 5527,
      "انتقاد": 5528,
      "وجو": 5529,
      ".»\"": 5530,
      "تفریحی": 5531,
      "تخته": 5532,
      "اسلام": 5533,
      "ict": 5534,
      "کای": 5535,
      "Res": 5536,
      "پوشید": 5537,
      "تبلیغاتی": 5538,
      "بازنشستگی": 5539,
      "اندو": 5540,
      "برعکس": 5541,
      "ماژول": 5542,
      "وزارتخانه": 5543,
      "فزای": 5544,
      "فولاد": 5545,
      "lat": 5546,
      "کمترین": 5547,
      "دال": 5548,
      "دوین": 5549,
      "gn": 5550,
      "شانگ": 5551,
      "مزار": 5552,
      "CH": 5553,
      "زباله": 5554,
      "کلم": 5555,
      "قاضی": 5556,
      "مارت": 5557,
      "بشردو": 5558,
      "حسب": 5559,
      "سرکوب": 5560,
      "خشن": 5561,
      "عباد": 5562,
      "مناظر": 5563,
      "آخ": 5564,
      "رونی": 5565,
      "رفاه": 5566,
      "رسیدند": 5567,
      "هوشی": 5568,
      "ime": 5569,
      "محقق": 5570,
      "ایالتی": 5571,
      "سرانجام": 5572,
      "انتهای": 5573,
      "برف": 5574,
      "ستاد": 5575,
      "موم": 5576,
      "متعهد": 5577,
      "بفهم": 5578,
      "کوس": 5579,
      "بهار": 5580,
      "nut": 5581,
      "Qu": 5582,
      "مراکش": 5583,
      "اونجا": 5584,
      "Inter": 5585,
      "یونسکو": 5586,
      "To": 5587,
      "pd": 5588,
      "مدال": 5589,
      "بشریت": 5590,
      "بالکن": 5591,
      "EP0": 5592,
      "پستی": 5593,
      "سلطنت": 5594,
      "مخالفت": 5595,
      "دمای": 5596,
      "go": 5597,
      "وزرای": 5598,
      "تحصیلی": 5599,
      "وحد": 5600,
      "سیگار": 5601,
      "رسند": 5602,
      "ورا": 5603,
      "تراف": 5604,
      "انگلستان": 5605,
      "الحاق": 5606,
      "تصادفی": 5607,
      "بروند": 5608,
      "مداخله": 5609,
      "افراطی": 5610,
      "خیمه": 5611,
      "سوف": 5612,
      "نیستی": 5613,
      "الکسی": 5614,
      "معتقدم": 5615,
      "نداشتند": 5616,
      "ببند": 5617,
      "نامیده": 5618,
      "نژاد": 5619,
      "خلی": 5620,
      "پرستی": 5621,
      "بخواهد": 5622,
      "بتوانم": 5623,
      "بپیوند": 5624,
      "نویسندگان": 5625,
      "صخره": 5626,
      "جاس": 5627,
      "افسانه": 5628,
      "تکیه": 5629,
      "موضع": 5630,
      "ساعته": 5631,
      "انعط": 5632,
      "جغ": 5633,
      "ATA": 5634,
      "EM": 5635,
      "بالقوه": 5636,
      "فزاینده": 5637,
      "ss": 5638,
      "lay": 5639,
      "انعطاف": 5640,
      "نگفت": 5641,
      "کلرادو": 5642,
      "سارا": 5643,
      "عق": 5644,
      "دانشکده": 5645,
      "سیست": 5646,
      "EG": 5647,
      "غافل": 5648,
      "وج": 5649,
      "وحدت": 5650,
      "آلی": 5651,
      "آورند": 5652,
      "موعظه": 5653,
      "کیلومتری": 5654,
      "موجودی": 5655,
      "مسیرهای": 5656,
      "بشردوستانه": 5657,
      "port": 5658,
      "نکردند": 5659,
      "کامی": 5660,
      "بشکه": 5661,
      "مهد": 5662,
      "اسکارلت": 5663,
      "مرداد": 5664,
      "مالک": 5665,
      "ثروتمند": 5666,
      "red": 5667,
      "Bank": 5668,
      "مهمترین": 5669,
      "داوطلب": 5670,
      "چهل": 5671,
      "افسران": 5672,
      "ملکه": 5673,
      "یاق": 5674,
      "مزارع": 5675,
      "123": 5676,
      "ارتباطی": 5677,
      "https": 5678,
      "بزنید": 5679,
      "CC": 5680,
      "سوز": 5681,
      "اکی": 5682,
      "مجری": 5683,
      "واجد": 5684,
      "جانی": 5685,
      "پید": 5686,
      "یوسف": 5687,
      "دستورات": 5688,
      "وکیل": 5689,
      "ارات": 5690,
      "تورن": 5691,
      "حقایق": 5692,
      "شکنجه": 5693,
      "ولتی": 5694,
      "خطا": 5695,
      "oen": 5696,
      "عبادت": 5697,
      "ندیده": 5698,
      "تعلق": 5699,
      "سهامداران": 5700,
      "DC": 5701,
      "عبارتند": 5702,
      "گیج": 5703,
      "818": 5704,
      "استو": 5705,
      "چیکار": 5706,
      "IM": 5707,
      "درمانی": 5708,
      "وسوسه": 5709,
      "لشکر": 5710,
      "عددی": 5711,
      "پزشک": 5712,
      "Cor": 5713,
      "چاه": 5714,
      "استدلال": 5715,
      "حافظه": 5716,
      "دوستم": 5717,
      "مدافعان": 5718,
      "شانگهای": 5719,
      "نمک": 5720,
      "کون": 5721,
      "دستاوردهای": 5722,
      "کریسمس": 5723,
      "میاد": 5724,
      "کارشناسی": 5725,
      "انتین": 5726,
      "هنرمند": 5727,
      "ریخته": 5728,
      "کفش": 5729,
      "هویت": 5730,
      "گول": 5731,
      "کارهایی": 5732,
      "San": 5733,
      "راهیم": 5734,
      "ابتدای": 5735,
      "تسک": 5736,
      "بیاورید": 5737,
      "مهری": 5738,
      "مونیخ": 5739,
      "خاکستری": 5740,
      "فیس": 5741,
      "المنافع": 5742,
      "miratech": 5743,
      "ازای": 5744,
      "ester": 5745,
      "فرمای": 5746,
      "رفیق": 5747,
      "غیردولتی": 5748,
      "بینداز": 5749,
      "ils": 5750,
      "ائتلا": 5751,
      "Krai": 5752,
      "بانوی": 5753,
      "وگاس": 5754,
      "<!": 5755,
      "غیرمنتظره": 5756,
      "met": 5757,
      "نخواهم": 5758,
      "ایالت": 5759,
      "تنسی": 5760,
      "تثبیت": 5761,
      "تنش": 5762,
      "ناع": 5763,
      "106": 5764,
      "خوشایند": 5765,
      "min": 5766,
      "تجاوز": 5767,
      "شدی": 5768,
      "رب": 5769,
      "iya": 5770,
      "ابه": 5771,
      "مجارستان": 5772,
      "رقابتی": 5773,
      "bu": 5774,
      "صدایی": 5775,
      "City": 5776,
      "توست": 5777,
      "ابراهیم": 5778,
      "ایات": 5779,
      "میخوای": 5780,
      "سافت": 5781,
      "نوبت": 5782,
      "سالی": 5783,
      "107": 5784,
      "خدایان": 5785,
      "عقل": 5786,
      "ارواح": 5787,
      "artic": 5788,
      "آزمایشگاه": 5789,
      "تدوین": 5790,
      "پط": 5791,
      "صاحبان": 5792,
      "Mag": 5793,
      "trav": 5794,
      "بهتری": 5795,
      "کنجک": 5796,
      "متع": 5797,
      "عمق": 5798,
      "تخم": 5799,
      "کاهنان": 5800,
      "ضرب": 5801,
      "خودمان": 5802,
      "Bar": 5803,
      "خواستند": 5804,
      "KA": 5805,
      "اعظم": 5806,
      "روحی": 5807,
      "لیتر": 5808,
      "مکانیسم": 5809,
      "پادشاهان": 5810,
      "خونه": 5811,
      "آمریکای": 5812,
      "فسکی": 5813,
      "وبلاگ": 5814,
      "پکن": 5815,
      "درایورهای": 5816,
      "مناقشه": 5817,
      "nutr": 5818,
      "گارا": 5819,
      "سرم": 5820,
      "اطاعت": 5821,
      "عروسی": 5822,
      "امشب": 5823,
      "سرکی": 5824,
      "بازپرداخت": 5825,
      "حیاتی": 5826,
      "تلقی": 5827,
      "miratechgroup": 5828,
      "قربانیان": 5829,
      "Op": 5830,
      "امتناع": 5831,
      "بخواب": 5832,
      "زمست": 5833,
      "احی": 5834,
      "اترین": 5835,
      "بپذیر": 5836,
      "فرمانده": 5837,
      "فورد": 5838,
      "دچار": 5839,
      "یدم": 5840,
      "سرکیسیان": 5841,
      "ادلفیا": 5842,
      "جیمز": 5843,
      "nutrition": 5844,
      "اتمام": 5845,
      "RC": 5846,
      "خیال": 5847,
      "ظروف": 5848,
      "هلس": 5849,
      "مهریبان": 5850,
      "تاز": 5851,
      "??": 5852,
      "اهدا": 5853,
      "صاحب": 5854,
      "md": 5855,
      "چشمه": 5856,
      "Med": 5857,
      "تنوع": 5858,
      "زرد": 5859,
      "burg": 5860,
      "ببرند": 5861,
      "حامی": 5862,
      "صدها": 5863,
      "سپاسگزار": 5864,
      "Bl": 5865,
      "قراری": 5866,
      "ena": 5867,
      "ینکی": 5868,
      "فیلادلفیا": 5869,
      "سلیمان": 5870,
      "الو": 5871,
      "oenix": 5872,
      "سنج": 5873,
      "وزیران": 5874,
      "Un": 5875,
      "عنصر": 5876,
      "عاقل": 5877,
      "مرتک": 5878,
      "Phoenix": 5879,
      "فرانسی": 5880,
      "سیگن": 5881,
      "زیانا": 5882,
      "بگوییم": 5883,
      "بلغارستان": 5884,
      "نوشتن": 5885,
      "آلبوم": 5886,
      "شعله": 5887,
      "مایکروسافت": 5888,
      "لوئیزیانا": 5889,
      "پاهای": 5890,
      "mun": 5891,
      "موند": 5892,
      "گذراند": 5893,
      "Cele": 5894,
      "کاشت": 5895,
      "موافق": 5896,
      "اثبات": 5897,
      "غریب": 5898,
      "وسیعی": 5899,
      "معتقدیم": 5900,
      "مقالات": 5901,
      "فیض": 5902,
      "پنجمین": 5903,
      "اسا": 5904,
      "orth": 5905,
      "پطرس": 5906,
      "ابد": 5907,
      "عبد": 5908,
      "تورم": 5909,
      "سابقه": 5910,
      "خلیج": 5911,
      "هلسینکی": 5912,
      "El": 5913,
      "ندر": 5914,
      "مجازی": 5915,
      "Is": 5916,
      "جبه": 5917,
      "پم": 5918,
      "312": 5919,
      "مولا": 5920,
      "تفسیر": 5921,
      "Mo": 5922,
      "فورت": 5923,
      "کریمه": 5924,
      "مرتکب": 5925,
      "کمبود": 5926,
      "بلندمدت": 5927,
      "تعمید": 5928,
      "تند": 5929,
      "ویزای": 5930,
      "خیانت": 5931,
      "اسر": 5932,
      "اینجاست": 5933,
      "ولت": 5934,
      "هکت": 5935,
      "مثلا": 5936,
      "بیابان": 5937,
      "حسن": 5938,
      "واردات": 5939,
      "متقاضی": 5940,
      "لوق": 5941,
      "آویزان": 5942,
      "ea": 5943,
      "قبر": 5944,
      "رحم": 5945,
      "بیماران": 5946,
      "HIV": 5947,
      "اصرار": 5948,
      "::::": 5949,
      "article": 5950,
      "کارشناس": 5951,
      "ern": 5952,
      "گردد": 5953,
      "Ros": 5954,
      "قاز": 5955,
      "Celebr": 5956,
      "215": 5957,
      "sc": 5958,
      "استر": 5959,
      "روحانی": 5960,
      "آگهی": 5961,
      "پیوستن": 5962,
      "مشتاق": 5963,
      "Celebrities": 5964,
      "قسم": 5965,
      "وقفه": 5966,
      "EB": 5967,
      "ko": 5968,
      "رخت": 5969,
      "دیمیتری": 5970,
      "OP": 5971,
      "جرم": 5972,
      "تحسین": 5973,
      "by": 5974,
      "ناپذیری": 5975,
      "دایره": 5976,
      "معلول": 5977,
      "بگذارند": 5978,
      "کودکی": 5979,
      "سوئیت": 5980,
      "فات": 5981,
      "اردن": 5982,
      "دیس": 5983,
      "راستا": 5984,
      "lahoma": 5985,
      "PCRM": 5986,
      "ish": 5987,
      "چمن": 5988,
      "فرقه": 5989,
      "معادل": 5990,
      "زمستانی": 5991,
      "Fr": 5992,
      "اختراع": 5993,
      "نامید": 5994,
      "Oklahoma": 5995,
      "برایش": 5996,
      "اسم": 5997,
      "اقداماتی": 5998,
      "بتوانند": 5999,
      "وقوع": 6000,
      "otek": 6001,
      "اندام": 6002,
      "ژنی": 6003,
      "use": 6004,
      "مض": 6005,
      "گذاشتند": 6006,
      "ante": 6007,
      "پاره": 6008,
      "کلا": 6009,
      "دومی": 6010,
      "الکتر": 6011,
      "ببینند": 6012,
      "بیچاره": 6013,
      "ستن": 6014,
      "اخراج": 6015,
      "win": 6016,
      "تصاب": 6017,
      "حات": 6018,
      "ورون": 6019,
      "استونی": 6020,
      "سوگند": 6021,
      "غیرنظامی": 6022,
      "media": 6023,
      "جبهه": 6024,
      "رحمت": 6025,
      "ارزشمند": 6026,
      "اشتیاق": 6027,
      "خمی": 6028,
      "بدیهی": 6029,
      "گیاهان": 6030,
      "؟\"\"": 6031,
      "عز": 6032,
      "ise": 6033,
      "جورج": 6034,
      "تعلیم": 6035,
      "شفا": 6036,
      "گذاشتن": 6037,
      "ترافیک": 6038,
      "تازگی": 6039,
      "پات": 6040,
      "وردین": 6041,
      "کیست": 6042,
      "دوستش": 6043,
      "bo": 6044,
      "پرچم": 6045,
      "ژاپنی": 6046,
      "توهین": 6047,
      "AG": 6048,
      "دانه": 6049,
      "تاپ": 6050,
      "aro": 6051,
      "فروخته": 6052,
      "بردند": 6053,
      ")(": 6054,
      "LV": 6055,
      "جون": 6056,
      "ux": 6057,
      "خفه": 6058,
      "محاکمه": 6059,
      "ire": 6060,
      "itan": 6061,
      "PDF": 6062,
      "کیسه": 6063,
      "ئم": 6064,
      "فیه": 6065,
      "لوف": 6066,
      "بیاموز": 6067,
      "سمی": 6068,
      "فلسطینی": 6069,
      "پیوسته": 6070,
      "خراج": 6071,
      "مکر": 6072,
      "مسال": 6073,
      "نگار": 6074,
      "ovsk": 6075,
      "مصمم": 6076,
      "اکتش": 6077,
      "جلس": 6078,
      "ائتلاف": 6079,
      "MD": 6080,
      "فرآوری": 6081,
      "متعدد": 6082,
      "شواهد": 6083,
      "تلاشش": 6084,
      "التماس": 6085,
      "موهای": 6086,
      "تقاضای": 6087,
      "دکس": 6088,
      "تمدن": 6089,
      "قاره": 6090,
      "راستی": 6091,
      "Zh": 6092,
      "کاملی": 6093,
      "فروردین": 6094,
      "330": 6095,
      "تولیدی": 6096,
      "استراحتگاه": 6097,
      "مسالمت": 6098,
      "ст": 6099,
      "ington": 6100,
      "aa": 6101,
      "عب": 6102,
      "outh": 6103,
      "نکردم": 6104,
      "ources": 6105,
      "رافت": 6106,
      "سلول": 6107,
      "ech": 6108,
      "نوری": 6109,
      "812": 6110,
      "روانی": 6111,
      "زندانی": 6112,
      "زانو": 6113,
      "وادار": 6114,
      "هکتار": 6115,
      "OL": 6116,
      "مکاش": 6117,
      "ij": 6118,
      "ارتدکس": 6119,
      "قطر": 6120,
      "قفقاز": 6121,
      "CCS": 6122,
      "عذ": 6123,
      "room": 6124,
      "آمدید": 6125,
      "افزودن": 6126,
      "نازل": 6127,
      "اطه": 6128,
      "جوام": 6129,
      "احاطه": 6130,
      "سیگنال": 6131,
      "File": 6132,
      "خطرات": 6133,
      "chester": 6134,
      "315": 6135,
      "ناامیدی": 6136,
      "جانب": 6137,
      "\"\"\"\":": 6138,
      "Ob": 6139,
      "ارک": 6140,
      "پنجم": 6141,
      "صادقانه": 6142,
      "خز": 6143,
      "تاکنون": 6144,
      "Hill": 6145,
      "رسنجی": 6146,
      "نظرسنجی": 6147,
      "mp": 6148,
      "کنسول": 6149,
      "احکام": 6150,
      "رادیو": 6151,
      "آیووا": 6152,
      "نوزاد": 6153,
      "infotek": 6154,
      "بزرگسالان": 6155,
      "باشکوه": 6156,
      "ثالث": 6157,
      "کیم": 6158,
      "کارمند": 6159,
      "چوست": 6160,
      "ماساچوست": 6161,
      "رابط": 6162,
      "استال": 6163,
      "Web": 6164,
      "زاری": 6165,
      "لیبرا": 6166,
      "ریالی": 6167,
      "تلویزیونی": 6168,
      "تسلط": 6169,
      "enet": 6170,
      "شناسه": 6171,
      "تقاضا": 6172,
      "پوند": 6173,
      "محمد": 6174,
      "رنگی": 6175,
      "تحریم": 6176,
      "/>": 6177,
      "mb": 6178,
      "اپوزی": 6179,
      "ust": 6180,
      "پوشه": 6181,
      "قرآن": 6182,
      "کیک": 6183,
      "**(*****)": 6184,
      "غه": 6185,
      "نقد": 6186,
      "تاریخچه": 6187,
      "بیرونی": 6188,
      "BB": 6189,
      "کرت": 6190,
      "مردگان": 6191,
      "برقراری": 6192,
      "ah": 6193,
      "last": 6194,
      "وگرنه": 6195,
      "اپوزیسیون": 6196,
      "ade": 6197,
      "یوتا": 6198,
      "مخر": 6199,
      "رام": 6200,
      "همگی": 6201,
      "For": 6202,
      "معناست": 6203,
      "جار": 6204,
      "بداند": 6205,
      "تها": 6206,
      "پزشکان": 6207,
      "سالگی": 6208,
      "وفادار": 6209,
      "هاستل": 6210,
      "پراکنده": 6211,
      "Ac": 6212,
      "JP": 6213,
      "حساس": 6214,
      "تیره": 6215,
      "دفن": 6216,
      "لاور": 6217,
      "gl": 6218,
      "انتقام": 6219,
      "پروردگار": 6220,
      "مکاشفه": 6221,
      "گله": 6222,
      "برسی": 6223,
      "ages": 6224,
      "دیدی": 6225,
      "خاورمیانه": 6226,
      ")؛": 6227,
      "شمارش": 6228,
      "کشیش": 6229,
      "مخالفان": 6230,
      "اندی": 6231,
      "استودیو": 6232,
      "Th": 6233,
      "راهنما": 6234,
      "201608": 6235,
      "تخلیه": 6236,
      "عام": 6237,
      "(\"\"": 6238,
      "1391": 6239,
      "تابعیت": 6240,
      "se": 6241,
      "گلوله": 6242,
      "آشنایی": 6243,
      "نظریه": 6244,
      "ati": 6245,
      "وجوه": 6246,
      "\"\"\"\"\"\"\"\"\"\"\"\"": 6247,
      "کاتال": 6248,
      "ویکتوریا": 6249,
      "vo": 6250,
      "بایت": 6251,
      "استخوان": 6252,
      "راهپیمایی": 6253,
      "ye": 6254,
      "جوامع": 6255,
      "ویروسی": 6256,
      "شائول": 6257,
      "مدرک": 6258,
      "موظ": 6259,
      "موعد": 6260,
      "ینگتون": 6261,
      "سوئد": 6262,
      "مسیحیان": 6263,
      "کاو": 6264,
      "کیشین": 6265,
      "بارسلون": 6266,
      "هنرمندان": 6267,
      "par": 6268,
      "فش": 6269,
      "بینیم": 6270,
      "Down": 6271,
      "مادرم": 6272,
      "نبودند": 6273,
      "rop": 6274,
      "آلو": 6275,
      "برساند": 6276,
      "________": 6277,
      "استعداد": 6278,
      "دستمزد": 6279,
      "498": 6280,
      "لاتین": 6281,
      "وجدان": 6282,
      "شیکا": 6283,
      "مدام": 6284,
      "نکنیم": 6285,
      "کشورمان": 6286,
      "مشکوک": 6287,
      "توج": 6288,
      "تمدید": 6289,
      "بفرست": 6290,
      "شناسم": 6291,
      "chen": 6292,
      "Sil": 6293,
      "شهرت": 6294,
      "صعود": 6295,
      "بخت": 6296,
      "اینه": 6297,
      "813": 6298,
      "815": 6299,
      "یونی": 6300,
      "تصفیه": 6301,
      "شیکاگو": 6302,
      "me": 6303,
      "کیفری": 6304,
      "داشتنی": 6305,
      "پرسم": 6306,
      "اندوه": 6307,
      "بطری": 6308,
      "هری": 6309,
      "بعضی": 6310,
      "Vir": 6311,
      "کتیک": 6312,
      "روشنایی": 6313,
      "KZ": 6314,
      "بدل": 6315,
      "تحولات": 6316,
      "XX": 6317,
      "گاندا": 6318,
      "پاییز": 6319,
      "!!!": 6320,
      "تاتارستان": 6321,
      "اورگان": 6322,
      "انبا": 6323,
      "101": 6324,
      "مقصد": 6325,
      "مسافران": 6326,
      "جلد": 6327,
      "حریم": 6328,
      "خاطرات": 6329,
      "پیرمرد": 6330,
      "لاوی": 6331,
      "معاصر": 6332,
      "دادستان": 6333,
      "CNB": 6334,
      "خلاقانه": 6335,
      "مرزهای": 6336,
      "هلاک": 6337,
      "بومی": 6338,
      "جوش": 6339,
      "اشتباهات": 6340,
      "دستانش": 6341,
      "مغان": 6342,
      "تخریب": 6343,
      "travel": 6344,
      "بلشویک": 6345,
      "DA": 6346,
      "سفارشی": 6347,
      "کوچولو": 6348,
      "کالج": 6349,
      "بهای": 6350,
      "آبان": 6351,
      "پوشان": 6352,
      "تزئین": 6353,
      "va": 6354,
      "خوانی": 6355,
      "بورس": 6356,
      "817": 6357,
      "پرای": 6358,
      "ارمغان": 6359,
      "آندری": 6360,
      "گیرید": 6361,
      "alt": 6362,
      "Westchester": 6363,
      "تاکی": 6364,
      "سکونت": 6365,
      "عصبانیت": 6366,
      "سوسیالیستی": 6367,
      "استخراج": 6368,
      "ings": 6369,
      "احمقانه": 6370,
      "مگابایت": 6371,
      "my": 6372,
      "غو": 6373,
      "انگیزی": 6374,
      "DP": 6375,
      "دوید": 6376,
      "کوکی": 6377,
      "مردانی": 6378,
      "ata": 6379,
      "fil": 6380,
      "بایست": 6381,
      "1999": 6382,
      "آهسته": 6383,
      "لبن": 6384,
      "آورید": 6385,
      "icag": 6386,
      "متفاوتی": 6387,
      "ماسی": 6388,
      "همراهی": 6389,
      "دورتر": 6390,
      "kak": 6391,
      "بیو": 6392,
      "نویسد": 6393,
      "خوی": 6394,
      "فره": 6395,
      "&#": 6396,
      "ترسم": 6397,
      "atch": 6398,
      "Of": 6399,
      "نداده": 6400,
      "دهایی": 6401,
      "کانس": 6402,
      "بگیری": 6403,
      "ناله": 6404,
      "انط": 6405,
      "اسد": 6406,
      "orld": 6407,
      "خاد": 6408,
      "درهای": 6409,
      "تلاشی": 6410,
      "ماهیگیری": 6411,
      "سوزان": 6412,
      "آشکارا": 6413,
      "قیام": 6414,
      "خداحافظ": 6415,
      "%)": 6416,
      "سع": 6417,
      "گربه": 6418,
      "کلبه": 6419,
      "کربن": 6420,
      "شکاف": 6421,
      "پیچید": 6422,
      "RO": 6423,
      "سفه": 6424,
      "سمه": 6425,
      "چمدان": 6426,
      "فاجعه": 6427,
      "قراردادهای": 6428,
      "IL": 6429,
      "نوک": 6430,
      "تماشای": 6431,
      "دبیرکل": 6432,
      "ارباب": 6433,
      "مومن": 6434,
      "عذاب": 6435,
      "700": 6436,
      "کلینیک": 6437,
      "ویا": 6438,
      "RS": 6439,
      "عون": 6440,
      "یار": 6441,
      "منشور": 6442,
      "سرزمینی": 6443,
      "مجسمه": 6444,
      "lt": 6445,
      "بهمن": 6446,
      "مناسبی": 6447,
      "yn": 6448,
      "BP": 6449,
      "فلسفه": 6450,
      "217": 6451,
      "سنا": 6452,
      "مانت": 6453,
      "زام": 6454,
      "گستری": 6455,
      "انبوه": 6456,
      "لوت": 6457,
      "زیرزمینی": 6458,
      "شوهرش": 6459,
      "زاو": 6460,
      "Sc": 6461,
      "201405": 6462,
      "ادیر": 6463,
      "نوادا": 6464,
      "پرتو": 6465,
      "آقایان": 6466,
      "214": 6467,
      "مریم": 6468,
      "216": 6469,
      "DD": 6470,
      "ien": 6471,
      "برلین": 6472,
      "روستوف": 6473,
      "متمایز": 6474,
      "ویستا": 6475,
      "ذهنی": 6476,
      "حوض": 6477,
      "بیگانه": 6478,
      "ga": 6479,
      "vent": 6480,
      "دادگستری": 6481,
      "DM": 6482,
      "دفاعی": 6483,
      "نگی": 6484,
      "شمار": 6485,
      "فانی": 6486,
      "ins": 6487,
      "بارگیری": 6488,
      "امپریالی": 6489,
      "خداست": 6490,
      "Gas": 6491,
      "نکات": 6492,
      "الگو": 6493,
      "انتظارات": 6494,
      "مزیت": 6495,
      "برزیل": 6496,
      "2018": 6497,
      "یافتند": 6498,
      "رئیسش": 6499,
      "جما": 6500,
      "باستان": 6501,
      "برابری": 6502,
      "www1": 6503,
      "ath": 6504,
      ").\"": 6505,
      "ترم": 6506,
      "He": 6507,
      "130": 6508,
      "310239": 6509,
      "201405310239": 6510,
      "20140531023911": 6511,
      "باند": 6512,
      "نخواهید": 6513,
      "********": 6514,
      "مهدکودک": 6515,
      "OV": 6516,
      "صاب": 6517,
      "مستل": 6518,
      "محتوا": 6519,
      "225": 6520,
      "شعار": 6521,
      "نامزدی": 6522,
      "سیلی": 6523,
      "اتها": 6524,
      "ریز": 6525,
      "تدریج": 6526,
      "347": 6527,
      "تیمی": 6528,
      "سید": 6529,
      "ماریا": 6530,
      "مستلزم": 6531,
      "تجدیدپذیر": 6532,
      "انگشتان": 6533,
      "!\"\"\"": 6534,
      "اطلاعی": 6535,
      "عف": 6536,
      "ملکوت": 6537,
      "تروتسکی": 6538,
      "لعنت": 6539,
      "ندرت": 6540,
      "بعید": 6541,
      "مکعب": 6542,
      "منف": 6543,
      "توجیه": 6544,
      "SA": 6545,
      "شکلی": 6546,
      "PRO": 6547,
      "جسم": 6548,
      "هایمان": 6549,
      "متعددی": 6550,
      "ield": 6551,
      "CIS": 6552,
      "ps": 6553,
      "ژنو": 6554,
      "شناسد": 6555,
      "UA": 6556,
      "lan": 6557,
      "iu": 6558,
      "بابل": 6559,
      "gall": 6560,
      "منوی": 6561,
      "پسری": 6562,
      "Mac": 6563,
      "افراط": 6564,
      "ترانه": 6565,
      "لوط": 6566,
      "بخیر": 6567,
      "لیبرال": 6568,
      "220": 6569,
      "پسرم": 6570,
      "ions": 6571,
      "دیوید": 6572,
      "اعطای": 6573,
      ".......": 6574,
      "Reg": 6575,
      "یخچال": 6576,
      "آستین": 6577,
      "لبنان": 6578,
      "رومی": 6579,
      "شهریور": 6580,
      "تاکسی": 6581,
      "اسفند": 6582,
      "tair": 6583,
      "انحصاری": 6584,
      "قیا": 6585,
      "oker": 6586,
      "Per": 6587,
      "Art": 6588,
      "حدودی": 6589,
      "وفاداری": 6590,
      "قاطع": 6591,
      "Ak": 6592,
      "جرای": 6593,
      "سیگاری": 6594,
      "موانع": 6595,
      "کلان": 6596,
      "فنگ": 6597,
      "تعلی": 6598,
      "شورش": 6599,
      "واری": 6600,
      "کاربرد": 6601,
      "پژ": 6602,
      "فرکانس": 6603,
      "ممنوعیت": 6604,
      "اتباع": 6605,
      "Val": 6606,
      "نابودی": 6607,
      "کوچکتر": 6608,
      "کنتاکی": 6609,
      "بیله": 6610,
      "استقرار": 6611,
      "سیب": 6612,
      "che": 6613,
      "Dr": 6614,
      "KR": 6615,
      "التحصیل": 6616,
      "حلال": 6617,
      "دینگ": 6618,
      "برقی": 6619,
      "ART": 6620,
      "حکمت": 6621,
      "نظارتی": 6622,
      "بدین": 6623,
      "تخمین": 6624,
      "نامزدهای": 6625,
      "هفتاد": 6626,
      "موقعیتی": 6627,
      "مخرب": 6628,
      "جاود": 6629,
      "847": 6630,
      "ماکسی": 6631,
      "معه": 6632,
      "تران": 6633,
      "پاش": 6634,
      "پورتال": 6635,
      "صومعه": 6636,
      "بون": 6637,
      "فاز": 6638,
      "نگری": 6639,
      "مهربانی": 6640,
      "PU": 6641,
      "ube": 6642,
      "Min": 6643,
      "نتوانستم": 6644,
      "حضرت": 6645,
      "Cont": 6646,
      "RU": 6647,
      "تربیت": 6648,
      "پشتیبان": 6649,
      "کوبا": 6650,
      "سایش": 6651,
      "نبوده": 6652,
      "قدیم": 6653,
      "latvia": 6654,
      "tairenet": 6655,
      "207": 6656,
      "سریعتر": 6657,
      "توجی": 6658,
      "ert": 6659,
      "voltairenet": 6660,
      "رمان": 6661,
      "گیرم": 6662,
      "att": 6663,
      "کالسکه": 6664,
      "\"\")": 6665,
      "دستگیری": 6666,
      "سانتا": 6667,
      "پرسش": 6668,
      "fl": 6669,
      "زخم": 6670,
      "بافت": 6671,
      "نفتی": 6672,
      "صادق": 6673,
      "صفر": 6674,
      "عجیبی": 6675,
      "Bu": 6676,
      "حادث": 6677,
      "но": 6678,
      "103": 6679,
      "108": 6680,
      "ovo": 6681,
      "CDATA": 6682,
      "برخلاف": 6683,
      "اضع": 6684,
      "تضعیف": 6685,
      "ردیف": 6686,
      "حادثه": 6687,
      "224": 6688,
      "سرژ": 6689,
      "FX": 6690,
      "مجل": 6691,
      "ical": 6692,
      "زنند": 6693,
      "ضمانت": 6694,
      "ولا": 6695,
      "کامپیوتری": 6696,
      "نویسی": 6697,
      "میرم": 6698,
      "رویم": 6699,
      "طراح": 6700,
      "سونا": 6701,
      "مهاج": 6702,
      "چرخش": 6703,
      "اوباما": 6704,
      "آنهاست": 6705,
      "شهرک": 6706,
      "خرداد": 6707,
      "علیوا": 6708,
      "مقادیر": 6709,
      "انف": 6710,
      "برهنه": 6711,
      "عرو": 6712,
      "جراحی": 6713,
      "ضمن": 6714,
      "ماندن": 6715,
      "احساسی": 6716,
      "پدرت": 6717,
      "گرسنگی": 6718,
      "رویای": 6719,
      "حرارتی": 6720,
      "Tele": 6721,
      "برندگان": 6722,
      "اینچ": 6723,
      "فرمانداری": 6724,
      "بیاورم": 6725,
      "بدبختی": 6726,
      "شخصا": 6727,
      "dem": 6728,
      "آرکانزاس": 6729,
      "زغال": 6730,
      "پیکربندی": 6731,
      "act": 6732,
      "خشمگین": 6733,
      "الکتریکی": 6734,
      "موظف": 6735,
      "419": 6736,
      "زودهنگام": 6737,
      "توجیهی": 6738,
      "تظاه": 6739,
      "میرد": 6740,
      "ساعتی": 6741,
      "267": 6742,
      "USB": 6743,
      "دما": 6744,
      "کلو": 6745,
      "vid": 6746,
      "کمتری": 6747,
      "مهمتر": 6748,
      "ron": 6749,
      "گالی": 6750,
      "برآورد": 6751,
      "فیزیک": 6752,
      "تظاهرات": 6753,
      "EF": 6754,
      "بنده": 6755,
      "زندانیان": 6756,
      "گردن": 6757,
      "خورشیدی": 6758,
      "فنجان": 6759,
      "مستمر": 6760,
      "فدا": 6761,
      "Vol": 6762,
      "کثی": 6763,
      "وسیع": 6764,
      "614": 6765,
      "یری": 6766,
      "بخر": 6767,
      "بروکسل": 6768,
      "دوستانش": 6769,
      "ماجراجویی": 6770,
      "yout": 6771,
      "نشانی": 6772,
      "orsk": 6773,
      "ناظر": 6774,
      "تفنگ": 6775,
      "تعرفه": 6776,
      "ada": 6777,
      "دوری": 6778,
      "ansk": 6779,
      "ara": 6780,
      "ضرر": 6781,
      "خلاص": 6782,
      "میکنه": 6783,
      "ادبیات": 6784,
      "مشکلاتی": 6785,
      "عربستان": 6786,
      "DN": 6787,
      "برگز": 6788,
      "آنجلس": 6789,
      "جایگزینی": 6790,
      "واسه": 6791,
      "cont": 6792,
      "پش": 6793,
      "کوپن": 6794,
      "ویدیویی": 6795,
      "125": 6796,
      "بگذاریم": 6797,
      "هارون": 6798,
      "مجا": 6799,
      "001": 6800,
      "روزمره": 6801,
      "سوزی": 6802,
      "Downlo": 6803,
      "فقر": 6804,
      "استوار": 6805,
      "ign": 6806,
      "ISTC": 6807,
      "برادرش": 6808,
      "rans": 6809,
      "آنهایی": 6810,
      "طرفدار": 6811,
      "que": 6812,
      "پرندگان": 6813,
      "314": 6814,
      "باریک": 6815,
      "قاچاق": 6816,
      "ساعات": 6817,
      "any": 6818,
      "تخل": 6819,
      "هفتم": 6820,
      "مستغلات": 6821,
      "عصبی": 6822,
      "بپذیرد": 6823,
      "افزوده": 6824,
      "630": 6825,
      "گلف": 6826,
      "وگورود": 6827,
      "تنیس": 6828,
      "تره": 6829,
      "GMT": 6830,
      "قبرس": 6831,
      "نووگورود": 6832,
      "903": 6833,
      "yk": 6834,
      "ازیا": 6835,
      "کرایه": 6836,
      "اکتشاف": 6837,
      "Lex": 6838,
      "اود": 6839,
      "Av": 6840,
      "خوشم": 6841,
      "ندهید": 6842,
      "قبیله": 6843,
      "بیایم": 6844,
      "مبتلا": 6845,
      "کمکی": 6846,
      "چرخید": 6847,
      "انتخابی": 6848,
      "سراغ": 6849,
      "ake": 6850,
      "خنک": 6851,
      "جاذ": 6852,
      "معلو": 6853,
      "نمایه": 6854,
      "گردی": 6855,
      "ابتکارات": 6856,
      "روبه": 6857,
      "کیلوبایت": 6858,
      "هولوکاست": 6859,
      "WC": 6860,
      "سرنگ": 6861,
      "قطعی": 6862,
      "خوابگاه": 6863,
      "عملا": 6864,
      "پلتفرم": 6865,
      "علائم": 6866,
      "SE": 6867,
      "غمگین": 6868,
      "North": 6869,
      "کانی": 6870,
      "تحصیلات": 6871,
      "ser": 6872,
      "نباش": 6873,
      "درونی": 6874,
      "برتری": 6875,
      "شنود": 6876,
      "api": 6877,
      "سرهنگ": 6878,
      "خالق": 6879,
      "جابجایی": 6880,
      "وویچ": 6881,
      "لاب": 6882,
      "////": 6883,
      "urg": 6884,
      "سوسیالیسم": 6885,
      "باهوش": 6886,
      "توب": 6887,
      "!!!!": 6888,
      "South": 6889,
      "لجست": 6890,
      "محوطه": 6891,
      "قطره": 6892,
      "میله": 6893,
      "اوستی": 6894,
      "خودمخت": 6895,
      "سنه": 6896,
      "آبجو": 6897,
      "شایست": 6898,
      "زیان": 6899,
      "ask": 6900,
      "حفاری": 6901,
      "========": 6902,
      "ba": 6903,
      "لیز": 6904,
      "منشا": 6905,
      "TP": 6906,
      "بردی": 6907,
      "تضاد": 6908,
      "شکوه": 6909,
      "تیراندازی": 6910,
      "منصف": 6911,
      "DB": 6912,
      "زید": 6913,
      "آرژ": 6914,
      "توانستیم": 6915,
      "Downloader": 6916,
      "Ro": 6917,
      "برگردان": 6918,
      "مستند": 6919,
      "گرافی": 6920,
      "بالتیک": 6921,
      "ناخواسته": 6922,
      "ببرم": 6923,
      "بذار": 6924,
      "109": 6925,
      "ston": 6926,
      "mo": 6927,
      "یص": 6928,
      "منتهی": 6929,
      "USD": 6930,
      "نیکی": 6931,
      "پایانی": 6932,
      "آکو": 6933,
      "موجب": 6934,
      "سازه": 6935,
      "خیریه": 6936,
      "مبارزات": 6937,
      "کابین": 6938,
      "خستگی": 6939,
      "آنان": 6940,
      "180": 6941,
      "زنجیره": 6942,
      "هنج": 6943,
      "جواه": 6944,
      "مارتین": 6945,
      "نازی": 6946,
      "پراگ": 6947,
      "ظات": 6948,
      "اسکل": 6949,
      "102": 6950,
      "کابل": 6951,
      "عمه": 6952,
      "نیام": 6953,
      "دینی": 6954,
      "کادر": 6955,
      "ove": 6956,
      "line": 6957,
      "خات": 6958,
      "تیز": 6959,
      "سپ": 6960,
      "715": 6961,
      "Sk": 6962,
      "ویض": 6963,
      "دیدنی": 6964,
      "osh": 6965,
      "Sec": 6966,
      "کشورهایی": 6967,
      "اکو": 6968,
      "404": 6969,
      "خوری": 6970,
      "خرس": 6971,
      "باق": 6972,
      "دوام": 6973,
      "ree": 6974,
      "مبادا": 6975,
      "یان": 6976,
      "خدمتکار": 6977,
      "درز": 6978,
      "نداره": 6979,
      "istr": 6980,
      "3000": 6981,
      "Fin": 6982,
      "الاغ": 6983,
      "هول": 6984,
      "برایم": 6985,
      "ناظ": 6986,
      "اندکی": 6987,
      "اپست": 6988,
      "انحراف": 6989,
      "ویلیام": 6990,
      "شال": 6991,
      "Titan": 6992,
      "گرما": 6993,
      "con": 6994,
      "160": 6995,
      "فلزات": 6996,
      "بیایند": 6997,
      "آسمانی": 6998,
      "وکار": 6999,
      "بوداپست": 7000,
      "مصنوعی": 7001,
      "کارآفرینی": 7002,
      "796": 7003,
      "805": 7004,
      "اجاق": 7005,
      "جذا": 7006,
      "دشواری": 7007,
      "703": 7008,
      "field": 7009,
      "men": 7010,
      "کک": 7011,
      "اهو": 7012,
      "داود": 7013,
      "نگذ": 7014,
      "الیز": 7015,
      "چنانکه": 7016,
      "پمپ": 7017,
      "bor": 7018,
      "uz": 7019,
      "phop": 7020,
      "تخصیص": 7021,
      "320": 7022,
      "Back": 7023,
      "فرعون": 7024,
      "ral": 7025,
      "بکند": 7026,
      "بقای": 7027,
      "سپری": 7028,
      "برداشته": 7029,
      "گردشگران": 7030,
      "تشری": 7031,
      "اهمی": 7032,
      "اسل": 7033,
      "الاجرا": 7034,
      "ance": 7035,
      "آسیاب": 7036,
      "313": 7037,
      "ضخ": 7038,
      "اختلافات": 7039,
      "ماق": 7040,
      "OC": 7041,
      "Poker": 7042,
      "تابوت": 7043,
      "زنبور": 7044,
      "der": 7045,
      "حبس": 7046,
      "طو": 7047,
      "فرشت": 7048,
      "تلفنی": 7049,
      "وحشتناکی": 7050,
      "dante": 7051,
      "بهانه": 7052,
      "سوسیال": 7053,
      "TrojanDownloader": 7054,
      "لور": 7055,
      "بریک": 7056,
      "بدم": 7057,
      "مصی": 7058,
      "برسیم": 7059,
      "<![": 7060,
      "سعودی": 7061,
      "بها": 7062,
      "دخالت": 7063,
      "بکنم": 7064,
      "التحصی": 7065,
      "معج": 7066,
      "140": 7067,
      "یکال": 7068,
      "دانا": 7069,
      "Int": 7070,
      "احیای": 7071,
      "التحصیلان": 7072,
      "میهن": 7073,
      "شیطانی": 7074,
      "pdf": 7075,
      "معجزه": 7076,
      "yl": 7077,
      "ایلی": 7078,
      "فلسطین": 7079,
      "داوطلبانه": 7080,
      "DS": 7081,
      "میهمان": 7082,
      "ویس": 7083,
      "عیب": 7084,
      "پاپ": 7085,
      "236": 7086,
      "اخوری": 7087,
      "فاقد": 7088,
      "terz": 7089,
      "317": 7090,
      "rac": 7091,
      "ملایم": 7092,
      "محور": 7093,
      "شناختی": 7094,
      "رختخواب": 7095,
      "828": 7096,
      "bb": 7097,
      "شوالیه": 7098,
      "اختیارات": 7099,
      "بزرگراه": 7100,
      "umb": 7101,
      "112": 7102,
      "توالت": 7103,
      "قلبی": 7104,
      "ero": 7105,
      "غذاخوری": 7106,
      "فرماندهی": 7107,
      "نایب": 7108,
      "جاذبه": 7109,
      "متنوع": 7110,
      "512": 7111,
      "حساد": 7112,
      "موشک": 7113,
      "cel": 7114,
      "زیا": 7115,
      "ناشناخته": 7116,
      "تبعی": 7117,
      "724": 7118,
      "بنشین": 7119,
      "KZT": 7120,
      "350": 7121,
      "Sant": 7122,
      "استرس": 7123,
      "تواف": 7124,
      "پیامدهای": 7125,
      "Pal": 7126,
      "af": 7127,
      "جوری": 7128,
      "شات": 7129,
      "طاق": 7130,
      "لیوان": 7131,
      "ایدئ": 7132,
      "الکترونیک": 7133,
      "برن": 7134,
      "اسلواکی": 7135,
      "سرط": 7136,
      "گیاهی": 7137,
      "معنا": 7138,
      "مخلوط": 7139,
      "ology": 7140,
      "ano": 7141,
      "مطلوب": 7142,
      "آیین": 7143,
      "ترفی": 7144,
      "اسقف": 7145,
      "یونانی": 7146,
      "ضعف": 7147,
      "814": 7148,
      "بلژیک": 7149,
      "میدونم": 7150,
      "child": 7151,
      "Des": 7152,
      "شنی": 7153,
      "ایفا": 7154,
      "گرایان": 7155,
      "PM": 7156,
      "iPhone": 7157,
      "شرف": 7158,
      "بینند": 7159,
      "استالین": 7160,
      "انطباق": 7161,
      "نهفته": 7162,
      "KazMun": 7163,
      "مشتاقانه": 7164,
      "جغرافی": 7165,
      "الگوی": 7166,
      "تصرف": 7167,
      "ارج": 7168,
      "معلوم": 7169,
      "کالین": 7170,
      "غریبه": 7171,
      "td": 7172,
      "ни": 7173,
      "الله": 7174,
      "پارامترهای": 7175,
      "نروژ": 7176,
      "Lu": 7177,
      "مکرر": 7178,
      "مخت": 7179,
      "فنلان": 7180,
      "مشابهی": 7181,
      "شناختن": 7182,
      "کامیون": 7183,
      "mers": 7184,
      "ory": 7185,
      "ML": 7186,
      "لرد": 7187,
      "ley": 7188,
      "forums": 7189,
      "412": 7190,
      "مفاد": 7191,
      "فرشتگان": 7192,
      "Ky": 7193,
      "فنلاندی": 7194,
      "فرعی": 7195,
      "ola": 7196,
      "بمب": 7197,
      "اونی": 7198,
      "ink": 7199,
      "حسادت": 7200,
      "»»": 7201,
      "تحمیل": 7202,
      "تسلیحات": 7203,
      "آزادانه": 7204,
      "اسک": 7205,
      "شارژ": 7206,
      "لنینگراد": 7207,
      "hiphop": 7208,
      "بگذران": 7209,
      "ورزشکاران": 7210,
      "بودید": 7211,
      "1998": 7212,
      "گارد": 7213,
      "آرت": 7214,
      "Kh": 7215,
      "nect": 7216,
      "ادهای": 7217,
      "هنرهای": 7218,
      "گرفتار": 7219,
      "سطحی": 7220,
      "پدیده": 7221,
      "1990": 7222,
      "تلاشم": 7223,
      "خواننده": 7224,
      "درویش": 7225,
      "بمانید": 7226,
      "هلدینگ": 7227,
      "انتی": 7228,
      "کارفرمای": 7229,
      "دعوا": 7230,
      "مسلمانان": 7231,
      "den": 7232,
      "ary": 7233,
      "پین": 7234,
      "همکار": 7235,
      "روزرسانی": 7236,
      "خدماتی": 7237,
      "یادآور": 7238,
      "اندازد": 7239,
      "845": 7240,
      "بردارید": 7241,
      "کالاها": 7242,
      "مصیبت": 7243,
      "کهنه": 7244,
      "شگفتی": 7245,
      "کاراگاندا": 7246,
      "بدافزارهایی": 7247,
      "str": 7248,
      "کشتن": 7249,
      "ds": 7250,
      "بخورد": 7251,
      "خطی": 7252,
      "نقص": 7253,
      "Inc": 7254,
      "حوادث": 7255,
      "خندید": 7256,
      "وود": 7257,
      "+)": 7258,
      "518": 7259,
      "وردی": 7260,
      "تعویق": 7261,
      "مشمول": 7262,
      "فرادی": 7263,
      "رقم": 7264,
      "مونتاژ": 7265,
      "جذابیت": 7266,
      "415": 7267,
      "باها": 7268,
      "تورنمنت": 7269,
      "218": 7270,
      "انفرادی": 7271,
      "هیدرو": 7272,
      "IB": 7273,
      "هال": 7274,
      "مید": 7275,
      "بردار": 7276,
      "رساندن": 7277,
      ";&#": 7278,
      "ذین": 7279,
      "صیر": 7280,
      "راننده": 7281,
      "سیاستمدار": 7282,
      "ersey": 7283,
      "آشپزی": 7284,
      "آرژانتین": 7285,
      "530": 7286,
      "مبدل": 7287,
      "پاولودار": 7288,
      "جنایات": 7289,
      "مشروط": 7290,
      "میگم": 7291,
      "ریاضی": 7292,
      "آدا": 7293,
      "اریوم": 7294,
      "مخزن": 7295,
      "آمدم": 7296,
      "IG": 7297,
      "بنیان": 7298,
      "HD": 7299,
      "تناسب": 7300,
      "جت": 7301,
      "قائل": 7302,
      "مدیترانه": 7303,
      "استیکی": 7304,
      "ماهانه": 7305,
      "ISO": 7306,
      "714": 7307,
      "موله": 7308,
      "اثرات": 7309,
      "ناظران": 7310,
      "تابع": 7311,
      "نارنجی": 7312,
      "چارلز": 7313,
      "اوستیای": 7314,
      "اسپر": 7315,
      "فلزی": 7316,
      "چشمگیر": 7317,
      "ماساژ": 7318,
      ").\"\"\"": 7319,
      "318": 7320,
      "توانسته": 7321,
      "isp": 7322,
      "کوتای": 7323,
      "دائما": 7324,
      "wh": 7325,
      "1997": 7326,
      "دیکتات": 7327,
      "اتهامات": 7328,
      "پاکسازی": 7329,
      "cos": 7330,
      "ui": 7331,
      "حالش": 7332,
      "406": 7333,
      "nov": 7334,
      "مایع": 7335,
      "شلوار": 7336,
      "؟\"": 7337,
      "باک": 7338,
      "کرم": 7339,
      "سلطنتی": 7340,
      "ملکی": 7341,
      "اعده": 7342,
      "پروفس": 7343,
      "عاشقانه": 7344,
      "Oblast": 7345,
      "تعلیق": 7346,
      "wn": 7347,
      "سردر": 7348,
      "نگاری": 7349,
      "قطب": 7350,
      "لایحه": 7351,
      "شکی": 7352,
      "ایگور": 7353,
      "چنکو": 7354,
      "909": 7355,
      "LAN": 7356,
      "شیاط": 7357,
      "شنیدند": 7358,
      "پروفسور": 7359,
      "کاترین": 7360,
      "میخ": 7361,
      "!\"\"": 7362,
      "713": 7363,
      "KK": 7364,
      "اساسا": 7365,
      "غبار": 7366,
      "مواق": 7367,
      "هدر": 7368,
      "لوین": 7369,
      "803": 7370,
      "دادستانی": 7371,
      "اعدام": 7372,
      "ساختارهای": 7373,
      "les": 7374,
      "آشتی": 7375,
      "دودی": 7376,
      "206": 7377,
      "فرش": 7378,
      "شناور": 7379,
      "خلاقیت": 7380,
      "مجددا": 7381,
      "ظاهری": 7382,
      "--------": 7383,
      "بوری": 7384,
      "مادری": 7385,
      "مسخره": 7386,
      "دلم": 7387,
      "на": 7388,
      "گرافیک": 7389,
      "Hotel": 7390,
      "ششم": 7391,
      "مگی": 7392,
      "خاطره": 7393,
      "بمانم": 7394,
      "برانگیخت": 7395,
      "شایستگی": 7396,
      "نماده": 7397,
      "115": 7398,
      "کلیس": 7399,
      "ics": 7400,
      "LLC": 7401,
      "elect": 7402,
      "سورپرای": 7403,
      "هیات": 7404,
      "محاص": 7405,
      "229": 7406,
      "عموم": 7407,
      "نهر": 7408,
      "پهن": 7409,
      "گلی": 7410,
      "شناسید": 7411,
      "اکمولا": 7412,
      "اطلاعیه": 7413,
      "محاصره": 7414,
      "سیک": 7415,
      "اقلیت": 7416,
      "گود": 7417,
      "مایکل": 7418,
      "جماعت": 7419,
      "بدانم": 7420,
      "سوس": 7421,
      "تعویض": 7422,
      "شانسی": 7423,
      "نیکولای": 7424,
      "پانل": 7425,
      "اومد": 7426,
      "مزاح": 7427,
      "مباد": 7428,
      "اعضا": 7429,
      "407": 7430,
      "عینی": 7431,
      "لهستانی": 7432,
      "کشاورزان": 7433,
      "دائم": 7434,
      "PA": 7435,
      "مندرج": 7436,
      "ارتقائ": 7437,
      "درسته": 7438,
      "فائو": 7439,
      "EAEU": 7440,
      "اهمیتی": 7441,
      "717": 7442,
      "تراز": 7443,
      "سفرهای": 7444,
      "آسانی": 7445,
      "مبادله": 7446,
      "Miss": 7447,
      "هرز": 7448,
      "BO": 7449,
      "Po": 7450,
      "ظریف": 7451,
      "استانی": 7452,
      "205": 7453,
      "گوشی": 7454,
      "مقرون": 7455,
      "نیستیم": 7456,
      "حسابرسی": 7457,
      "No": 7458,
      "cd": 7459,
      "اسپا": 7460,
      "256": 7461,
      "شکستن": 7462,
      "سریال": 7463,
      "408": 7464,
      "زاد": 7465,
      "عسل": 7466,
      "محروم": 7467,
      "ita": 7468,
      "انداخته": 7469,
      "World": 7470,
      "ren": 7471,
      "ذینفع": 7472,
      "856": 7473,
      "زدهم": 7474,
      "حزبی": 7475,
      "طلای": 7476,
      "707": 7477,
      "کمان": 7478,
      "صربستان": 7479,
      "مذبح": 7480,
      "دوستانم": 7481,
      "diets": 7482,
      "word": 7483,
      "گرمای": 7484,
      "اشا": 7485,
      "ویو": 7486,
      "کمیسر": 7487,
      "618": 7488,
      "فال": 7489,
      "ارضی": 7490,
      "رسیدم": 7491,
      "ضرورت": 7492,
      "اسمی": 7493,
      "جدیدش": 7494,
      "جلوتر": 7495,
      "Agent": 7496,
      "ora": 7497,
      "آسیایی": 7498,
      "بازرگان": 7499,
      "ly": 7500,
      "بنویس": 7501,
      "1389": 7502,
      "feed": 7503,
      "eu": 7504,
      "chi": 7505,
      "مادرید": 7506,
      "شیاطین": 7507,
      "*(****)": 7508,
      "617": 7509,
      "درآم": 7510,
      "برسم": 7511,
      "گوسفند": 7512,
      "بوش": 7513,
      "حسابداری": 7514,
      "قاتل": 7515,
      "پشی": 7516,
      "مثبتی": 7517,
      "spils": 7518,
      "باتری": 7519,
      "رکورد": 7520,
      "لیون": 7521,
      "موز": 7522,
      "گیرنده": 7523,
      "بیابید": 7524,
      "کنجکاوی": 7525,
      "باطل": 7526,
      "منعقد": 7527,
      "تبعیض": 7528,
      "علف": 7529,
      "804": 7530,
      "ماهر": 7531,
      "رسان": 7532,
      "ندهد": 7533,
      "فراغ": 7534,
      "Kent": 7535,
      "کدهای": 7536,
      "ane": 7537,
      "ناتاشا": 7538,
      "مقدماتی": 7539,
      "باه": 7540,
      "کتبی": 7541,
      "صداهای": 7542,
      "213": 7543,
      "تلخ": 7544,
      "بدبخت": 7545,
      "اختیاری": 7546,
      "Ver": 7547,
      "لیگ": 7548,
      "209": 7549,
      "ریو": 7550,
      "LLP": 7551,
      "WS": 7552,
      "دزد": 7553,
      "سها": 7554,
      "ارق": 7555,
      "بدنی": 7556,
      "بپردازد": 7557,
      "stati": 7558,
      "ategy": 7559,
      "اخلاق": 7560,
      "گفتار": 7561,
      "پرش": 7562,
      "مخدر": 7563,
      "انگور": 7564,
      "گذاشتم": 7565,
      "امیدواریم": 7566,
      "SS": 7567,
      "شص": 7568,
      "سرطان": 7569,
      "گلو": 7570,
      "درام": 7571,
      "مصالح": 7572,
      "سوپر": 7573,
      "ommers": 7574,
      "مبارک": 7575,
      "Tool": 7576,
      "...)": 7577,
      "شیرینی": 7578,
      "Am": 7579,
      "ثمر": 7580,
      "فرانت": 7581,
      "پیست": 7582,
      "Jersey": 7583,
      "بولی": 7584,
      "چهارمین": 7585,
      "میخوام": 7586,
      "ucky": 7587,
      "Connect": 7588,
      "919": 7589,
      "405": 7590,
      "806": 7591,
      "لئون": 7592,
      "اواس": 7593,
      "نوف": 7594,
      "کثیف": 7595,
      "230": 7596,
      "Ju": 7597,
      "Sam": 7598,
      "کازینو": 7599,
      "CL": 7600,
      "محر": 7601,
      "شوت": 7602,
      "ро": 7603,
      "پیامک": 7604,
      "لبخندی": 7605,
      "210": 7606,
      "تفکر": 7607,
      "شست": 7608,
      "قیمتی": 7609,
      "ادارات": 7610,
      "حومه": 7611,
      "نکنند": 7612,
      "1992": 7613,
      "صمیمانه": 7614,
      "Silent": 7615,
      "928": 7616,
      "[/": 7617,
      "ater": 7618,
      "حواس": 7619,
      "گاراژ": 7620,
      "شصت": 7621,
      "فتگی": 7622,
      "گرسنه": 7623,
      "اسن": 7624,
      "مایلی": 7625,
      "سازگاری": 7626,
      "جادو": 7627,
      "زیلوردا": 7628,
      "507": 7629,
      "OT": 7630,
      "تطبی": 7631,
      "نمایی": 7632,
      "مشت": 7633,
      "وقایع": 7634,
      "Ten": 7635,
      "\"\"\"(": 7636,
      "Strategy": 7637,
      "گاوصندوق": 7638,
      "423": 7639,
      "wood": 7640,
      "جیب": 7641,
      "اپور": 7642,
      "سناری": 7643,
      "خبرنگاران": 7644,
      "گذارند": 7645,
      "646": 7646,
      "راو": 7647,
      "GB": 7648,
      "کمد": 7649,
      "داکوتای": 7650,
      "سفت": 7651,
      "ناسیون": 7652,
      "تدریس": 7653,
      "فان": 7654,
      "بادی": 7655,
      "Sia": 7656,
      "عوار": 7657,
      "زیستی": 7658,
      "تصحی": 7659,
      "دانشگاهی": 7660,
      "اواسط": 7661,
      "Gl": 7662,
      "شفافیت": 7663,
      "918": 7664,
      "Oh": 7665,
      "اینو": 7666,
      "نهادی": 7667,
      "پوینت": 7668,
      "مورخ": 7669,
      "شلوغ": 7670,
      "سهامی": 7671,
      "دونتسک": 7672,
      "مریض": 7673,
      "بسپار": 7674,
      "All": 7675,
      "قید": 7676,
      "1995": 7677,
      "سکول": 7678,
      "آفریقای": 7679,
      "Ltd": 7680,
      "ارتعاش": 7681,
      "پاور": 7682,
      "بمانند": 7683,
      "جلوه": 7684,
      "امتیازات": 7685,
      "508": 7686,
      "حص": 7687,
      "برید": 7688,
      "دیوارهای": 7689,
      "بدانند": 7690,
      "ازن": 7691,
      "CP": 7692,
      "فراز": 7693,
      "برگرداند": 7694,
      "گش": 7695,
      "گرفتی": 7696,
      "تصحیح": 7697,
      "503": 7698,
      "دیا": 7699,
      "ناشناس": 7700,
      "متحمل": 7701,
      "مکانیکی": 7702,
      "خلاق": 7703,
      "ра": 7704,
      "انحلال": 7705,
      "ملحق": 7706,
      "وقتش": 7707,
      "323": 7708,
      "زنا": 7709,
      "خوام": 7710,
      "آموزه": 7711,
      "نبودم": 7712,
      "بازگرداندن": 7713,
      "oria": 7714,
      "دلپذیر": 7715,
      "240": 7716,
      "let": 7717,
      "خوردند": 7718,
      "معلولیت": 7719,
      "mod": 7720,
      "ونگ": 7721,
      "ower": 7722,
      "جسد": 7723,
      "نبی": 7724,
      "اونا": 7725,
      "پوسته": 7726,
      "دانستن": 7727,
      "img": 7728,
      "هیوستون": 7729,
      "یکباره": 7730,
      "یادم": 7731,
      "NG": 7732,
      "706": 7733,
      "bit": 7734,
      "ناپل": 7735,
      "نمایشگاهی": 7736,
      "جریمه": 7737,
      "5000": 7738,
      "Hu": 7739,
      "704": 7740,
      "Sol": 7741,
      "TR": 7742,
      "کنن": 7743,
      "نیژنی": 7744,
      "مربیان": 7745,
      "ush": 7746,
      "اپل": 7747,
      "ظلم": 7748,
      "اقلام": 7749,
      "oto": 7750,
      "یارانه": 7751,
      "937": 7752,
      "انباشته": 7753,
      "816": 7754,
      "دهکده": 7755,
      "\"\"\"-": 7756,
      "پاسخی": 7757,
      "aca": 7758,
      "گرام": 7759,
      "خج": 7760,
      "ars": 7761,
      "تقدیس": 7762,
      "Ho": 7763,
      "پوی": 7764,
      "208": 7765,
      "هیدر": 7766,
      "Mont": 7767,
      "ببریم": 7768,
      "جرایم": 7769,
      "CR": 7770,
      "ri": 7771,
      "منحرف": 7772,
      "اصد": 7773,
      "ضوابط": 7774,
      "AID": 7775,
      "ژام": 7776,
      "بدنه": 7777,
      "پایداری": 7778,
      "anskommers": 7779,
      "دانمارک": 7780,
      "دلش": 7781,
      "تابعه": 7782,
      "615": 7783,
      "تایل": 7784,
      "زیم": 7785,
      "امپراتور": 7786,
      "دستیار": 7787,
      "newsin": 7788,
      "خوک": 7789,
      "همسای": 7790,
      "obe": 7791,
      "Siaul": 7792,
      "متوالی": 7793,
      "pt": 7794,
      "اعداد": 7795,
      "گیرانه": 7796,
      "منتخب": 7797,
      "ashion": 7798,
      "dlya": 7799,
      "505": 7800,
      "مسیری": 7801,
      "496": 7802,
      "پارچ": 7803,
      "دعای": 7804,
      "Open": 7805,
      "Trans": 7806,
      "قرعه": 7807,
      "نظیر": 7808,
      "مقدم": 7809,
      "پاشی": 7810,
      "آرمان": 7811,
      "ments": 7812,
      "مضطر": 7813,
      "pe": 7814,
      "ذی": 7815,
      "ردیابی": 7816,
      "مشکی": 7817,
      "محموله": 7818,
      "Kentucky": 7819,
      "توریستی": 7820,
      "111": 7821,
      "پیروان": 7822,
      "Media": 7823,
      "میا": 7824,
      "نیش": 7825,
      "کوچکترین": 7826,
      "ویدئ": 7827,
      "CEC": 7828,
      "نوجوانان": 7829,
      "نمیتونم": 7830,
      "خلبان": 7831,
      "WM": 7832,
      "نبرا": 7833,
      "خواهان": 7834,
      "فاض": 7835,
      "پالایش": 7836,
      "نازک": 7837,
      "Strategy2050": 7838,
      "نبراسکا": 7839,
      "شکو": 7840,
      "ترسناک": 7841,
      "اسرار": 7842,
      "icago": 7843,
      "بازان": 7844,
      "طبقاتی": 7845,
      "مخصوصا": 7846,
      "؟\"\"\"\"\"": 7847,
      "نماز": 7848,
      "IR": 7849,
      "افشای": 7850,
      "ارسالی": 7851,
      "Work": 7852,
      "آموزی": 7853,
      "idge": 7854,
      "istrict": 7855,
      "بستر": 7856,
      "609": 7857,
      "سیه": 7858,
      "طبقات": 7859,
      "بکشم": 7860,
      "گرند": 7861,
      "بازو": 7862,
      "درایو": 7863,
      "ماکسیم": 7864,
      "Air": 7865,
      "عان": 7866,
      "arm": 7867,
      "قفسه": 7868,
      "دردی": 7869,
      "اختل": 7870,
      "und": 7871,
      "pre": 7872,
      "رئی": 7873,
      "نخواهی": 7874,
      "تقویم": 7875,
      "لرزید": 7876,
      "فرمول": 7877,
      "Gate": 7878,
      "بیکاری": 7879,
      "air": 7880,
      "کسون": 7881,
      "1994": 7882,
      "Ter": 7883,
      "زلز": 7884,
      "عروس": 7885,
      "ماز": 7886,
      "ico": 7887,
      "قضات": 7888,
      "513": 7889,
      "At": 7890,
      "کارگروه": 7891,
      "کلای": 7892,
      "ota": 7893,
      "مضطرب": 7894,
      "میری": 7895,
      "خوابه": 7896,
      "ابق": 7897,
      "مهار": 7898,
      "olina": 7899,
      "Me": 7900,
      "li": 7901,
      "تسریع": 7902,
      "مشورت": 7903,
      "محترم": 7904,
      "سورپرایز": 7905,
      "تجسم": 7906,
      "تاثیری": 7907,
      "آکتوبه": 7908,
      "دمش": 7909,
      "رابرت": 7910,
      "خودی": 7911,
      "سرپرست": 7912,
      "مزخ": 7913,
      "میخا": 7914,
      "248": 7915,
      "ama": 7916,
      "اثربخشی": 7917,
      "ناخوشایند": 7918,
      "شرمنده": 7919,
      "خجالت": 7920,
      "757": 7921,
      "District": 7922,
      "یتی": 7923,
      "دختری": 7924,
      "آمیزی": 7925,
      "603": 7926,
      "708": 7927,
      "ئوس": 7928,
      "EV": 7929,
      "ki": 7930,
      "آنتونی": 7931,
      "گرافیکی": 7932,
      "605": 7933,
      "تفلیس": 7934,
      "ترسیم": 7935,
      "گرایش": 7936,
      "پسند": 7937,
      "تسهی": 7938,
      "خوزه": 7939,
      "کشویی": 7940,
      "رادیویی": 7941,
      "تسهیلات": 7942,
      "Eu": 7943,
      "دارویی": 7944,
      "مقاصد": 7945,
      "لاط": 7946,
      "فعالان": 7947,
      "نیروها": 7948,
      "ادعای": 7949,
      "LT": 7950,
      "ذوب": 7951,
      "ناس": 7952,
      "مندانه": 7953,
      "وحش": 7954,
      "عوارض": 7955,
      "113": 7956,
      "SH": 7957,
      "ومی": 7958,
      "طلبان": 7959,
      "انتشارات": 7960,
      "اپراتورهای": 7961,
      "319": 7962,
      "بانه": 7963,
      "کاتالوگ": 7964,
      "Ohio": 7965,
      "رفتیم": 7966,
      "خدایا": 7967,
      "CA": 7968,
      "شاگر": 7969,
      "کنگ": 7970,
      "خدایت": 7971,
      "خوشبختی": 7972,
      "برسید": 7973,
      "Siauliu": 7974,
      "ve": 7975,
      "لاستیک": 7976,
      "UAH": 7977,
      "Mon": 7978,
      "Spr": 7979,
      "TV": 7980,
      "روک": 7981,
      "کمربند": 7982,
      "223": 7983,
      "Che": 7984,
      "غار": 7985,
      "مجزا": 7986,
      "elle": 7987,
      "ویدیوی": 7988,
      "دیگ": 7989,
      "نامزدها": 7990,
      "دزدی": 7991,
      "کوبید": 7992,
      "وحشیانه": 7993,
      "تدارکات": 7994,
      "مسل": 7995,
      "NASB": 7996,
      "توماس": 7997,
      "اعتصاب": 7998,
      "ابریشم": 7999,
      "بدهند": 8000,
      "تاون": 8001,
      "اعماق": 8002,
      "پریده": 8003,
      "انفجار": 8004,
      "انیوم": 8005,
      "هیچی": 8006,
      "سودمند": 8007,
      "استثنای": 8008,
      "دیکتاتوری": 8009,
      "اعلی": 8010,
      "124": 8011,
      "واسطه": 8012,
      "آلودگی": 8013,
      "Er": 8014,
      "del": 8015,
      "آینه": 8016,
      "مبهم": 8017,
      "سرقت": 8018,
      "uden": 8019,
      "انبوهی": 8020,
      "hu": 8021,
      "آبخ": 8022,
      "پایبند": 8023,
      "219": 8024,
      "بپرسم": 8025,
      "lex": 8026,
      "716": 8027,
      "تقصیر": 8028,
      "طرفداران": 8029,
      "316": 8030,
      "606": 8031,
      "Host": 8032,
      "امارات": 8033,
      "میزبانی": 8034,
      "تختخواب": 8035,
      "Carolina": 8036,
      "معیارهای": 8037,
      "Cle": 8038,
      "OG": 8039,
      "سلاو": 8040,
      "بورو": 8041,
      "مواجهه": 8042,
      "Chicago": 8043,
      "گردم": 8044,
      "(****).": 8045,
      "!»": 8046,
      ".:": 8047,
      "325": 8048,
      "بدهیم": 8049,
      "خدایی": 8050,
      "337": 8051,
      "شناسند": 8052,
      "بیشکک": 8053,
      "آیفون": 8054,
      "ford": 8055,
      "425": 8056,
      "ترمین": 8057,
      "نوسان": 8058,
      "پرید": 8059,
      "استی": 8060,
      "منم": 8061,
      "اقتدار": 8062,
      "اسمیت": 8063,
      "نیکو": 8064,
      "ذهنش": 8065,
      "کلمبیا": 8066,
      "ترفیع": 8067,
      "517": 8068,
      "jp": 8069,
      "شیب": 8070,
      "هوان": 8071,
      "بیستم": 8072,
      "دستم": 8073,
      "رسیدیم": 8074,
      "پاهایش": 8075,
      "رویکر": 8076,
      "کاوش": 8077,
      "119": 8078,
      "417": 8079,
      "Nov": 8080,
      "نف": 8081,
      "دنور": 8082,
      "ogorsk": 8083,
      "تئوری": 8084,
      "دیوان": 8085,
      "مینه": 8086,
      "سولی": 8087,
      "زوج": 8088,
      "مطمئنم": 8089,
      "808": 8090,
      "مبانی": 8091,
      "ورانه": 8092,
      "خوشه": 8093,
      "اقوام": 8094,
      "معین": 8095,
      "رویایی": 8096,
      "تعالی": 8097,
      "پردازد": 8098,
      "پانزده": 8099,
      "604": 8100,
      "ابزاری": 8101,
      "نگیر": 8102,
      "eta": 8103,
      "Spy": 8104,
      "Part": 8105,
      "du": 8106,
      "سبت": 8107,
      "پوز": 8108,
      "لیبی": 8109,
      "راستای": 8110,
      "ika": 8111,
      "''": 8112,
      "بازگردان": 8113,
      "Gro": 8114,
      "fashion": 8115,
      "نباشید": 8116,
      "منز": 8117,
      "زیباترین": 8118,
      "gen": 8119,
      "ورق": 8120,
      "اتهام": 8121,
      "بازده": 8122,
      "محفو": 8123,
      "سوسیالیست": 8124,
      "وگو": 8125,
      "محفوظ": 8126,
      "787": 8127,
      "Sch": 8128,
      "دایی": 8129,
      "متال": 8130,
      "نایی": 8131,
      "کیشینو": 8132,
      "لجستیک": 8133,
      "sv": 8134,
      "حساسی": 8135,
      "ونیا": 8136,
      "علت": 8137,
      "ویرایشگر": 8138,
      "ations": 8139,
      "دفعه": 8140,
      "CB": 8141,
      "ذات": 8142,
      "قله": 8143,
      "کراس": 8144,
      "کشتار": 8145,
      "زخمی": 8146,
      "امروزی": 8147,
      "سالت": 8148,
      "پرستش": 8149,
      "تعدیل": 8150,
      "سانتیگراد": 8151,
      "منفجر": 8152,
      "نداری": 8153,
      "lav": 8154,
      "پاکستان": 8155,
      "واریز": 8156,
      "مترا": 8157,
      "1991": 8158,
      "kstati": 8159,
      "هج": 8160,
      "یابند": 8161,
      "118": 8162,
      "تصدی": 8163,
      "گونی": 8164,
      "Commun": 8165,
      "دگر": 8166,
      "ناق": 8167,
      "نامناسب": 8168,
      "تجمع": 8169,
      "قلبش": 8170,
      "برحسب": 8171,
      "جامه": 8172,
      "اتصالات": 8173,
      "عفونت": 8174,
      "راند": 8175,
      "کینگ": 8176,
      "بندگان": 8177,
      "وضعیتی": 8178,
      "گلخانه": 8179,
      "نیکلاس": 8180,
      "تغییراتی": 8181,
      "پرتغال": 8182,
      "ناوگان": 8183,
      "مجلل": 8184,
      "613": 8185,
      "چل": 8186,
      "یحی": 8187,
      "فروپاشی": 8188,
      "iver": 8189,
      "(*": 8190,
      "509": 8191,
      "Im": 8192,
      "گذراندن": 8193,
      "ls": 8194,
      "بسازد": 8195,
      "انق": 8196,
      "اهیم": 8197,
      "تیو": 8198,
      "شرکا": 8199,
      "ملو": 8200,
      "انداختن": 8201,
      "دویدن": 8202,
      "ann": 8203,
      "ett": 8204,
      "آورم": 8205,
      "نزدیکترین": 8206,
      "نمودار": 8207,
      "هجو": 8208,
      "موی": 8209,
      "نیوز": 8210,
      "دوستت": 8211,
      "یکم": 8212,
      "سامان": 8213,
      "وشا": 8214,
      "تیان": 8215,
      "همبستگی": 8216,
      "صرا": 8217,
      "معمار": 8218,
      "مجروح": 8219,
      "مسافرتی": 8220,
      "410": 8221,
      "Sun": 8222,
      "برات": 8223,
      "مقصر": 8224,
      "هدایای": 8225,
      "برسند": 8226,
      "مواظ": 8227,
      "بازوی": 8228,
      "ke": 8229,
      "قند": 8230,
      "269": 8231,
      "فاضلاب": 8232,
      "504": 8233,
      "زونا": 8234,
      "هان": 8235,
      "خرابی": 8236,
      "##": 8237,
      "OM": 8238,
      "بیولوژیکی": 8239,
      "نگوی": 8240,
      "خودروهای": 8241,
      "خس": 8242,
      "نگو": 8243,
      "دزدان": 8244,
      "هموط": 8245,
      "way": 8246,
      "ارث": 8247,
      "یامین": 8248,
      "هرچه": 8249,
      "بازیگران": 8250,
      "360": 8251,
      "جسمی": 8252,
      "دادید": 8253,
      "کوزی": 8254,
      "بصری": 8255,
      "شیم": 8256,
      "زحمات": 8257,
      "درگذشت": 8258,
      "روال": 8259,
      "117": 8260,
      "تایف": 8261,
      "قلاب": 8262,
      "دلی": 8263,
      "حرک": 8264,
      "iPad": 8265,
      "Center": 8266,
      "تطبیق": 8267,
      "FU": 8268,
      "ado": 8269,
      "پانو": 8270,
      "اریان": 8271,
      "تولو": 8272,
      "435": 8273,
      "hp": 8274,
      "».\"": 8275,
      "شاع": 8276,
      "پرسد": 8277,
      "قلم": 8278,
      "کنیسه": 8279,
      "دخترش": 8280,
      "قهرمانان": 8281,
      "nye": 8282,
      "712": 8283,
      "916": 8284,
      "Ele": 8285,
      "جناح": 8286,
      "قوت": 8287,
      "ژئو": 8288,
      "لیو": 8289,
      "افزونه": 8290,
      "amb": 8291,
      "منصفانه": 8292,
      "فولادی": 8293,
      "همتای": 8294,
      "بارد": 8295,
      "سخنران": 8296,
      "عمیقا": 8297,
      "727": 8298,
      "GS": 8299,
      "بپرد": 8300,
      "گوری": 8301,
      "309": 8302,
      "Grand": 8303,
      "جغرافیایی": 8304,
      "یاب": 8305,
      "ents": 8306,
      "iPod": 8307,
      "تشی": 8308,
      "عایق": 8309,
      "پیراه": 8310,
      "Kras": 8311,
      "Pla": 8312,
      "SU": 8313,
      "تیمو": 8314,
      "نجس": 8315,
      "تصمیمی": 8316,
      "سامارا": 8317,
      "por": 8318,
      "بشه": 8319,
      "ربع": 8320,
      "طئه": 8321,
      "توطئه": 8322,
      "تاجر": 8323,
      "gallery": 8324,
      "413": 8325,
      "450": 8326,
      "پرنس": 8327,
      "پوشاند": 8328,
      "درا": 8329,
      "دمی": 8330,
      "راستش": 8331,
      "آرو": 8332,
      "پیت": 8333,
      "نامحدود": 8334,
      "واگذار": 8335,
      "medical": 8336,
      "خیل": 8337,
      "والن": 8338,
      "میخائیل": 8339,
      "یحیی": 8340,
      "زبانی": 8341,
      "سالهای": 8342,
      "].": 8343,
      "مادربزرگ": 8344,
      "محافظ": 8345,
      "حامیان": 8346,
      "watch": 8347,
      "یکپارچ": 8348,
      "یکپارچگی": 8349,
      "حوله": 8350,
      "خبرگزاری": 8351,
      "باقیمانده": 8352,
      "خوشحالیم": 8353,
      "vra": 8354,
      "پارت": 8355,
      "هیچکس": 8356,
      "میانجی": 8357,
      "منی": 8358,
      "خوابی": 8359,
      "دیپلمات": 8360,
      "Sm": 8361,
      "بمیرد": 8362,
      "نصی": 8363,
      "لابی": 8364,
      "شنوی": 8365,
      "Ast": 8366,
      "oz": 8367,
      "بدست": 8368,
      "دردناک": 8369,
      "خوانندگان": 8370,
      "هجوم": 8371,
      "چستر": 8372,
      "گمی": 8373,
      "لحظات": 8374,
      "طلبی": 8375,
      "لاوروف": 8376,
      "آلومینی": 8377,
      "809": 8378,
      "Dne": 8379,
      "قراردادی": 8380,
      "بحرانی": 8381,
      "berg": 8382,
      "7498": 8383,
      "میهنی": 8384,
      "فرانسیسکو": 8385,
      "Port": 8386,
      "تونه": 8387,
      "لیان": 8388,
      "ختم": 8389,
      "بوفه": 8390,
      "تفاوتی": 8391,
      "درخشید": 8392,
      "Hou": 8393,
      "Te": 8394,
      "راکی": 8395,
      "کیفی": 8396,
      "مسح": 8397,
      "3D": 8398,
      "sen": 8399,
      "راهرو": 8400,
      "جادویی": 8401,
      "مزخرف": 8402,
      "HR": 8403,
      "mont": 8404,
      "دارنده": 8405,
      "1996": 8406,
      "منظورت": 8407,
      "محکومیت": 8408,
      "aw": 8409,
      "ببخش": 8410,
      "شطر": 8411,
      "هواپیم": 8412,
      "فروشنده": 8413,
      "Wh": 8414,
      "بخواهم": 8415,
      "ملموس": 8416,
      "چکمه": 8417,
      "معیار": 8418,
      "ied": 8419,
      "هرا": 8420,
      "فاح": 8421,
      "محو": 8422,
      "ets": 8423,
      "انگلیس": 8424,
      "پنبه": 8425,
      "Ant": 8426,
      "اسکری": 8427,
      "1993": 8428,
      "ترمینال": 8429,
      "چس": 8430,
      "کنسولی": 8431,
      "شاهدان": 8432,
      "Manag": 8433,
      "تهاجمی": 8434,
      "925": 8435,
      "خاتمه": 8436,
      "906": 8437,
      "پیگیری": 8438,
      "مشی": 8439,
      "DR": 8440,
      "On": 8441,
      "غارت": 8442,
      "کارل": 8443,
      "1500": 8444,
      "dr": 8445,
      "لنگ": 8446,
      "گمان": 8447,
      "تله": 8448,
      "خدمه": 8449,
      "116": 8450,
      "مسخر": 8451,
      "جدیت": 8452,
      "جمیع": 8453,
      "ملیت": 8454,
      "کلیف": 8455,
      "خادمان": 8456,
      "مواظب": 8457,
      "بنو": 8458,
      "urity": 8459,
      "York": 8460,
      "فتی": 8461,
      "برگردد": 8462,
      "608": 8463,
      "914": 8464,
      "عذر": 8465,
      "sw": 8466,
      "نیازمند": 8467,
      "ational": 8468,
      "بسازید": 8469,
      "جواهرات": 8470,
      "OB": 8471,
      "sr": 8472,
      "کیو": 8473,
      "گوگل": 8474,
      "بیاورند": 8475,
      "اهدات": 8476,
      "AA": 8477,
      "بذر": 8478,
      "نع": 8479,
      "بریده": 8480,
      "آتیراو": 8481,
      "رعد": 8482,
      "خیس": 8483,
      "بزنی": 8484,
      "دوستیابی": 8485,
      "ئود": 8486,
      "برایت": 8487,
      "مادرت": 8488,
      "ouri": 8489,
      "516": 8490,
      "830": 8491,
      "FF": 8492,
      "lic": 8493,
      "Ge": 8494,
      "دیشب": 8495,
      "شریر": 8496,
      "متحرک": 8497,
      "معکوس": 8498,
      "لوقا": 8499,
      "UM": 8500,
      "درآورد": 8501,
      "تولیک": 8502,
      "اخذ": 8503,
      "0x00": 8504,
      "عقیده": 8505,
      "ویدئویی": 8506,
      "TS": 8507,
      "114": 8508,
      "عظمت": 8509,
      "وابستگی": 8510,
      "استثنایی": 8511,
      "درآمدهای": 8512,
      "کشم": 8513,
      "بعداز": 8514,
      "فلش": 8515,
      "جنایی": 8516,
      "عاد": 8517,
      "کورا": 8518,
      "AIDS": 8519,
      "858": 8520,
      "الیسم": 8521,
      "مساوی": 8522,
      "کاتولیک": 8523,
      "Missouri": 8524,
      "بعدازظهر": 8525,
      "جاوا": 8526,
      "لاویان": 8527,
      "ль": 8528,
      "نخواهیم": 8529,
      "ase": 8530,
      "372": 8531,
      "دمشق": 8532,
      "Ab": 8533,
      "شدیدی": 8534,
      "ith": 8535,
      "پویا": 8536,
      "سینما": 8537,
      "آگاهانه": 8538,
      "PS3": 8539,
      "ترسیده": 8540,
      "فراغت": 8541,
      "Gre": 8542,
      "pm": 8543,
      "تسخ": 8544,
      "محدودی": 8545,
      "دلایلی": 8546,
      "دریغ": 8547,
      "سلیقه": 8548,
      "859": 8549,
      "واگن": 8550,
      "بخشش": 8551,
      "خنثی": 8552,
      "Serv": 8553,
      "شتاب": 8554,
      "ذرت": 8555,
      "فهمم": 8556,
      "حروف": 8557,
      "اسارت": 8558,
      "alk": 8559,
      "ولوژیک": 8560,
      "مونته": 8561,
      "مقدمه": 8562,
      "post": 8563,
      "سرانه": 8564,
      "بازنگری": 8565,
      "سوابق": 8566,
      "ole": 8567,
      "فعالانه": 8568,
      "PPF": 8569,
      "KT": 8570,
      "میگی": 8571,
      "اولا": 8572,
      "سرگردان": 8573,
      "تعظ": 8574,
      "والنسیا": 8575,
      "حریف": 8576,
      "سد": 8577,
      "پلا": 8578,
      "دارندگان": 8579,
      "چاقو": 8580,
      "سردرگمی": 8581,
      "هواپیمای": 8582,
      "IE": 8583,
      "پخت": 8584,
      "کسری": 8585,
      "مادام": 8586,
      "ینسک": 8587,
      "خواهش": 8588,
      "eva": 8589,
      "مرت": 8590,
      "ختنه": 8591,
      "متعادل": 8592,
      "لحن": 8593,
      "Flash": 8594,
      "نتوانستند": 8595,
      "KazMunay": 8596,
      "خوشب": 8597,
      "سالها": 8598,
      "../": 8599,
      "لوئیس": 8600,
      "جزئ": 8601,
      "مشخصی": 8602,
      "گرامی": 8603,
      "قدمی": 8604,
      "پژوه": 8605,
      "Cre": 8606,
      "ساگین": 8607,
      "قدرتی": 8608,
      "ببینی": 8609,
      "میکرو": 8610,
      "کرسی": 8611,
      "تعظیم": 8612,
      "ماندند": 8613,
      "تالار": 8614,
      "حامل": 8615,
      "ریق": 8616,
      "شکم": 8617,
      "عطا": 8618,
      "Houston": 8619,
      "UTC": 8620,
      "اریک": 8621,
      "داوران": 8622,
      "صدایش": 8623,
      "ذهنم": 8624,
      "خوشمزه": 8625,
      "نصف": 8626,
      "چشید": 8627,
      "محتا": 8628,
      "اروف": 8629,
      "247": 8630,
      "گارانتی": 8631,
      "فاسد": 8632,
      "صدمه": 8633,
      "رانده": 8634,
      "پیشنها": 8635,
      "برگردم": 8636,
      "/#": 8637,
      "نین": 8638,
      "تکمیلی": 8639,
      "Columb": 8640,
      "CF": 8641,
      "enc": 8642,
      "Delf": 8643,
      "محتاط": 8644,
      "yt": 8645,
      "تمسخر": 8646,
      "قرون": 8647,
      "دوگانه": 8648,
      "محرک": 8649,
      "تعطیل": 8650,
      "$$": 8651,
      "612": 8652,
      "بابت": 8653,
      "دوبل": 8654,
      "رستاخی": 8655,
      "اعلیحضرت": 8656,
      "EEC": 8657,
      "Page": 8658,
      "کتوری": 8659,
      "کاندید": 8660,
      "rel": 8661,
      "مکث": 8662,
      "item": 8663,
      "عمیقی": 8664,
      "کادی": 8665,
      "جامد": 8666,
      "گناهی": 8667,
      "گازهای": 8668,
      "والی": 8669,
      "تورهای": 8670,
      "تروریست": 8671,
      "رادیکال": 8672,
      "nit": 8673,
      "بیوه": 8674,
      "نورلی": 8675,
      "یوشع": 8676,
      "بیستمین": 8677,
      "اعتبارات": 8678,
      "اسکله": 8679,
      "Kar": 8680,
      "ولسوالی": 8681,
      "آموخته": 8682,
      "دنیایی": 8683,
      "ECD": 8684,
      "Pages": 8685,
      "SI": 8686,
      "دایر": 8687,
      "اندون": 8688,
      "کشیدم": 8689,
      "شجاعانه": 8690,
      "اعصاب": 8691,
      "سوچی": 8692,
      "829": 8693,
      "ias": 8694,
      "то": 8695,
      "یمی": 8696,
      "راما": 8697,
      "نظرش": 8698,
      "ety": 8699,
      "رستاخیز": 8700,
      "Par": 8701,
      "توسل": 8702,
      "شماری": 8703,
      "مکال": 8704,
      "گاگاو": 8705,
      "son": 8706,
      "ка": 8707,
      "حالم": 8708,
      "اساسنامه": 8709,
      "تیمور": 8710,
      "صادرکننده": 8711,
      "908": 8712,
      "TH": 8713,
      "iGate": 8714,
      "CommuniGate": 8715,
      "Cam": 8716,
      "برنج": 8717,
      "لیبر": 8718,
      "توانبخشی": 8719,
      "شوق": 8720,
      "تراکتور": 8721,
      "مفاهیم": 8722,
      "نمادهای": 8723,
      "BA": 8724,
      "قین": 8725,
      "گزارشی": 8726,
      "الیزابت": 8727,
      "ساگینتایف": 8728,
      "املی": 8729,
      "ito": 8730,
      "ساختاری": 8731,
      "iag": 8732,
      "اا": 8733,
      "نکو": 8734,
      "اتان": 8735,
      "پیشانی": 8736,
      "گرداند": 8737,
      "پرولتاری": 8738,
      "مومنان": 8739,
      "Dev": 8740,
      "Vis": 8741,
      "سرپوشیده": 8742,
      "سواد": 8743,
      "اشلی": 8744,
      "عرصه": 8745,
      "شایعات": 8746,
      "Virus": 8747,
      "مملو": 8748,
      "بوئ": 8749,
      "مقاوم": 8750,
      "دینگی": 8751,
      "کهکش": 8752,
      "icut": 8753,
      "گذرنامه": 8754,
      "برانگیز": 8755,
      "محرمانه": 8756,
      "515": 8757,
      "work": 8758,
      "رومیان": 8759,
      "203": 8760,
      "ادیان": 8761,
      "پرتره": 8762,
      "905": 8763,
      "صبای": 8764,
      "شنه": 8765,
      "306": 8766,
      "نقدینگی": 8767,
      "سیستماتیک": 8768,
      "کارفرمایان": 8769,
      "280": 8770,
      "مکزیکو": 8771,
      "سوق": 8772,
      "درها": 8773,
      "مارکسی": 8774,
      "بنزین": 8775,
      "معلولان": 8776,
      "رویکردهای": 8777,
      "enz": 8778,
      "204": 8779,
      "\"\"\"\"\"\"\"\"\"\"\"\"\"\"": 8780,
      "ange": 8781,
      "Connecticut": 8782,
      "اورانیوم": 8783,
      "russ": 8784,
      "حقی": 8785,
      "غالی": 8786,
      "تیپ": 8787,
      "آریزونا": 8788,
      "KazMunayGas": 8789,
      "RF": 8790,
      "کریم": 8791,
      "نفرین": 8792,
      "988": 8793,
      "نگذار": 8794,
      "مصلوب": 8795,
      "دهانش": 8796,
      "کاسه": 8797,
      "ventspils": 8798,
      "HT": 8799,
      "برپا": 8800,
      "خوابیده": 8801,
      "بازرگانان": 8802,
      "xPages": 8803,
      "آلبانی": 8804,
      "روندهای": 8805,
      "فداکاری": 8806,
      "ربات": 8807,
      "قوا": 8808,
      "اتمی": 8809,
      "ement": 8810,
      "نوشیدن": 8811,
      "تعمیرات": 8812,
      "صبایوت": 8813,
      "تلر": 8814,
      "سیاستمداران": 8815,
      "ژامبیل": 8816,
      "ck": 8817,
      "خاری": 8818,
      "ولتاژ": 8819,
      "بورن": 8820,
      "912": 8821,
      "oh": 8822,
      "we": 8823,
      "گیم": 8824,
      "گونگی": 8825,
      "پلاستیکی": 8826,
      "ناراضی": 8827,
      "پنهانی": 8828,
      "معاف": 8829,
      "فاشی": 8830,
      "بزرگان": 8831,
      "ete": 8832,
      "پیوندهای": 8833,
      "719": 8834,
      "CN": 8835,
      "OK": 8836,
      "لری": 8837,
      "چطوری": 8838,
      "996": 8839,
      "چگونگی": 8840,
      "کرمل": 8841,
      "متحدان": 8842,
      "دانستیم": 8843,
      "لباسشویی": 8844,
      "نکردنی": 8845,
      "غواص": 8846,
      "Cap": 8847,
      "موری": 8848,
      "\"\"\"\"\"\"\"\"\"": 8849,
      "170": 8850,
      "isk": 8851,
      "ouch": 8852,
      "resources": 8853,
      "جدیدترین": 8854,
      "گناهکار": 8855,
      "Bus": 8856,
      "لیتی": 8857,
      "متنی": 8858,
      "متناسب": 8859,
      "ines": 8860,
      "بزنیم": 8861,
      "عبارات": 8862,
      "درخشش": 8863,
      "طناب": 8864,
      "موث": 8865,
      "معت": 8866,
      "دامن": 8867,
      "شطرنج": 8868,
      "ner": 8869,
      "پوف": 8870,
      "226": 8871,
      "عظیمی": 8872,
      "توافقات": 8873,
      "Sal": 8874,
      "cial": 8875,
      "جاه": 8876,
      "جینی": 8877,
      "305": 8878,
      "ایتان": 8879,
      "رزمی": 8880,
      "مصری": 8881,
      "door": 8882,
      "پلاستیک": 8883,
      "دیواری": 8884,
      "مذکور": 8885,
      "آباد": 8886,
      "260": 8887,
      "619": 8888,
      "لکه": 8889,
      "مناقصه": 8890,
      "Cal": 8891,
      "ail": 8892,
      "توت": 8893,
      "اشکالی": 8894,
      "غیرفعال": 8895,
      "بیکار": 8896,
      "Conver": 8897,
      "بورژوایی": 8898,
      "buy": 8899,
      "Intel": 8900,
      "هوانوردی": 8901,
      "CE": 8902,
      "غرا": 8903,
      "متون": 8904,
      "اربا": 8905,
      "بیلی": 8906,
      "توانش": 8907,
      "گیل": 8908,
      "میلان": 8909,
      "مخاطبان": 8910,
      "vrachi": 8911,
      "ودا": 8912,
      "کیشوت": 8913,
      "حرکات": 8914,
      "چادر": 8915,
      "خوف": 8916,
      "مخاب": 8917,
      "سنگاپور": 8918,
      "کازان": 8919,
      "هوشیار": 8920,
      "899": 8921,
      "شانون": 8922,
      "گذارم": 8923,
      "ورزشکار": 8924,
      "بکشند": 8925,
      "kh": 8926,
      "لاق": 8927,
      "خداوندا": 8928,
      "آسایش": 8929,
      "سپاری": 8930,
      "ناطی": 8931,
      "نشستی": 8932,
      "پارتی": 8933,
      "فریسیان": 8934,
      "NBK": 8935,
      "js": 8936,
      "ناتوانی": 8937,
      "خارق": 8938,
      "اپرا": 8939,
      "777": 8940,
      "تضمینی": 8941,
      "اتوم": 8942,
      "مسافرخانه": 8943,
      "غافلگیر": 8944,
      "As": 8945,
      "hotel": 8946,
      "nik": 8947,
      "ook": 8948,
      "آرد": 8949,
      "اقدامی": 8950,
      "کیهانی": 8951,
      "اسکریپت": 8952,
      "ND": 8953,
      "irov": 8954,
      "اکسی": 8955,
      "268": 8956,
      "414": 8957,
      "Se": 8958,
      "تاش": 8959,
      "زیتون": 8960,
      "TML": 8961,
      "Columbia": 8962,
      "جکسون": 8963,
      "کانت": 8964,
      "میزگرد": 8965,
      "جناب": 8966,
      "یات": 8967,
      "مایی": 8968,
      "تمرینات": 8969,
      "پیامبران": 8970,
      "عاقلانه": 8971,
      "SK": 8972,
      "شومینه": 8973,
      "مغناطی": 8974,
      "345": 8975,
      "Park": 8976,
      "ft": 8977,
      "ura": 8978,
      "تکنولوژی": 8979,
      "FI": 8980,
      "آنطور": 8981,
      "کشند": 8982,
      "آوریم": 8983,
      "دایرکتوری": 8984,
      "گارت": 8985,
      "همدردی": 8986,
      "زدایی": 8987,
      "304": 8988,
      "ely": 8989,
      "شوراهای": 8990,
      "ideo": 8991,
      "هالی": 8992,
      "یوری": 8993,
      "336": 8994,
      "سنگینی": 8995,
      "بلندی": 8996,
      "Dnepr": 8997,
      "ple": 8998,
      "یارو": 8999,
      "هیچوقت": 9000,
      "Aut": 9001,
      "ere": 9002,
      "دبیرستان": 9003,
      "Pa": 9004,
      "بدانیم": 9005,
      "لوک": 9006,
      "ator": 9007,
      "سخاوت": 9008,
      "ویتنام": 9009,
      "Express": 9010,
      "فلز": 9011,
      "سوختنی": 9012,
      "wordpress": 9013,
      "Tamp": 9014,
      "امّ": 9015,
      "دانشمند": 9016,
      "پناهندگان": 9017,
      "EP0LV": 9018,
      "vel": 9019,
      "سپرد": 9020,
      "نون": 9021,
      "یکو": 9022,
      "جنب": 9023,
      "گمشده": 9024,
      "متوف": 9025,
      "شمعون": 9026,
      "اودسا": 9027,
      "میدم": 9028,
      "اتفاقات": 9029,
      "Rec": 9030,
      "مخلوق": 9031,
      "212": 9032,
      "پاو": 9033,
      "ریزد": 9034,
      "سانفرانسیسکو": 9035,
      "سامسون": 9036,
      "مخفیانه": 9037,
      "تصادف": 9038,
      "sch": 9039,
      "«،": 9040,
      "اژ": 9041,
      "دیدیم": 9042,
      "ماتور": 9043,
      "Moun": 9044,
      "خوشبخت": 9045,
      "pol": 9046,
      "استعل": 9047,
      "تریلیون": 9048,
      "282": 9049,
      "rey": 9050,
      "10000": 9051,
      "پنجه": 9052,
      "Security": 9053,
      "بپرسید": 9054,
      "اشتیم": 9055,
      "آمدی": 9056,
      "بشقاب": 9057,
      "قلبم": 9058,
      "قضیه": 9059,
      "پرسیدم": 9060,
      "PUH": 9061,
      "اغ": 9062,
      "سرتا": 9063,
      "inc": 9064,
      "نمایشی": 9065,
      "مالا": 9066,
      "الیور": 9067,
      "روشنی": 9068,
      "یکن": 9069,
      "بردارد": 9070,
      "rol": 9071,
      "III": 9072,
      "صریح": 9073,
      "عذرخواهی": 9074,
      "Tor": 9075,
      "مبله": 9076,
      "پناهگاه": 9077,
      "تسخیر": 9078,
      "بایی": 9079,
      "کولی": 9080,
      "گانگی": 9081,
      "نشدنی": 9082,
      "آنتونیو": 9083,
      "بردم": 9084,
      "خوای": 9085,
      "unt": 9086,
      "شاگردانش": 9087,
      "SB": 9088,
      "ختند": 9089,
      "ترانزیت": 9090,
      "DO": 9091,
      "تبعید": 9092,
      "فئود": 9093,
      "ندا": 9094,
      "شدگان": 9095,
      "انتان": 9096,
      "228": 9097,
      "گندم": 9098,
      "ممت": 9099,
      "انص": 9100,
      "میتونی": 9101,
      "ازل": 9102,
      "سیستمی": 9103,
      "آبخازیا": 9104,
      "دمکرات": 9105,
      "Group": 9106,
      "نشدند": 9107,
      "صدمین": 9108,
      "پنل": 9109,
      "INV": 9110,
      "محبوبیت": 9111,
      "باهاش": 9112,
      "924": 9113,
      "نشوید": 9114,
      "مرخص": 9115,
      "عزیزان": 9116,
      "استعلام": 9117,
      "الاختیار": 9118,
      "دادرسی": 9119,
      "همکف": 9120,
      "شاگرد": 9121,
      "آفرین": 9122,
      "cosmet": 9123,
      "958": 9124,
      "پون": 9125,
      "انض": 9126,
      "اعزام": 9127,
      "تداو": 9128,
      "رقیب": 9129,
      "سازش": 9130,
      "عبدال": 9131,
      "Pet": 9132,
      "قایی": 9133,
      "رالی": 9134,
      "Color": 9135,
      "oll": 9136,
      "شوک": 9137,
      "assa": 9138,
      "حوصله": 9139,
      "تلفیقی": 9140,
      "racy": 9141,
      "TB": 9142,
      "سایل": 9143,
      "صحرا": 9144,
      "آشفتگی": 9145,
      "مسیحیت": 9146,
      "فضاهای": 9147,
      "rist": 9148,
      "وکلای": 9149,
      "ماسه": 9150,
      "::::::": 9151,
      "خزر": 9152,
      "266": 9153,
      "عمدا": 9154,
      "جیلبریک": 9155,
      "رمزگذاری": 9156,
      "گمرک": 9157,
      "بروز": 9158,
      "264": 9159,
      "خریدار": 9160,
      "جاسوسی": 9161,
      "پوشانده": 9162,
      "رفقا": 9163,
      "بناهای": 9164,
      "آداب": 9165,
      "سرتاسر": 9166,
      "cosmetology": 9167,
      "GP": 9168,
      "ит": 9169,
      "قاد": 9170,
      "منشی": 9171,
      "ابتدایی": 9172,
      "ENT": 9173,
      "OECD": 9174,
      "آرتور": 9175,
      "برگزیده": 9176,
      "och": 9177,
      "همدیگر": 9178,
      "سرود": 9179,
      "iness": 9180,
      "Lou": 9181,
      "سرسخت": 9182,
      "قانونگذاری": 9183,
      "بهتره": 9184,
      "656": 9185,
      "HO": 9186,
      "لوس": 9187,
      "مسلط": 9188,
      "mbH": 9189,
      "ناپلئون": 9190,
      "718": 9191,
      "Cas": 9192,
      "تحلیلی": 9193,
      "نظرم": 9194,
      "عرب": 9195,
      "حسابی": 9196,
      "آکواریوم": 9197,
      "ual": 9198,
      "ازش": 9199,
      "رسو": 9200,
      "هیت": 9201,
      "خسارت": 9202,
      "میدانی": 9203,
      "مدعی": 9204,
      "آلیوشا": 9205,
      "وص": 9206,
      "ازت": 9207,
      "اطع": 9208,
      "قدری": 9209,
      "مهاجران": 9210,
      "610": 9211,
      "fer": 9212,
      "دریافتی": 9213,
      "نسبی": 9214,
      "cent": 9215,
      "مالزی": 9216,
      "مندی": 9217,
      "دفترچه": 9218,
      "ساراتوف": 9219,
      "زاویه": 9220,
      "تداوم": 9221,
      "سایلنت": 9222,
      "خشکی": 9223,
      "صادراتی": 9224,
      "Resources": 9225,
      "فلسطینیان": 9226,
      "رطو": 9227,
      "کینه": 9228,
      "ایایی": 9229,
      "تاثی": 9230,
      "اندازهای": 9231,
      "موشکی": 9232,
      "فهرستی": 9233,
      "غرامت": 9234,
      "رطوبت": 9235,
      "رایزنی": 9236,
      "بشری": 9237,
      "والری": 9238,
      "آرایش": 9239,
      "حیر": 9240,
      "مبنای": 9241,
      "دروس": 9242,
      "ira": 9243,
      "بزنند": 9244,
      "GmbH": 9245,
      "ZL": 9246,
      "مرج": 9247,
      "بوسید": 9248,
      "خلقت": 9249,
      "Lin": 9250,
      "je": 9251,
      "mon": 9252,
      "گرای": 9253,
      "222": 9254,
      "خودمختار": 9255,
      "بقایای": 9256,
      "ко": 9257,
      "متعاق": 9258,
      "بپردازیم": 9259,
      "اندونزی": 9260,
      "کارو": 9261,
      "ویرجینی": 9262,
      "هفتگی": 9263,
      "بفهمد": 9264,
      "پرنسس": 9265,
      "520": 9266,
      "510": 9267,
      "پرهی": 9268,
      "پاسپورت": 9269,
      "پدربزرگ": 9270,
      "کشیدند": 9271,
      "اسکندر": 9272,
      "20160804": 9273,
      "She": 9274,
      "پلاس": 9275,
      "کوتو": 9276,
      "Char": 9277,
      "گذرگاه": 9278,
      "Lake": 9279,
      "cc": 9280,
      "\"\"\"\"؛": 9281,
      "انجامش": 9282,
      "227": 9283,
      "مهندس": 9284,
      "دیوارها": 9285,
      "تایلند": 9286,
      "Son": 9287,
      "سنی": 9288,
      "یانگ": 9289,
      "رالف": 9290,
      "And": 9291,
      "مسلحانه": 9292,
      "بازگرداند": 9293,
      "wiki": 9294,
      "ساری": 9295,
      "ندگانی": 9296,
      "ence": 9297,
      "480": 9298,
      "افتخاری": 9299,
      "میتیا": 9300,
      "بخورید": 9301,
      "پاورپوینت": 9302,
      "Astana": 9303,
      "حرفی": 9304,
      "قرا": 9305,
      "نشر": 9306,
      "چت": 9307,
      "رسم": 9308,
      "Card": 9309,
      "بگویند": 9310,
      "نیفت": 9311,
      "ISD": 9312,
      "تثلی": 9313,
      "files": 9314,
      "تعاونی": 9315,
      "طلاق": 9316,
      "ارجاع": 9317,
      "Red": 9318,
      "شتر": 9319,
      "خودآگاه": 9320,
      "Anal": 9321,
      "میهمانان": 9322,
      "ویرجینیای": 9323,
      "کوهی": 9324,
      "پنیر": 9325,
      "داروهای": 9326,
      "national": 9327,
      "آنت": 9328,
      "معقول": 9329,
      "بازیگر": 9330,
      "آهنی": 9331,
      "ارقام": 9332,
      "کرملین": 9333,
      "Mil": 9334,
      "تایتان": 9335,
      "\"\"\"[": 9336,
      "آماری": 9337,
      "نگهبانان": 9338,
      "سائو": 9339,
      "کانون": 9340,
      "ato": 9341,
      "Adobe": 9342,
      "متالور": 9343,
      "fin": 9344,
      "سوزن": 9345,
      "ari": 9346,
      "اتفاقا": 9347,
      "بخرید": 9348,
      "نعمت": 9349,
      "++": 9350,
      "346": 9351,
      "فلا": 9352,
      "فصلی": 9353,
      "تحریر": 9354,
      "مونتانا": 9355,
      "Backdoor": 9356,
      "Fre": 9357,
      "ظرافت": 9358,
      "برداشتن": 9359,
      "سرچشمه": 9360,
      "اسیر": 9361,
      "نزدیکتر": 9362,
      "مادران": 9363,
      "سونیا": 9364,
      "دستکاری": 9365,
      "مواقع": 9366,
      "ضعی": 9367,
      "نترس": 9368,
      "راکت": 9369,
      "1989": 9370,
      "پروازهای": 9371,
      "نجیب": 9372,
      "کیهان": 9373,
      "تنگستن": 9374,
      "ریچموند": 9375,
      "،»": 9376,
      "مونا": 9377,
      "کتک": 9378,
      "پولیس": 9379,
      "آذربایجانی": 9380,
      "یکنوا": 9381,
      "آپل": 9382,
      "روبروی": 9383,
      "دوز": 9384,
      "فرس": 9385,
      "499": 9386,
      "تعمیق": 9387,
      "سپر": 9388,
      "لار": 9389,
      "سیری": 9390,
      "ترسی": 9391,
      "منطق": 9392,
      "Island": 9393,
      "mg": 9394,
      "یازده": 9395,
      "اسکات": 9396,
      "221": 9397,
      "365": 9398,
      "غرغر": 9399,
      "الکترو": 9400,
      "پویایی": 9401,
      "607": 9402,
      "Ber": 9403,
      "مکن": 9404,
      "میزی": 9405,
      "ادو": 9406,
      "ویز": 9407,
      "سازان": 9408,
      "بالینی": 9409,
      "pub": 9410,
      "نگرفته": 9411,
      "درخش": 9412,
      "کاشی": 9413,
      "لامپ": 9414,
      "جویان": 9415,
      "قاطعانه": 9416,
      "HTML": 9417,
      "Log": 9418,
      "hor": 9419,
      "xy": 9420,
      "منه": 9421,
      "وانمود": 9422,
      "Volga": 9423,
      "بجنگ": 9424,
      "مستر": 9425,
      "پانوراما": 9426,
      "Converter": 9427,
      "VIP": 9428,
      "234": 9429,
      "GR": 9430,
      "Mang": 9431,
      "شنکو": 9432,
      "اتاقی": 9433,
      "برگشتم": 9434,
      "شکارچی": 9435,
      "مغناطیسی": 9436,
      "insk": 9437,
      "سونی": 9438,
      "پایش": 9439,
      "کوره": 9440,
      "رگ": 9441,
      "265": 9442,
      "آفتابی": 9443,
      "غالب": 9444,
      "دبیرخانه": 9445,
      "چاپی": 9446,
      "не": 9447,
      "زشت": 9448,
      "ماع": 9449,
      "پوشی": 9450,
      "چرخاند": 9451,
      "پیامی": 9452,
      "Star": 9453,
      "TrojanSpy": 9454,
      "مایکروویو": 9455,
      "چرخد": 9456,
      "okia": 9457,
      "12345": 9458,
      "956": 9459,
      "Pol": 9460,
      "mag": 9461,
      "سله": 9462,
      "ولنت": 9463,
      "...\"\"\"": 9464,
      "پروانه": 9465,
      "276": 9466,
      "Master": 9467,
      "ممتاز": 9468,
      "AU": 9469,
      "TI": 9470,
      "قاعده": 9471,
      "بازخرید": 9472,
      "شرارت": 9473,
      "حیله": 9474,
      "جوهر": 9475,
      "Super": 9476,
      "خزانه": 9477,
      "ient": 9478,
      "امواج": 9479,
      "هارد": 9480,
      "لاغر": 9481,
      "حالتی": 9482,
      "عموی": 9483,
      "کلیساهای": 9484,
      "بفهمم": 9485,
      "قبایل": 9486,
      "جهش": 9487,
      "میلاد": 9488,
      "چشمانم": 9489,
      "دویست": 9490,
      "EP0N": 9491,
      "vider": 9492,
      "GL": 9493,
      "SR": 9494,
      "mW": 9495,
      "خوشی": 9496,
      "متغیر": 9497,
      "مدود": 9498,
      "قرنتی": 9499,
      "معنایی": 9500,
      "پیراهن": 9501,
      "lit": 9502,
      "mar": 9503,
      "ازدهم": 9504,
      "نشیا": 9505,
      "غیبت": 9506,
      "نیزه": 9507,
      "بنویسید": 9508,
      "اسنادی": 9509,
      "تثلیث": 9510,
      "View": 9511,
      "اتل": 9512,
      "تایپ": 9513,
      "حیرت": 9514,
      "ولنتاین": 9515,
      "عطر": 9516,
      "نکنی": 9517,
      "میدون": 9518,
      "دیفن": 9519,
      "ریح": 9520,
      "owa": 9521,
      "انحصار": 9522,
      "democ": 9523,
      "آپلود": 9524,
      "بگی": 9525,
      "صراحت": 9526,
      "نگرو": 9527,
      "237": 9528,
      "287": 9529,
      "تاثیرات": 9530,
      ";\"\"\"\"": 9531,
      "ذره": 9532,
      "رژه": 9533,
      "خونی": 9534,
      "کاشته": 9535,
      "cr": 9536,
      "qPage": 9537,
      "لانه": 9538,
      "مواضع": 9539,
      "دوس": 9540,
      "کانکتیک": 9541,
      "غیریهودیان": 9542,
      "اخم": 9543,
      "برگزارکنندگان": 9544,
      "انوس": 9545,
      "تویی": 9546,
      "رولکس": 9547,
      "سوزاند": 9548,
      "کانکتیکات": 9549,
      "424": 9550,
      "616": 9551,
      "dor": 9552,
      "بازگ": 9553,
      "جونی": 9554,
      "........": 9555,
      "تخلفات": 9556,
      "898": 9557,
      "کارگردان": 9558,
      "دیمن": 9559,
      "دومینی": 9560,
      "اسح": 9561,
      "حمایتی": 9562,
      "معتقدند": 9563,
      "هانس": 9564,
      "افشا": 9565,
      "کیزیلوردا": 9566,
      "علنی": 9567,
      "مارکت": 9568,
      "نیومکزیکو": 9569,
      "اسحاق": 9570,
      "ре": 9571,
      "بخواند": 9572,
      "امبورگ": 9573,
      "آنکه": 9574,
      "سلسله": 9575,
      "مختل": 9576,
      "Mary": 9577,
      "قرنتیان": 9578,
      "BL": 9579,
      "pa": 9580,
      "همکارم": 9581,
      "فرستم": 9582,
      "232": 9583,
      "سانچو": 9584,
      "کلوپ": 9585,
      "democracy": 9586,
      "Can": 9587,
      "سنجی": 9588,
      "پز": 9589,
      "بلوط": 9590,
      "لوکز": 9591,
      "بوته": 9592,
      "370": 9593,
      "مکتوب": 9594,
      "APK": 9595,
      "شمرده": 9596,
      "مونو": 9597,
      "وفق": 9598,
      "ثان": 9599,
      "داول": 9600,
      "نوزدهم": 9601,
      "وقف": 9602,
      "تاکستان": 9603,
      "مشروع": 9604,
      "لوکزامبورگ": 9605,
      "NT": 9606,
      "pn": 9607,
      "آیم": 9608,
      "مارات": 9609,
      "فراوانی": 9610,
      "مبتدی": 9611,
      "دفع": 9612,
      "202": 9613,
      "تماشاگر": 9614,
      "تعاملی": 9615,
      "بزرگداشت": 9616,
      "238": 9617,
      "تراکنش": 9618,
      "بریز": 9619,
      "سرورهای": 9620,
      "هفتمین": 9621,
      "Enter": 9622,
      "مجاور": 9623,
      "ریلی": 9624,
      "illa": 9625,
      "))))": 9626,
      "متعال": 9627,
      "987": 9628,
      "ci": 9629,
      "(...)": 9630,
      "رکود": 9631,
      "چلی": 9632,
      "بانکداری": 9633,
      "مونتری": 9634,
      "کریستال": 9635,
      "امّا": 9636,
      "تقل": 9637,
      "سلو": 9638,
      "نورد": 9639,
      "روستاها": 9640,
      "طوفانی": 9641,
      "شاعر": 9642,
      "SM": 9643,
      "سرپرستی": 9644,
      "تمامیت": 9645,
      "لیکو": 9646,
      "پرولتاریای": 9647,
      "409": 9648,
      "kov": 9649,
      "کنسر": 9650,
      "تسویه": 9651,
      "بیداری": 9652,
      "youtube": 9653,
      "children": 9654,
      "سیو": 9655,
      "inst": 9656,
      "نگهبانی": 9657,
      "کمین": 9658,
      "تاکتیک": 9659,
      "270": 9660,
      "833": 9661,
      "FL": 9662,
      "Rost": 9663,
      "``": 9664,
      "dale": 9665,
      "کمیاب": 9666,
      "235": 9667,
      "osa": 9668,
      "تانک": 9669,
      "تجهیز": 9670,
      "bankas": 9671,
      "دب": 9672,
      "هف": 9673,
      "خونس": 9674,
      "دوک": 9675,
      "سویا": 9676,
      "نیستریا": 9677,
      "تغییری": 9678,
      "wa": 9679,
      "ئور": 9680,
      "ارمیا": 9681,
      "مقیم": 9682,
      "تلفات": 9683,
      "برگشتی": 9684,
      "تجربی": 9685,
      "bi": 9686,
      "ذراع": 9687,
      "هرج": 9688,
      "ext": 9689,
      "روشنفکر": 9690,
      "رویاهای": 9691,
      "mark": 9692,
      "دنج": 9693,
      "نادر": 9694,
      "ney": 9695,
      "دکترای": 9696,
      "انعقاد": 9697,
      "Tem": 9698,
      "جوز": 9699,
      "خبرنگار": 9700,
      "هشتم": 9701,
      "nes": 9702,
      "vis": 9703,
      "طوب": 9704,
      "هگل": 9705,
      "هاب": 9706,
      "آناتو": 9707,
      "قرص": 9708,
      "ital": 9709,
      "مذهب": 9710,
      "؟؟؟؟": 9711,
      "cialis": 9712,
      "استرد": 9713,
      "مسن": 9714,
      "گردانی": 9715,
      "متحیر": 9716,
      "کاربردهای": 9717,
      "ثانیا": 9718,
      "خواص": 9719,
      "خواهران": 9720,
      "پیرزن": 9721,
      "استثنا": 9722,
      "904": 9723,
      "نانو": 9724,
      "تاس": 9725,
      "ruk": 9726,
      "تصدیق": 9727,
      "دشت": 9728,
      "دهمین": 9729,
      "الکل": 9730,
      "بازنشسته": 9731,
      "کوهستان": 9732,
      "arez": 9733,
      "لیزر": 9734,
      "خوار": 9735,
      "کارانه": 9736,
      "پیشروی": 9737,
      "نرود": 9738,
      "محققان": 9739,
      "استرداد": 9740,
      "DL": 9741,
      "همون": 9742,
      "ایام": 9743,
      "263": 9744,
      "نفری": 9745,
      "کلیساها": 9746,
      "پشیمان": 9747,
      "Louis": 9748,
      "fc": 9749,
      "ممکنه": 9750,
      "INVES": 9751,
      "اینطوری": 9752,
      "reak": 9753,
      "متنفرم": 9754,
      "خداحافظی": 9755,
      "پتی": 9756,
      "نظامیان": 9757,
      "parterz": 9758,
      "اتومبیل": 9759,
      "دیفندرز": 9760,
      "EBR": 9761,
      "اخط": 9762,
      "تلند": 9763,
      "127": 9764,
      "una": 9765,
      "lax": 9766,
      "رنگار": 9767,
      "پرستار": 9768,
      "pur": 9769,
      "میشن": 9770,
      "منشویک": 9771,
      "اورال": 9772,
      "rgn": 9773,
      "بشنود": 9774,
      "\"\".\"": 9775,
      "نیوس": 9776,
      "پروتئ": 9777,
      "جدیدم": 9778,
      "گمراه": 9779,
      "INT": 9780,
      "صمیمی": 9781,
      "گوسفندان": 9782,
      "هراسی": 9783,
      "مدودف": 9784,
      "آتن": 9785,
      "گوئه": 9786,
      "جانگ": 9787,
      "خورم": 9788,
      "همسرم": 9789,
      "ارکستر": 9790,
      "ژنت": 9791,
      "میامی": 9792,
      "ماسیون": 9793,
      "مشترکی": 9794,
      "روانشناسی": 9795,
      "کتابی": 9796,
      "پسرانش": 9797,
      "مرخصی": 9798,
      "استار": 9799,
      "illo": 9800,
      "1200": 9801,
      "786": 9802,
      "Gen": 9803,
      "کسر": 9804,
      "بنگاه": 9805,
      "هیر": 9806,
      "کفر": 9807,
      "معراج": 9808,
      "atal": 9809,
      "شکستگی": 9810,
      "کنسولگری": 9811,
      "550": 9812,
      "ارید": 9813,
      "باکره": 9814,
      "ریش": 9815,
      "صحت": 9816,
      "کنارش": 9817,
      "BSOD": 9818,
      "jpg": 9819,
      "Tech": 9820,
      "غوطه": 9821,
      "گازی": 9822,
      "انک": 9823,
      "شرت": 9824,
      "تونل": 9825,
      "مدتها": 9826,
      "جادوگر": 9827,
      "Server": 9828,
      "Iowa": 9829,
      "ترفند": 9830,
      "سهمیه": 9831,
      "رایت": 9832,
      "عقاید": 9833,
      "\"\"\"\":\"\"\"\"": 9834,
      "mWiki": 9835,
      "BM": 9836,
      "Bel": 9837,
      "ملاح": 9838,
      "ورشو": 9839,
      "نشستن": 9840,
      "image": 9841,
      "جمعیتی": 9842,
      "Barcel": 9843,
      "pmwiki": 9844,
      "650": 9845,
      ">\"\"\"": 9846,
[...]
